[PAD]
[UNK]
[CLS]
[SEP]
[MASK]
이
.
다
는
에
을
하
의
가
은
고
,
한
지
를
기
으
1
있
대
도
으로
인
일
2
들
사
수
시
(
)
로
했
아
전
해
에서
그
보
과
어
'
자
것
적
주
만
정
부
나
라
상
면
중
제
등
게
경
3
개
위
공
되
할
원
"
조
와
국
성
년
여
된
거
유
%
관
비
서
20
내
소
모
었
5
연
한다
신
마
4
오
미
월
분
세
선
말
##니다
안
구
없
통
우
?
최
스
생
동
며
실
문
예
발
매
회
현
때
않
진
당
방
장
화
6
##00
영
차
계
바
무
금
까
더
명
억
강
재
증
까지
다고
7
확
입
따
·
건
투
단
8
반
달
~
교
던
감
지난
받
-
추
같
결
불
9
올
대한
노
저
지만
면서
배
된다
특
업
시장
라고
에게
또
다는
포
10
겠
았
습
네
한국
처
201
설
후
평
물
많
함
코
기업
및
판
권
점
부터
아니
산
출
사람
습니다
간
이름
됐
남
김
알
요
사업
니
위해
투자
역
는데
보다
될
외
!
파
19
프
운
데
학
우리
집
못
밝
종
행
합
임
높
본
때문
치
작
라는
호
청
법
민
총
두
참
중국
직
미국
가능
규
리
통해
활
형
협
정부
경우
초
야
피
S
새
변
박
서울
지역
양
필
약
경제
열
환
체
앞
살
검
음
심
였
삼
타
국민
번
밝혔
좋
금융
천
12
C
0
각
11
카
목
순
이상
200
냐
드
지원
이번
따라
증가
채
줄
시간
잘
대해
해야
문제
생각
##000
맞
용
크
:
대표
상승
관계
그러
트
일본
관련
국내
이나
이후
ᄏ
북
손
씨
광
경기
속
/
30
나라
편
함께
사용
개발
대비
기술
A
준
위한
전망
하나
디
누
언
버
성장
##비스
연구
현재
급
15
세계
걸
식
도록
기록
사회
필요
온
표
별
돌
L
근
취
진행
올해
계획
위원
완
가격
대통
기준
거래
가장
서비스
글
애
군
달러
대통령
산업
분기
메
백
상황
최근
P
ᄏᄏ
프로
지난해
늘
복
아이
예상
창
그리
너
브
돼
충
항
시작
넘
토
뉴
다른
독
수준
매출
제품
플
질
절
업체
=
규모
##레이
삼성
I
효
으면
담
큰
K
교육
정보
폭
은행
뒤
해서
정책
이런
지금
려
입니다
M
만들
이용
농
판매
쓰
예정
률
엔
국가
정도
확대
기대
회사
친
대상
조사
전문
자신
으며
향
모두
패
T
베
곳
승
이익
나타
관리
테
하락
커
이날
18
태
13
느
영업
가지
G
결과
E
길
B
평가
제공
##스트
사이
16
현대
사실
는다
왜
금리
따르
14
센
책
기자
처럼
날
논
다양
기관
생산
측
관계자
병
다시
이어
합니다
눈
실적
운영
얼
찾
개선
고객
##라고
25
D
발표
먹
그런
접
철
소비
민주
정치
설명
들어
잡
레
##지만
지속
수익
좀
라며
빠
그리고
키
##렇게
허
상품
한다고
주택
보이
17
어서
돈
##랜드
죽
갖
모든
축
100
거나
듯
그러나
볼
의원
하지만
막
뿐
문화
활동
추가
다음
이라고
또한
##시아
낮
싶
기간
발생
벌
보험
##로나
대학
경쟁
팀
증권
홍
북한
F
최고
최대
50
코로나
그래
21
추진
자동
결정
분석
해외
영향
환경
글로
갈
22
도시
##er
감소
주가
님
지수
24
율
회장
글로벌
포함
는지
유지
##운데
이미
든
공급
새로
많이
개인
끝
강화
참여
다가
몰
머
국제
효과
과정
난
가운데
그룹
##대로
빨
##인다
확인
내용
동안
경영
기존
따른
##in
뭐
외국
놓
시키
수출
아닌
이유
밖
주식
시스
전체
이제
존
블
클
떨
건설
모습
한다는
란
페
센터
악
개월
없이
주요
중심
판단
23
인데
바이
수요
범
러
중요
다면
O
계약
##on
첫
대출
위원회
골
후보
다며
탄
적용
구조
만큼
국회
조정
N
##마트
극
활용
##으며
게임
m
시스템
자산
역시
피해
한편
나오
일부
##부터
+
자금
행사
인터
발전
구성
인간
시설
28
방송
좌
어려
각각
가치
먼
27
29
핵
긴
공개
마련
생활
케
학교
26
장관
40
관심
안전
새로운
펀
안정
터
처음
자리
평균
황
일반
계속
왔
전략
폐
부문
분야
스타
202
같이
캐
자동차
휴
째
우려
직접
통신
여러
봐
해당
조선
상태
R
##반기
못하
준비
당시
전년
층
상대
아직
매수
떨어
회의
오후
내년
##어나
브랜드
문재
홈
자기
미래
선거
##인트
팔
##전자
인상
잠
쇼
전국
##주의
방법
또는
석
밀
능
##너지
아파
출시
여성
혁
응
변화
엄
침
코스
어떤
떠
여기
31
업계
검찰
주장
망
경찰
알려
영화
&
너무
##이터
마음
민주당
실시
프로그
컨
부동
제도
부분
전자
의미
보여
보인다
부담
자유
##라인
윤
인지
어떻
지방
목표
아파트
어야
H
회복
죠
사건
공동
방식
돌아
이야
바로
실제
오전
포인트
물론
희
##an
##스크
프로그램
펀드
뉴스
부동산
콘
육
티
지적
부산
품
s
강조
책임
##리아
비용
답
송
소비자
가구
입장
의견
기사
학생
k
아무
언론
확보
LG
더욱
해도
중소
성공
이사
##이트
풀
업무
노력
시민
장기
교수
협력
스마트
유럽
중앙
가족
이러
요구
보유
외국인
정신
##라도
탈
자체
모르
##니까
롯
정상
지지
대부
기능
##은행
혼
카드
라면
진짜
루
이야기
귀
적극
이렇게
단체
운동
감독
수사
신규
롯데
비중
단계
정권
##al
시대
##or
전환
t
압
특별
건강
##민국
전기
노동
SK
얻
놈
울
사랑
대한민국
다만
퍼
위기
고려
규제
##이스
몇
소리
선정
대부분
그냥
왕
직원
선택
능력
##ar
어떻게
공사
문재인
라도
p
에너지
어요
얼마
역사
봉
60
결국
대해서
비롯
향후
##러스
깨
종목
반영
증시
보호
액
제조
현지
쉽
신청
선수
방문
인가
##at
사고
풍
위치
c
정말
##en
세요
둘
이해
여자
단지
모델
싸
삼성전자
나가
사진
시행
상기
가입
현장
분양
##기업
그것
설치
기반
전문가
견
한테
즉
대구
치료
연구원
어느
공장
대응
격
검사
반면
대로
몸
나온
놀
도입
그렇
처리
인사
씩
역할
기본
이전
의료
업종
해결
오늘
짓
비교
욕
데이터
인정
워
방안
W
흐
얘
구매
병원
조국
##거리
열린
위험
대회
대책
집중
관광
조치
즐
##으나
##다고
투자자
끌
상당
]
여행
쪽
기회
사장
혁신
위해서
솔
##다는
암
믿
재정
비해
##라이
[
199
하루
매출액
착
경험
차지
지급
잔
인터넷
인수
주민
통합
앞서
제한
인해
공간
행정
로서
종합
뛰
교통
거리
선보
고용
제작
맡
매우
시켜
ᄏᄏᄏ
나타났
위원장
지난달
2018
인천
소득
먼저
공정
신용
십
당신
공격
조직
그래서
뜻
네요
000
개최
연결
수입
웃
로부터
구축
아야
##소리
세상
##자리
아서
이하
감사
70
제시
차량
조성
대형
##이지
반대
우선
과거
본격
온라인
해라
디자
;
혜
a
려고
올라
그렇게
자료
이뤄
제외
마다
공공
##어난
둔
끼
꾸
선물
항공
핵심
존재
어린
비율
어디
b
오른
상장
으나
#
세금
채권
500
보였
현실
움
무슨
께
니까
맛
V
세대
과학
누구
보수
##시스
TV
##50
광주
작업
헤
시즌
도움
보도
U
참석
얘기
지분
최초
죄
만나
인기
본부
유통
법인
차이
소재
자연
제대로
진출
댓
지나
빌
80
방향
중소기업
징
식품
라이
개정
자본
동시
반도
프리
작품
아시아
##디어
색
광고
2017
예산
성과
흥
전했
혐
개혁
이동
##es
이루
부족
제주
쿠
무엇
기획
무역
잘못
인도
2000
반도체
공시
확실
쇼핑
보고
여전
못한
##진다
##동안
영상
낙
여부
2015
논의
보내
복지
완화
남자
겨
연속
지구
##ic
납
2016
환자
내려
쳐
통한
디자인
##it
금액
봤
드러
시기
삶
퇴
동기
영국
통화
합의
모바
일정
목적
Q
연합
모바일
이것
대신
생명
을까
할인
경쟁력
택
갑
벤
하이
추정
붙
캠
려는
맥
확산
슬
^
행위
하반기
사례
속도
전쟁
주목
##머니
##므로
설립
더불
검토
에선
달리
그런데
호텔
푸
협의
했으며
완전
전화
협회
의사
슈
우수
부진
수도
친구
l
##이션
으니
공식
거의
체결
환율
감염
댓글
인식
배우
찍
회원
사태
더라도
어렵
조금
요인
Y
사항
못했
다니
제기
##러운
촉
##벤트
밖에
주변
임대
이벤트
등록
변경
청와
부정
활성
재앙
얼마나
청와대
지정
##텐츠
##무원
덧
지도
디지
만든
높이
팬
가까
2014
분위
화학
담당
독일
따라서
사무
당국
헌
35
녹
듣
마지
펼
나왔
발행
홀
방침
숨
론
긍
등장
마이
운용
관한
움직
컴
행동
내부
참가
서로
자원
전달
작년
신고
표현
형태
넘어
최종
민간
창업
일자리
찾아
전시
등급
부모
본인
유가
충분
물량
혐의
플랫
음식
숙
혜택
마지막
가정
규정
덧붙
인하
##리스
긍정
찬
졌
체계
아주
분위기
협상
지표
장애
물가
디지털
##프트
최소
##ing
빈
1000
폼
그만
32
언제
금지
으로써
조건
됨
각종
정의
틀
비판
90
넣
2013
머리
얼굴
소개
주도
장비
의해
러시아
시험
##플레이
음악
흐름
단기
갔
됩
전용
혹
상반기
곡
추천
마케
오려
들어가
마감
KB
##ion
멀
빼
강세
최저
2012
연금
청년
마케팅
프랑
인한
달성
d
변동
##le
심리
36
출신
##re
5000
훈
뉴시스
희망
라인
짜
사전
덕
겪
##없이
##럼프
딸
뭔
으로서
##is
멘
전날
효율
뽑
는가
올랐
계열
사이트
꿈
됩니다
프로젝
매장
덧붙였
보장
##어들
꺼
##린다
바람
동사
근로
마을
집단
2020
심사
밤
주인
설계
콘텐츠
바이오
스마트폰
절차
불구
##회사
매각
고자
진단
사상
트럼프
칼
##버지
대체
똑
잖
2010
써
요청
33
유치
범죄
2019
##스로
랑
가진
꼭
엘
대전
공연
그럼
그동안
∼
300
특징
프로젝트
앤
그녀
스럽
인력
낸
소속
타이
강남
콜
레이
싱
현상
읽
##스터
부품
노조
확진
체험
벗
쓰레
지하
궁
##가지
아들
잇
줘
차례
청소
J
임금
형성
값
섬
감안
술
이르
그대로
흔
측면
작용
연기
다르
g
공감
공무원
스스로
IT
수주
오르
쓰레기
수행
박근
언급
올리
사망
도로
제출
파악
저런
시점
땅
e
흑
신문
원인
f
척
투표
인증
버리
기념
중단
전통
링
빠르
젊
비슷
재판
스포
연간
198
예술
주제
차별
인구
가량
깊
마스크
곧
추세
구체
정확
반응
뇌
어려운
코스피
이게
행복
박근혜
탑
조작
주로
냉
어도
누가
차원
프랑스
바라
싫
##운드
2011
평화
꼬
불과
바탕
셨
발견
45
##이드
실제로
##레스
염
경기도
재산
축소
확정
논란
알려졌
꼴
##한다
정당
34
대우
불법
폴
어린이
건물
류
졸
아래
쉬
시청
외교
##페인
##화점
이달
더니
딱
순이
건축
매도
앱
배당
유명
교회
현대차
누리
뉴욕
익
##나라
강력
결혼
무료
내놓
소식
불안
전반
ᅳ
좌파
나온다
신한
결제
나타나
은데
매매
으로부터
플레이
구속
혈
탓
유로
웨
걱
수상
네이
이끌
편의
목소리
자세
기초
나이
신뢰
나서
*
만드
공유
꼽
겁
재무
느냐
걱정
사업자
손실
국토
##수록
위안
거쳐
바이러스
텍
드라
스포츠
##ro
기여
절대
##페이지
가져
당연
취업
화장
홈페이지
보고서
텔
지켜
옥
38
조합
주주
밥
적자
네트
리그
##30
제안
창출
단순
김정
순이익
##디오
공모
작가
했으나
코리아
출연
점검
KT
채용
프리미
공산
설비
케이
설정
질문
애플
여론
공항
의혹
전력
대화
37
홍보
통과
채널
예방
앞두
둔화
시절
체제
##어지
##의원
@
확장
발언
이어지
총리
셀
텐
해양
52
고민
##el
수수
주문
아버지
새끼
헬
분명
사라
입주
기억
연장
쓸
백화점
나와
코스닥
00
시리
으면서
제일
법원
##스코
##카오
지식
공부
한다면
시각
국정
올림
져
버스
승리
##니스
전혀
소프트
기다
첨
균
접근
##갱이
##증권
미치
자격
장치
ᄒ
해소
##아가
시도
부채
보증
변호
공원
근무
독립
빅
일단
묻
인물
디스
요즘
줬
갤
대선
##et
구나
스토
특성
회담
##as
살펴
베트
특정
진정
의무
려면
동일
된다고
외부
초기
청약
총선
영역
매력
##프라
이미지
지주
남성
##회장
상담
2008
감정
현금
51
스타일
오픈
아닌가
맨
톤
서울시
거짓
스트
피부
청구
##우스
시킨
Yo
상승세
##드시
인근
보상
통계
2009
탐
협약
드라마
빨갱이
나갈
반드시
점유
지배
42
##he
프리미엄
잃
베트남
월드
o
남북
투입
올림픽
순위
순간
팩
어려움
향상
요금
아마
의장
과제
전부
울산
보건
여름
컬
악화
집계
준다
네이버
카카오
n
손해
39
해석
넓
늘어나
제약
말씀
셈
빨리
잖아
매년
위반
48
매입
경남
AI
시리즈
동물
55
쓴
선진
아울
웹
다소
권력
뜨
곤
털
만족
인프라
석유
그림
늦
약세
진입
##환경
##워크
세력
복합
괴
의회
##아들
##무리
국회의원
이메
캐릭
연계
처벌
41
부회장
뒷
##om
소송
끊
##터리
이메일
훈련
셋
다이
의식
3000
원장
유동
전일
출발
늘어
##리오
보통
##ed
빛
캐릭터
요소
선발
상위
쯤
모양
전해
방지
심각
유입
##학교
휘
i
h
강원
유리
개념
특수
사과
역량
밑
마치
범위
의지
롭
품질
급등
뱅
집행
한화
민족
마무리
브라
앉
기대감
가동
법률
기기
ᄍ
승인
작성
휴대
대중
떨어지
##60
외환
실패
마찬
밝혀
별도
세트
정비
이탈
여야
가스
소유
베이
##루션
시켰
세월
계기
마찬가지
수급
거래소
신경
##70
##가리
거기
44
획
오래
미디어
느낌
대학교
기계
근데
노인
근거
이용자
육성
##il
##ac
완성
동의
똑같
파이
완료
태양
무기
본다
통상
YoY
당사
재단
수수료
므로
##ol
그때
지키
촬
엄청
텔레
당하
##ED
네트워크
셔
선언
청소년
시킬
유일
대변
주거
상향
기타
훨
합병
피해자
옮
PC
보안
쌓
꽃
똥
만기
엄마
열리
매일
지요
나요
기부
X
촬영
원자
자식
노래
밸
면적
##공업
자녀
영어
##항공
친환경
##른다
벤처
겸
총장
모집
학습
된다는
연말
줄이
리스크
다운
아요
원칙
통일
파트
직장
49
제발
비즈
불리
자율
래
정리
##ig
갈등
43
65
OO
구입
바뀌
나선
칭
쌍
봉사
토론
솔루션
정기
증거
불가
번호
이슈
커피
그래도
물질
선생
연구소
르
홍콩
이건
떠나
아름
아울러
##BC
테크
하나님
계열사
달라
덜
국채
인권
y
배치
나섰
디스플레이
컴퓨
무대
인공
삭
##ent
수석
맞춰
토지
냈
빠른
인생
##스타
소통
OOO
실질
내리
훨씬
신천
이자
아침
느끼
전세
챙
메이
역대
점수
탄핵
패션
기아
예측
방역
도전
돌파
거래일
##직원
나머
이래
흘
부장
종교
으려
강한
저작
융
허가
노선
객
전월
접수
늘어난
그린
혹은
교사
표시
나머지
CJ
##un
런
자치
골프
맺
거부
주력
천만
일으
농업
CE
주의
뿌
안타
옆
변호사
당장
사기
##산물
조달
##리카
에스
스러운
체육
블록
뮤
신천지
이내
##구나
약속
자주
##다가
아동
법무
46
교체
성능
59
그게
우승
렌
75
흡
축구
자는
고등
야당
듯이
실현
미세
판결
선호
47
봐야
량
조기
구역
##st
부르
기구
특허
회계
여러분
표준
항상
백신
혼자
54
허용
굴
겨울
받아들
군사
축제
철저
부여
응답
성적
취득
당선
개편
봄
그리스
배터리
샤
배경
아프
침체
지사
트리
84
자회사
제조업
바란
꾸준
포기
대사
일상
##요일
400
전남
예비
부대
##피스
저축
##매도
뭘
절반
초등
가계
수원
담보
근로자
처분
지상
원래
하늘
즈
하향
보조
지점
국방
옵
ᄍᄍ
돌아가
미친
단위
폐지
중간
다면서
블랙
개국
##ation
부부
서민
경북
장소
쏟
선동
동반
만약
구간
컴퓨터
고급
수술
션
##메라
유사
로봇
##웨어
텀
##ec
부과
인터뷰
알리
재미
중공업
나타내
##총리
더라
농협
철도
졸업
##am
내수
혁명
나올
고속
나무
이곳
공단
##건설
2007
물류
어머니
미사
##카드
의한
최선
공인
ᅲ
프레
비상
검색
아베
옛
권리
##리지
옷
일어나
##공사
실장
자랑
바꾸
상환
빚
멤
원전
누적
충격
급증
초과
로운
돼지
##라스
짐
거주
##ER
생기
내린
임직원
이란
플러스
불러
화재
소설
이랑
났
상호
포스코
둘러
통제
53
제재
증권사
##20
논리
합리
58
법안
초반
겁니다
부지
화장품
안내
마리
불편
소폭
다수
발굴
실업
극복
수단
본사
ᄒᄒ
전투
스테
남편
_
수정
개별
분리
150
상관
가상
카메라
재고
드리
빠져
연방
재료
아라
의심
조차
센서
품목
바다
##널리
\
85
카페
취소
GS
64
아도
고정
##OS
세기
움직임
56
벽
99
참고
줄어들
메시
입국
신세
여건
미리
신설
##시다
아무리
결합
께서
임명
비즈니스
올려
족
득
비리
성격
##학생
살아
이외
##자기
v
넥
한계
앨
엑
텐데
차단
##일보
학년
벨
철강
리더
##리어
주간
도와
배출
걸쳐
공기
돕
##어진
수용
운전
살펴보
임상
##ur
엠
새롭
4000
면세
무시
투명
균형
##CD
예약
칠
부인
수업
ᄉ
##니아
실천
전하
열심
급락
대만
##ut
낼
mm
맞춤
멤버
미술
대폭
미만
슈퍼
모아
주행
괜
강제
굳
##80
직업
맘
두산
대변인
IP
거든
##티브
집회
선임
구분
당초
묘
57
필수
주말
인재
상업
위협
고통
는데요
생태
>
2021
짧
커지
키로
가슴
오프
아름다
방어
##BS
달하
폰
##닉스
w
노동자
전면
을지
이재
부처
임원
가입자
계산
ET
벗어나
선박
위주
원내
시가
에어
문학
가까이
##ot
딜
나누
장점
일제
바닥
##id
가리
검증
연출
진보
봐라
##담회
이어질
62
도서
지자
제거
연준
국립
##DP
독재
분류
적절
넷
이거
종료
알아
계좌
호조
걷
늘리
호주
지출
한데
국무
뻔
국내외
엔진
시티
전형
유니
학원
##리트
여당
안보
수소
박사
입찰
2005
한국인
출범
km
실험
우주
끌어
신종
상회
텔레콤
팀장
긴급
간담회
원유
응원
진실
대리
떨어진
이른
기조
메시지
흑자
력
수립
600
가르
건데
마켓
197
저렴
유도
##반도
가짜
61
유출
질환
할지
갤럭
메뉴
미사일
반복
양성
마시
갤럭시
주인공
갖추
주년
잊
독자
명령
과장
##간다
CEO
부상
쥐
압력
취급
2006
개정안
야구
신속
판사
##PI
총회
총재
전북
##세대
##케이션
##웨이
헌법
95
는구나
정체
##us
친일
##조건
커뮤
점차
짱
떨어졌
찌
커뮤니
##40
6000
교류
동원
전기차
대기
##ad
절감
요리
화면
##ul
시위
해운
타임
언어
대금
##돼지
관세
주차
비난
평소
신호
클럽
##iv
투기
즐길
선진국
뱅크
취약
이명
63
섹
첨단
선보이
지자체
와서
8000
종류
수지
고위
단독
킹
사법
전개
지연
무리
##거래
김정은
가까운
몽
##거운
갖춘
사실상
멋
실시간
위하
줄어
마쳤
들여
캠페인
깔
너희
한반도
판매량
택시
이행
무조건
페이스
장면
뷰
펼쳐
사유
재난
보험료
이탈리아
아내
In
비행
창조
##먼지
쌀
부사
덕분
가전
관광객
물건
올렸
식사
민주주의
72
꾼
크기
페이
임시
인원
그걸
가맹
대단
##PS
일시
실행
##니어
취임
오랜
미세먼지
트렌
부실
가득
집값
대주
국장
후원
스타트
갑자기
##MC
지시
기금
탁
##고기
살인
편리
후반
##10
위축
경상
성장세
사정
기울
라면서
에이
대하
66
2004
동향
건가
나타냈
핑
마트
어찌
경고
실수
개입
구글
이기
의도
신세계
중국인
##ap
##로드
재개
##우드
굉
진다
어쩌
화폐
흔들
추구
이뤄지
오피스
했었
포트
##가스
주체
회견
평생
원가
계층
거짓말
##리티
핀
개방
내렸
##지능
##op
파트너
전주
##그룹
마저
거듭
부각
수치
예금
인공지능
소장
정규
서울대
강하
습니까
7000
취지
명예
보일
바란다
순환
분쟁
동아
비밀
아이템
밴
급격
##NS
궁금
하고
세종
돌려
하락세
측정
관측
인민
가수
이론
즐기
뚜
빵
낳
한도
항목
##레이드
##TA
충남
의약
기소
조절
앙
태도
는다는
##대표
개돼지
해야지
저장
이때
클라
건지
키우
자국
소방
IC
나중
거래량
자고
노무
맹
일까
굉장
점점
관점
|
상무
어라
소형
동부
EU
강의
촉구
주일
순매도
현황
통신사
직후
제고
풍부
배달
케어
이마트
결론
전원
반발
북미
면세점
군대
성향
주관
해요
동력
조용
서류
##너스
잠재
춘
도착
한정
68
컨설
직전
닥
구현
국면
충전
압박
크리스
NH
중대
양호
고요
제정
정치인
나쁜
고양
연대
가시
저녁
변수
아예
투어
##립니다
학부
레드
800
소프트웨어
횡
예전
도대
수혜
x
선도
120
경계
기아차
69
이틀
비전
마이크
재생
통해서
느껴
67
아닐
파일
죽음
활발
지지율
공약
노트
차관
데이
모임
떼
끼리
유형
훌
##ay
부탁
재건
차익
츠
도대체
##총액
시가총액
든지
기분
모니
맥주
선고
윈
부양
패널
파크
형식
충북
폭력
파워
클래
##튜브
테마
##플레이션
아웃
포장
73
형사
돼야
큐
상하
획득
레벨
광역
금감
심의
닭
예고
비트
급여
접촉
줘야
쏘
나눠
탄소
메모
점포
불가피
생긴
박스
74
77
배송
##and
테이
사퇴
##영상
제목
시세
대안
폭발
##평균
채무
따뜻
벌이
천억
빗
포럼
기다리
질병
탑재
협의회
스위
지하철
ᄌ
##란드
할까
앨범
예수
답변
심판
달려
##랍니다
당부
폐기
따로
196
치료제
##ow
추석
연료
r
상공
스타트업
법무부
엔터
띄
타격
##산업
##이너
##NG
매체
공화
상생
운행
용품
코드
머물
멍
섭
스페인
과세
스토리
우위
유기
시사
실력
테스트
할머니
소셜
부총리
내다
보급
인정받
죽이
##직자
71
대주주
##다면
저희
희생
##일리
정지
교환
깜
이사장
문자
걸리
모여
##어도
아이디어
부사장
촛
라운드
##수기
##ag
비서
적폐
가을
단어
증명
성분
동영상
없애
닷
##ch
모니터
버렸
미군
문서
상징
수많
9000
동양
동네
냐고
철학
트렌드
당기
봐도
당분
던지
노출
2022
자사
아님
운송
의약품
하우스
바꿔
뿌리
상상
고소
##성장
일어
비대
##버스
그럴
싸움
협업
스탠
대가리
짜리
누군
물리
이젠
무능
잉
##으니
는다고
완벽
총괄
풀이
정해
양국
자극
썼
GDP
과연
에요
한다며
태양광
##키지
##od
시중
700
휴대폰
여의
패키지
약간
으니까
76
깨끗
다리
관람
##세요
쾌
게다가
음성
바라보
옵션
협정
들어오
오염
전지
향해
저지
임기
뛰어
패턴
몬
식당
법정
토착
고발
멈
증상
괜찮
$
권한
촛불
눈물
마진
놀라
통하
간단
브라질
금속
컸
당분간
의존
공제
2003
수집
예요
지원금
원내대표
감시
동남
과도
##90
컨설팅
담배
낭
건전
82
파괴
촉진
펜
키워
숲
##나다
ᄂ
판정
듀
내세
연예
대법
발사
냄
적합
청문
덮
움직이
아름다운
보관
델
88
붕
로써
금감원
교육청
이중
페이스북
가공
그만큼
아르
##으면
온도
98
ES
쟁
하이닉스
##난다
숫
칸
건수
IM
단일
가속
회수
장사
근본
성인
햇
게시
월드컵
최적
78
##정부
##조합
해제
바른
##바로
가졌
부서
최악
된다면
못해
자살
IB
자한
튀
연령
연락
##im
목사
상가
화물
생겼
가로
##em
현행
묵
베스트
한당
빙
##비아
나아가
대처
랩
플랜
잠시
컬러
믹
경향
무선
경력
직무
고등학교
불만
ᅳᅳ
노사
고령
##지어
보완
종이
데뷔
##나마
긴장
탄생
도심
세부
개설
대외
맞추
관객
##os
였으며
휴가
솔직
자영
공산당
자문
활약
김영
냐는
입지
편성
교과
오프라인
출장
끝나
시범
별로
##로그
세우
롤
타이어
ᄀ
아이폰
스프
던데
치열
적정
SNS
세포
##준다
물러
초대
캐나다
국당
매물
생존
원화
미니
들어갔
출마
엉
유튜브
격리
시내
St
##나무
이웃
닫
초청
수십
##CC
의하
91
중동
명확
구만
실무
뛰어난
버전
훼
해졌
라이프
농가
실내
심화
건조
상한
기에
##려야
복귀
조언
한국은행
ETF
뭔가
이스
멀티
썩
출전
파업
j
of
계절
ᄃ
배제
원하
81
쇼핑몰
체크
핸
와이
심지어
챔
어제
##ter
폐쇄
자영업
잇따
2002
녀
배상
즉시
기술력
여파
화제
왜구
접종
대행
눈길
모자
공략
낫
중개
진료
요건
부자
줄어든
##ir
의결
바랍니다
도쿄
청장
논문
지난주
시선
징역
숫자
소매
인플레이션
블루
한심
편입
94
##um
살리
대학생
79
##아먹
당했
대상자
재건축
지도자
채택
기재
좁
정하
86
분노
97
증가세
중앙은행
양산
연휴
혼란
제휴
in
92
특화
모듈
최대한
수학
83
윤석
락
가맹점
노무현
발급
공헌
##DI
주최
##미터
주소
서버
갱
확률
방해
##려서
##주시
87
편안
젠
##네시아
연수
협조
어려워
클라우드
격차
으므로
토대
메모리
기독
고도
파리
테러
ᄇ
金
감염증
목숨
확충
이명박
##아지
당한
편의점
교통부
흥국
스러
창원
기지
찬성
복잡
96
퇴직
정식
거대
##ct
그쳤
스피
스카
메르
발주
감성
올라가
ᄋ
그랬
배럴
집권
노후
##가락
93
합격
중립
데일리
인도네시아
룸
성명
침해
증자
눈치
음료
부당
##로스
내일
거든요
ᅲᅲ
와인
애니
유효
표정
한진
bp
어울
새벽
간다
나눔
원료
유엔
서초
청산
하회
아닙
아쉬
PB
헬스
조명
넌
##DA
라서
엄청난
##관리
구하
소중
tv
구제
헛
쏠
금호
대답
단속
강원도
일대
증대
구청
제어
평등
해상
천연
집안
<
빠지
나설
그간
박정
무려
입학
타워
플래
재정부
동료
전라도
융합
##ce
여의도
개성
국세
샌
왼
사안
브리
천안
충족
부끄
펼치
그나마
출판
어떠
선보인다
라이브
푸드
PER
89
##머스
09
고서
국산
중기
황교
입법
##폴리오
포트폴리오
알려져
청문회
##런스
의류
주사
끈
전공
면접
적어도
250
여유
도서관
명품
정원
기도
LCD
벌써
자전
영양
떨어져
투쟁
무서
전해졌
가이드
납부
용기
##테크
밸류
분할
01
03
중도
그저
##고리
월급
묶
적립
##포르
##다른
증정
옹
알려진
이성
주당
공포
난리
권고
웃음
문의
##파이
납품
##IS
용인
연습
아프리카
스크
발전소
취하
반성
##Wh
조심
GM
다녀
훼손
무상
한미
착용
동맹
##igh
시너지
기후
못할
지휘
##도로
최소한
맞이
섬유
##우디
##수수
남부
제주도
둘째
간편
남녀
발휘
KBS
공학
중구
포항
출입
##이즈
골드
선사
당첨
틱
곳곳
스트레스
기독교
광장
이른바
날씨
다행
사무실
고개
해진
선전
두드
##가포르
싱가포르
민감
차세대
복수
최신
편집
한마
##bs
한나라
강도
한나라당
방사
정밀
아트
멸
사내
국고
콩
꼼
차질
건립
상용
동생
세미
##oc
통보
경로
양심
떡
올린
가만
##말로
우리나라
194
높여
느낄
진심
밴드
공천
##LED
LED
sk
고유
달창
the
애널리
만난
아빠
센서스
의문
소수
기온
청원
민원
각국
내외
사회주의
싸우
표주
신탁
오리
노하
시트
자꾸
모터
기상
장난
늘어날
시공
떠오
##경원
색상
꽤
위탁
태국
학과
거론
컵
프레임
소화
무게
진화
저항
캠프
세워
옳
모색
장학
연봉
195
증설
흡수
산하
공동체
순수
##라리
출하
접속
미칠
램
출자
정착
허위
땐
신임
두려
애초
초점
900
감축
뚜렷
생산량
훌륭
끄
##체인
공통
이노
시급
김치
밟
MS
홀딩
연주
봅
라니
로드
작전
소요
자전거
영향력
인용
서부
개시
웅
선보였
됐으며
##뉴스
지위
모으
유발
대북
##물관
##다니
페이지
상처
종사
소녀
이어졌
놀이
신선
보낸
돌리
KOS
극대
중고
강사
주기
모드
그건
##려고
##단지
신체
##러리
##ew
매니
피하
개막
겹
상식
어려울
문제점
한마디
더블
옮겨
이루어지
현안
동남아
연관
도약
부위
그러면
하드
농촌
박람
입증
성남
고생
당일
유저
고기
개소
명단
애널리스트
사모
중반
늘어났
입력
노하우
호소
유로존
블록체인
##서트
정유
버린
운전자
##ia
부드
##져야
대장
웰
취재
##화문
보냈
그러니까
영원
##RA
최우
워크
신분
파견
누군가
엇
흉
엑스
보조금
멕
턴
우한
원자재
개장
냄새
내다봤
커뮤니티
사원
드라이
당해
치킨
줄여
보인
낮추
발매
비례
##제품
수리
Z
##EC
박물관
시원
만주
홀딩스
원리
진흥
동참
돋
스페
lg
장착
백만
오피스텔
추경
호흡
선행
리얼
나경원
명회
##워서
덩
망하
이라
군인
참가자
저자
전무
한지
랜드
숙박
개통
##금리
핫
갈수록
챔피
##시오
회사채
대학원
신라
감독원
공고
##ip
연동
##데이
##TV
이민
뭉
녹색
억제
##버그
다루
유아
톡
2001
칩
EC
공정위
경영자
닝
닷컴
웨이
소상
배정
유치원
결코
탄력
흘러
##다수
그려
찾아가
사라지
대량
유공
몰려
사단
인류
홈런
02
고향
물품
박람회
만남
180
뮤지
##소득
kWh
##리드
조세
전시회
은퇴
콘서트
연초
보스
부작
회전
윤리
전파
세탁
매달
유상
안심
약화
##라지
출산
발달
식물
국민은행
규칙
수처
영웅
매수세
떠올
최순
장중
어차
학부모
달했
각자
프라
높였
자면
수시
##으로
던가
강연
어차피
트위
고시
FO
이사회
##지니어
##리케이션
종가
강점
마법
팝
아기
면제
비디오
사업장
필리
킬
전장
캐피
들어서
IS
##est
소환
달러화
빌딩
실리
화려
도덕
린
한층
랄
시청자
대거
런던
삭제
중견
준공
지침
지진
의학
용역
거치
어쩔
##ab
이걸
차기
청주
극장
##시코
FTA
몰아
중점
단가
생겨
셰
수당
투수
##레인
무너
인제
단장
광화문
체력
양상
}
대법원
한때
스튜
유학
전후
시상
학회
상임
##스토
폴리
면역
제국
링크
마이너스
##회의
사이버
정작
생물
이승
이리
지내
하여
들어간
합동
특검
스토어
신중
걸로
신약
승부
타입
기원
넘어가
##TI
화성
메인
IMF
느라
원자력
세무
잖아요
가해
동결
설득
성폭
반전
달한다
픽
##ity
아무런
그거
보복
연설
좋아
여지
해명
호남
드러나
##에도
설문
결의
황교안
일환
수록
바람직
승진
연합회
항공기
단말
철수
오토
적발
단행
잠정
조항
난다
충돌
작동
앞장
나간
몰랐
110
여력
형제
매국
안팎
지향
전제
농산물
혹시
뒤집
덴
선제
붕괴
스케
세미나
ᅮ
돌입
착수
케이블
MBC
일자
드러내
영장
차리
대가
견인
##뜨리
##스티
부가
질서
캡
일각
실망
인치
Ch
건설사
벌금
밀리
평창
##지사
첫째
조만
주위
신사
번역
용산
##PG
회복세
쿠폰
경비
찰
차라리
대한항공
압도
수능
만화
국방부
바르
교육부
근처
수영
통장
영입
깊이
커버
경매
유행
세제
05
철회
바보
US
내달
선출
대다수
비하
후속
유공자
행보
##로지
본질
틈
사형
트위터
멜
트레이
명절
운항
##ess
수백
원활
파티
랭
삽
시인
전담
친일파
프랜
##orm
프라이
끌어올
마크
항공사
쫓
스킬
군수
내내
##메이션
탱
중순
감각
쇠
거두
##모션
맛있
간접
택배
분열
굳이
댄
록
연예인
아무것
오름
암호
책임자
지닌
챙기
독점
드립니다
상품권
선두
##렉스
조회
고문
이루어
온갖
리서
##미널
싹
멕시코
가중
빠진
##TE
프로모션
조만간
산정
조합원
드러났
일종
중학교
랜
中
겟
모른다
오바
학자
충청
구상
다섯
가깝
바리
수신
진술
소외
성장률
##ver
신입
김포
여객
체인
고교
호재
엘리
동작
구리
변동성
CD
김종
시나
구요
리서치
부작용
끝내
가게
보존
간첩
배포
KOSPI
뷰티
태극
##레이션
인테
당사자
신한은행
김성
130
##ight
릴
참조
청사
어른
##해서
부합
파이낸
섞
불매
FOMC
청정
서명
화이트
리조
ᄅ
허리
짝
레기
열린다
카지
호기
에겐
포털
테일
아카
아니면
오브
단축
타운
받아들이
경신
지나치
맑
센트
상대방
소위
시정
사망자
유연
포스
##은이
쌍용
08
간부
여신
끝난
1990
연내
부활
NA
좌우
##LS
합성
석탄
아닙니다
##마스
흥미
열정
{
였으나
유력
도달
개척
치매
##철수
이스라
적당
경주
연합뉴스
일으키
립
大
강남구
터미널
서구
라디오
행정부
앞둔
살아가
지능
##르트
사드
용량
창의
건너
패스
그럼에도
일원
심장
는다면
시켜야
긴축
분산
##og
개봉
1500
주류
하위
지대
득점
양식
인테리어
##교육
다운로드
악재
주자
생성
담긴
공산주의
유망
들이
외치
종전
이스라엘
관찰
해질
##러지
소년
진영
구단
입점
LNG
도구
수비
벌어
마르
도망
여서
끊임
프로세
스티
포스트
OLED
동해
세이
왼쪽
##사고
편지
그램
에게서
리조트
맥스
장악
붉
마사
##데이트
카지노
춤
업데이트
윤석열
양도
OE
김대
태평
감동
용도
중계
과잉
유전자
드림
애국
어깨
추적
나선다
돌아오
##친다
변하
##up
필리핀
쉬운
아냐
계정
신장
美
한은
임대료
재벌
자라
갖춰
##머리
사물
뼈
##메달
꿀
무장
포지
의뢰
샘
시계
뚫
지명
폭행
한글
모니터링
팽
멀리
한전
나스
명칭
경선
##oy
너무나
MO
재판부
##그레이드
업그레이드
심하
왜곡
출력
더러운
지니
걸어
과일
무식
옛날
산업단지
06
평택
착공
CC
환영
완공
##디션
사무소
즉각
축하
주재
##art
챔피언
확신
##다보
이념
전사
배려
플라
구성원
재미있
유시
로스
재배
##대문
이뤄졌
상속
LH
존중
냉장
올바
##물산
몰라
마스터
플랜트
종로
다우
쪼
뜯
전방
삼성물산
샵
대결
학기
나름
북부
##ob
차입
추첨
객관
프랜차
##트리
##ive
04
주차장
추출
실태
벼
자발
프랜차이즈
일방
만났
비록
소스
꺾
##마자
재원
팅
조선일보
케이스
##센트
비싸
반등
제보
프린
쾌적
부패
독특
우대
일관
민생
사우디
캔
박정희
미소
학술
정의당
쉐
위안부
그곳
무한
둘러싼
베이징
뜨거운
위성
표면
##임금
고대
##생활
##퍼런스
국세청
입사
SM
읍
불쌍
플레이어
##릭스
벌어지
##들이
##퍼스
편하
최상
반박
매주
핸드
튼
감옥
지켜보
열렸
먼지
복구
언제나
안철수
되돌
조각
입원
일치
##코인
터키
거점
산출
저소득
##bc
약관
지인
합작
여수
마침
##TS
이정
펴
평양
AS
브리핑
늘려
알아보
오바마
스위스
엔지니어
##PC
커머스
아메
따지
비트코인
범죄자
나타날
담당자
경영진
전역
플라스
용어
태풍
시나리오
이혼
제로
전송
아우
젤
리스트
궤
봅니다
지지자
사로
그치
선배
소득세
행진
2030
대해선
중소형
갚
##마크
촌
패배
딴
마친
뮤직
사업비
늙
굿
회관
HD
수령
##베이
비싼
포르
머니
피아
지불
CA
몰리
새해
휴식
인건
나쁘
쳐먹
##ine
일반인
장식
가파
낚
저점
걸려
193
블로그
남기
연맹
미쳤
징계
만날
연평균
롱
감면
나타난
결승
스튜디오
앵
부리
분당
해체
가질
과목
견조
손상
이렇
반일
자제
증진
신화
위상
애니메이션
부재
월세
The
합류
열차
구도
이닝
똑같이
상인
유시민
어치
도내
유해
조화
억울
그래프
고지
공익
한가
에서부터
이럴
퓨
번지
차트
체포
나갔
송파
외형
나노
##if
윌
습관
자아
다를
탈출
좃
마당
에다
##ard
예외
190
산림
사령
타당
퀴
##NA
오늘날
##받침
클래스
파생
동월
흥행
창립
##다리
세일
기생
자마자
콜라
딩
유용
##TX
근접
연극
##ug
복원
폐렴
조례
체육관
인건비
둥
초래
실정
될지
높일
역전
걸음
적응
비정
최저임금
우호
위생
출석
터치
로마
놔
대체로
쓰이
커졌
충당
오버
엄격
견해
ESG
발효
콤
##소시
##드로
##ell
타자
교실
##핵화
##총장
살려
비핵화
넘겨
장학금
을까요
멍청
경찰서
지랄
Re
##ate
외식
리스
조리
스코
럭
겨우
##스탄
벅
보증금
행장
라인업
창작
모았
추락
으려고
##어리
##바이
아닌데
명시
대대
플라스틱
장르
가끔
어야지
숭
cm
보전
##권자
원금
기름
타이틀
트랙
뇌물
저렇게
걸린
톱
캘
##IC
변신
고점
아닐까
소문
마주
정서
##시장
뒷받침
젖
이주
싱글
막대
황금
마약
ECB
유가증권
지나가
느낀
합시다
신상
##ers
토론회
곧바로
공중
종북
싼
내역
1980
낙폭
엿
등등
일찍
당당
운명
꺼내
반려
메이저
정은
##th
람
경쟁사
인접
비행기
정통
##러진
무관
환경부
##RS
넘치
이슬
터지
유의
축산
연도
##의자
악마
140
든다
선별
농민
신축
후기
오류
입시
애플리케이션
수렴
보험금
일어난
경기장
널
감지
손잡
상권
코어
십시오
문화재
버려
협박
급감
협동
##ex
급속
페미
셔서
해수
RO
문죄
극단
공기업
kg
김경
널리
방위
신차
##둥이
소지
공작
닮
kt
커질
오랫
캠퍼스
답답
07
미안
수산
경찰청
국적
드래
크림
매니저
잇따라
##ak
워싱
장군
칭찬
갤러리
개소리
재계
##로운
단말기
노리
흥원
겉
뻔뻔
해군
주석
##연합
거절
192
겨냥
폭탄
들려
황제
원대
상실
챙겨
면허
용지
BM
즐거
SU
교과서
##운용
##ang
비정규
잔액
봇
간호
우유
스카이
아마존
민심
Qo
뮤지컬
부도
총액
테이블
헤드
법령
특유
비정규직
예능
평범
워낙
우파
종사자
리더십
##테이너
여겨
원천
크루
세웠
주방
한번
남불
치솟
오를
성실
함유
포지션
조지
PBR
선보인
음주
##트롤
블룸
##ist
가방
태극기
상당수
나스닥
사인
SBS
##파크
밀려
전선
1999
넘어섰
조선족
춘천
신흥
창고
익숙
대국
시진
격려
게이
탑승
앞세
##베이션
유닛
자산운용
내지
지리
1997
점진
##문화
등락
##아버지
전액
증여
##하면
정성
QoQ
이노베이션
EPS
상자
무죄
SS
맞서
강릉
공업
어르
위대
오직
가난
넘기
연체
추억
표창
##워드
##수수색
교육감
압수수색
심한
모빌
비타
돋보
무릎
워싱턴
고전
향한
소모
이뤄질
컨테이너
농장
##ore
박원
근대
오랫동안
合
추산
출근
미터
항만
대립
다름
누릴
소음
흰
표명
흐르
파라
관행
사로잡
##MI
데리
실물
진로
과감
택지
이라크
신재
기저
st
김현
지도부
회피
CO
순서
외화
군요
내놨
몇몇
김해
1998
하이브
도민
사후
떠오르
키트
상사
태평양
왜냐
오른쪽
라이트
한강
##슬라
노예
노동부
닛
띠
독서
존경
##트로
넘어서
##멘트
김동
파운드
어린이집
메르스
타인
유산
고가
불교
진상
짱깨
임무
패러
믹스
임신
섭취
160
충실
문구
정규직
빼앗
불거
커뮤니케이션
들어갈
그라
드론
고리
##TO
이득
파이낸셜
오름세
코너
스크린
시진핑
선보일
재해
데려
고수
안타깝
어울리
사이클
시그
OP
손가락
은행장
업자
오해
의료진
곁
김태
깨문
룩
디자이너
추이
##널드
침대
구청장
101
필름
해고
길이
비자
##IA
##어났
양자
##피아
규명
홀로
어르신
일본인
매월
전염
캐피탈
원주
##셉트
으시
수천
안건
고조
쉴
##ra
올바른
와중
##디아
공직자
묘사
통증
강요
수송
공지
저하
re
부천
서비스업
필터
에어컨
##바닥
횟
기법
##이크
##ov
남겨
빠졌
AP
##낸다
##아리
주한
곽
일가
될까
쿼
걸렸
교섭
블룸버그
모른
덤
전라
쥬
##스토랑
레스토랑
유료
호응
##셔널
산업은행
영혼
병행
섹터
옹호
주유
플랫폼
때려
스웨
다각
##져서
서해
버튼
무인
무섭
아티
가볍
급식
턱
기한
##지수
스키
승객
구미
닿
승용
국무총리
##ub
##all
토록
피고
삼성증권
줄일
실리콘
견제
불안감
맵
경유
부스
PE
191
허브
##아치
##CI
천지
게이트
남양
2023
##스티벌
페스티벌
합쳐
임차
차장
표기
화장실
양사
보육
##ue
깜짝
그날
휠
##소시엄
컨소시엄
혼합
이수
도중
공화국
유전
축적
신발
메리
114
##바지
##IT
폐기물
인성
과열
지경
CS
빌려
보여준다
니다
##산시
근육
유예
헤어
접목
명의
##MA
총수
나와서
세운
쿨
양측
화력
고인
버티
쏟아
컨트롤
해방
국경
이뤄진
체감
헤지
쇄
마땅
예배
##PA
곰
가사
멈추
자존
처먹
코트
멋진
붙여
화이
요원
며칠
리모
시달
부산시
력사
공주
##ort
더군
배분
상금
통계청
강경
자이
요양
조종
낙찰
클린
내정
육아
게재
사냥
##개발
명분
상해
수여
식민
메가
동북
만만
직장인
트럭
농림
시상식
기인
이겨
책정
느꼈
##아내
믿음
누르
위로
FC
보합
우크
클릭
다스
영광
제네
올릴
발간
교역
이끄
ICT
메디
호전
단점
350
부적
짓거리
MB
모기
행태
고양이
약정
법인세
풍경
사이즈
##운동
클래식
활력
수요자
핀테크
끊임없이
몫
점심
어리
가벼
맨날
보임
권위
시행령
태어나
계시
구독
저러
야외
고무
베이스
지부
앞장서
다가오
드릴
특혜
MOU
에코
비타민
접근성
거품
바뀐
백성
준수
보편
공직
젊은이
원고
IPO
양극
단백
하이브리드
마세요
테슬라
재능
욕심
우량
냉장고
당원
눌
##르크
져야
문장
인턴
낯
약품
경제학
q
못한다
음식점
깎
고마
마일
AR
플로
갓
휩
전두
관리자
##이도
도모
탕
원격
도발
박수
아끼
##미지
##투자
카운
##나항공
채우
부추
아시아나항공
시킨다
발목
뛰어나
생계
혈액
##온다
잠실
역세
감상
그리스도
고르
뛰어넘
##데미
폭락
발명
객실
책임지
중부
작곡
Pro
##고속
슬로
용서
아이돌
무사
민국
살아남
아카데미
받아들여
동서
##전력
헐
들어와
죄인
山
##OC
밀어
되게
수면
모은
타임스
벌였
특이
Sh
험
아까
##긴다
##덜란드
네덜란드
##기금
日
매국노
꼬라지
외면
아시
실용
인포
땀
액션
##ark
육박
내비
약물
종시
무지
BU
죽여
화합
건의
역임
때리
우연
친절
담겨
이른다
한국어
저기
구름
혀
샷
소액
키움
줍
구호
학위
불량
해안
구원
팜
만일
공매도
켜
CP
신기
건설업
##토리
독도
빨간
서양
손님
탈퇴
An
보단
일회
무산
빨라
스런
도둑
내려가
영화제
레저
메타
방영
국정원
불황
모범
소멸
종종
예산안
재차
##평가
도널드
저질
부착
미술관
령
코인
진행할
이종
지법
특례
##생명
크리스마스
처방
##보드
강행
지주회사
무력
금강
합산
##IG
관여
셋째
la
화상
자본주의
방치
쿠팡
리라
##다란
푼
장수
속성
채워
아모
사무총장
신주
안타까
파산
하도
신앙
OECD
##밀리
김대중
살해
전당
콘셉트
우울
119
인문
시국
붙이
송금
잔고
거지
요금제
먹거리
창구
##사스
##경제
트래
휘발
##ong
퍼시
단백질
응급
일산
여권
그러므로
##플러스
모를
보좌
알파
수분
인텔
##스키
필드
닉
논쟁
##세포
##노총
전산
외교부
승용차
사외
진주
수장
갖췄
에프
가려
귀국
전설
약국
##ect
##언스
봉쇄
##포구
연애
김용
심해
입구
손익
CN
##나이
생길
공조
추운
신동
중독
정한
제이
##래도
##ack
전두환
대목
웍
이슬람
##케이
차려
##징금
드러냈
노동조합
가요
걍
##EA
롯데마트
##bo
KO
각오
##탄소
중지
엇갈
회생
텍사스
김재
떠들
상세
낭비
##블릿
보드
참사
오일
코치
치르
##덱스
대지
신혼
소주
티켓
타령
떨어질
신인
##유럽
##어트
중복
감당
닦
좋아하
지목
씻
된다며
##숭이
직면
증언
응답자
증인
지혜
가하
횟수
##남도
계단
철거
소련
탁월
신부
어두
##ns
잦
##어버
감자
언젠
한쪽
원작
범행
수강
코오
공세
수출입
야간
원정
전수
매치
정신병
##렉션
스님
맞물
그래야
항의
거친
도출
웃기
최우선
PD
그래픽
괴롭
마인
##해야
##ill
SUV
성경
추후
로이터
무서운
남한
인가요
김일
자신감
동성
해지
회원국
옮기
풍력
##포트
김진
기울이
모빌리티
꿈꾸
퍼시픽
인연
상단
건축물
##리스트
감싸
녀석
굽
##워하
한국전력
관할
조제
장려
코오롱
한우
태블릿
##북도
컨텐츠
정제
##수산
유권자
영구
교통사고
실효
서브
내보
일당
스펙
육군
LS
현물
선착
써야
어쨌
실점
105
튜
동구
##더스
구멍
수년
백악
대륙
횡령
오가
TF
참으로
베네
벅스
to
안드로
막말
웬
위장
착한
기어
목포
동화
탈락
료
##구요
솔로
유럽연합
창업자
vs
송도
소감
내게
거뒀
충성
and
주식회사
련
신학
응용
##oT
의자
##트라
##ri
농구
일어났
단식
##ud
LTE
지검
재직
마디
판교
##ant
김상
안양
그랜드
니깐
이놈
##일랜드
##요타
##호텔
한참
착각
사양
SC
##av
룰
할아버지
장기간
청춘
호수
실종
납입
OS
음반
두기
광명
대강
장벽
##FA
일보
색깔
딜러
푸르
줄기
하수
##EX
자빠
##hing
Con
홈플러스
박차
영등
짚
원재
꼼꼼
한방
결심
ᄁ
골든
핑크
장례
yoy
뭔지
포괄
순천
향하
본점
실체
크리
##지부
유진
유대
모이
병사
깔끔
아티스트
명목
학문
170
한류
앞선
깡
원재료
감수
관절
식량
동행
2500
극우
해진다
목록
##운전
탄탄
1200
먹이
순차
위조
폭스
형상
남쪽
노총
출생
웹툰
세븐
강동
윈도
취향
기쁨
나아
대수
개발자
112
##ure
입니까
몬스터
102
상원
아마도
##시설
개그
##one
레인
스페셜
워치
조속
지옥
人
##센티브
인센티브
DS
아쉽
더러
검출
백악관
수호
별다른
증세
##모비스
추종
현대모비스
곱
ᅮᅮ
ELS
첫날
후배
가해자
진지
들어왔
미분
카테
인데요
스웨덴
오지
대우건설
이치
갱신
공모전
國
제조사
뉴딜
등기
##pl
사흘
대림
환급
리츠
약자
온실
대구시
출구
##단체
커다란
농단
왜냐하면
선교
위선
피로
금메달
대원
발광
민영
부양책
IoT
대놓
가르치
비서관
관람객
사명
##ok
수험
##조리
운수
##먼트
중재
성수기
##덩이
욕구
염두
후쿠
그야
혐오
2025
말레이
##주얼
되찾
정무
김기
수습
메일
##아웃
노트북
따위
관료
커플
놨
마라
더럽
실사
고맙
고집
스킨
현직
##ice
수위
교보
경품
본래
매트
반환
당뇨
잠깐
배운
언니
붙잡
꼬리
서초구
기생충
아나
자격증
땜
보강
예선
외모
원숭이
고백
내장
양아치
화웨이
개헌
효성
적금
출국
윗
성우
저널
골라
유족
결산
1995
계급
짖
아무래도
앤드
미미
잠재력
이룬
연중
신용카드
깨달
자재
사격
멘토
종자
##IP
웍스
만족도
BMW
펼쳤
일체
언론사
우편
개판
물러나
남용
정세
통지
망치
성폭행
메이크
Fed
씹
펄
사료
씨티
채소
흘리
골프장
잭
헛소리
으론
ᅵ
조짐
다변
BUY
상거래
인쇄
캘리
##원장
환상
한두
문통
무용
이력
부스타
LA
어스
1970
치유
스틸
낙관
이재용
##타인
농도
궁극
중시
고장
진전
DB
맞춘
명성
알바
방학
분담
기득
유인
미션
처장
이만
배신
무효
후손
꼴통
치즈
반사
연상
렌즈
이를
휘발유
인플
연세대
음원
기각
전경
접어들
광주시
교도
고구
들어선
르노
예의
##스트라
한창
고사
##소드
수명
림
##시간
빠져나
피자
저리
선거법
제자
야지
바퀴
용이
뜬
##아이
추모
소유자
우스
연이
VR
씌
골목
뺏
어우
성사
아쉬움
추측
토크
앞당
##구역
##번에
스쿨
해산
분배
그야말로
##오스
긴밀
아스
세액
확고
남아
컬렉션
컨퍼런스
환매
취업자
##시마
산다
##ain
##per
배당금
쟁점
Un
Com
친화
컷
Tr
걸릴
쳤
후회
확립
키즈
저소득층
가산
도래
프로세스
태어난
무너지
안드로이드
이영
중화
기상청
에피
양반
말레이시아
재발
카테고리
세입
北
문명
푸른
엔지니어링
전직
##타운
들리
스파
낚시
입맛
아일랜드
##봐야
자존심
협동조합
연인
##공정
##MO
드디어
소독
뱅킹
박지
동계
항소
재편
부딪
문정
BO
주유소
특별법
전교
키워드
##ID
합법
일지
브레이
##ND
업소
아가
이산
오빠
##iz
정황
보인다고
사자
돼서
게시판
렉
싸이
안다
웨어
즐거움
권역
수상자
국어
오로지
야권
내주
비치
일부러
운임
면담
억지
1996
난민
병력
찢
필자
퍼센트
단기간
드래곤
인체
물어
아산
회의실
##민주
##und
SD
똑똑
아닌지
깨닫
레버
즐겨
선착순
저조
ᄒᄒᄒ
사옥
ᄍᄍᄍ
정례
내릴
기업인
진리
사립
템
중형
##매김
##미디어
아시안
드루
자리매김
文
진학
##지오
보낼
바란다고
신도
연일
찾아보
최다
부하
사라졌
살짝
한양
코미
날아
흔들리
북쪽
Al
하원
통치
여인
터널
발동
함부
세율
트레
이모
주부
구경
차종
흔적
앓
무렵
Co
강해
불렀
정점
선점
공짜
너스
헝
웃돌
EV
수산물
발의
빡
##티나
샀
속하
약한
위해선
보여준
배후
훔
월간
나빠
썬
부근
상시
좌석
무주
##처럼
열기
아픈
간주
강수
미쳐
그분
이어진
MA
보통주
##ES
대리점
강간
미흡
곤란
햄
아메리카
끓
포착
##ee
영남
미국인
공방
뛰어들
##12
다이어트
치명
돌아섰
재현
##퍼니
위법
영세
과징금
총생
캄
크로
미분양
식민지
밀집
사들
로직
아모레
박원순
시술
마냥
따져
최저치
##교통
지냈
이루어진
바꿀
응시
아야지
사각
왠
크로스
시현
##루미
똘
정산
##ment
즐거운
내년도
ID
조립
열풍
아저
韓
대박
측근
108
부드러운
수확
레이저
자부
시멘트
##어넣
준다고
잡지
씽
En
완만
상선
불공정
컴퍼니
달라지
선포
##센터
김일성
그렇지만
우세
학력
방사능
그네
총생산
감소세
절대로
다채
교차
상표
장세
댄스
인형
바위
세련
##여행
대략
무더
정수
인종
숨겨
아저씨
제철
흠
언젠가
넉
주파
명백
삼성그룹
강좌
인디
삭감
SA
절약
정경
머무
핏
중고차
이태
영토
손쉽
치우
침묵
##조선
##입니다
돌아왔
CG
점령
구동
아세
홍준
들어온
퇴출
짜증
영리
벤치
산책
깃
기대치
더만
베르
형편
사운드
그대
주어
수직
절실
당황
구별
단다
지역구
입금
##35
공군
노릇
캘리포
공영
캘리포니아
##러져
생생
흙
##구리
포토
꾀
자국민
법조
발송
타결
언더
익스
항암
도매
도시락
줘라
둘러싸
기쁘
더욱이
으려는
자칫
수량
정면
##구석
몽골
유한
융자
박영
팔리
이지
비스
##io
##규모
심정
구비
로비
CB
더라고
동탄
펠
근원
당할
맡기
마침내
양보
날짜
대놓고
출하량
공백
소니
##ff
신사업
거시
##ass
트랜
실명
##줌마
회동
패밀리
일행
치가
귀족
조약
성립
전문점
삐
##박스
이재명
전술
시켜라
카이
상영
감추
115
피의자
##제철
얼음
##ie
홍준표
세수
도박
출처
배우자
시황
아리
##릿수
구로
유관
디젤
아줌마
성형
반기
게임즈
대조
##투스
브렉
교정
엮
교활
과천
저금리
어려웠
NC
집합
관장
편한
##ust
러닝
대형주
트로
인천시
##러졌
고부
은지
상정
드라이브
그레이
어떨
##IM
맥락
우린
소비재
놓치
이례
유승
때로
즐겁
그릇
해킹
온실가스
토요일
브로
끌어내
양해
1994
셔야
만료
##age
##저리
##FC
결성
밝혀졌
낮춰
올레
생애
광산
어쩌면
환원
피고인
진동
신성
##스턴
포도
사용자
기점
Val
일괄
과학자
벤츠
광역시
뒤늦
스터
메이크업
호가
하단
돌아온
성숙
##걸이
끌려
연다
##잡이
부끄럽
킨
교원
날개
자산관리
느그
##외선
밸리
실수요
##투자증권
소규모
주춤
처지
모형
파장
파주
외신
줘서
쑈
응모
최강
전적
개관
기부금
으신
학대
양쪽
과태
골자
카카오톡
줌
고려대
단단
Sp
말아먹
일으킨
찔
관광지
금년
가이드라인
반해
복무
선거구
대치
몰래
신년
등지
허락
남겼
##먼스
전동
189
일어날
이집
BB
디바
과태료
러브
이집트
360
옐
sns
어쨌든
FA
글자
퀄
서식
변명
##프레
정국
##ib
농어
야기
호황
시카
놀라운
낸다
회로
죄다
당첨자
호평
참석자
걸까
변형
떠났
450
청탁
HS
##범죄
민중
느냐는
모인
에피소드
대여
일선
했으니
고의
저것
눈앞
획기
휴게
옴
수시로
렀
따라가
건국
랠
111
란다
가까워
워터
도청
군산
짙
우크라
바이든
현역
미용
사찰
ROE
킬로
퀘
##크스
밀접
가이
내각
요약
민노총
숨기
광범
당선인
은가
조원
특위
목격
신작
재학
KA
전이
벨트
반납
일요일
이어져
소원
똑바로
퍼포
재활
이적
포드
퍼포먼스
신청서
인지도
경과
걸친
MC
관건
종로구
본선
일간
발판
가져가
관해
원조
GB
FR
마인드
의외
자진
분포
##거나
대세
u
SDI
생일
끔
##CO
피트
네티
건가요
##영향
잣
에이스
계란
출동
제약사
벌어졌
기판
강서
의정부
당내
는군
104
붐
기운
운운
복제
로맨
103
회의소
승계
죄송
애정
주연
로고
출간
125
최후
무척
모시
Bu
##yst
조중
까다
간격
거세
한인
##십자
산불
##구니
불행
대두
벌레
민정
전철
영감
##더니
피할
저감
짤
해법
고성
외환은행
##저기
간사
배워
달콤
이라도
가벼운
대사관
붓
대내
##엑스
##ial
아닌가요
병역
성추
디스크
FI
여기저기
도우
가라
멀티미디어
여사
안성
단체장
송파구
둬
탱크
추격
부시
함부로
州
오스트
운반
조율
##보험
권단
벌어진
미스트
핑계
##비전
아랍
잎
풍성
간판
네티즌
준다는
이뤄지지
##act
펌
대중교통
진중
##거래위
공정거래위
고속도로
진작
의해서
실습
두루
클리
소진
이온
패스트
##원회
##관계
갑작
굶
왕국
240
뒀
##end
던져
금요일
만성
압축
노르
##금속
東
뉘
날리
고속도
테크놀
##ast
버릴
유래
비해서
수색
막판
몰라도
laug
##eo
모금
검진
마비
##내셔널
이래서
도지사
총력
기적
인터내셔널
미루
계약서
혈압
laughing
내세우
518
조장
##본다
시리아
모건
사연
이순
##둘러
조상
220
##RAM
저거
주파수
소집
성추행
STX
천재
징수
녹음
랠리
체질
얇
난이도
약점
랭킹
현저
넘어선
떠난
본회의
무언
전신
모기지
줄줄
욕망
광범위
우회
버린다
잘라
바이어
안경
##마토
도보
포켓
토스
시비
못지
물려
단원
상관없이
##전지
상주
구라
정정
지주사
##다임
##벌이
늘릴
기증
패러다임
티비
106
아픔
방한
사법부
하여금
바디
##년단
찬양
파이프
법제
리콜
유세
기차
##꺼번에
한꺼번에
헬기
##제당
숙소
바둑
제일제당
별개
##게임
샌드
넥센
호구
으라고
하드웨어
##전기
니스
교황
대개
등판
페어
효력
안마
밭
열릴
남동
성동
앞세워
보행
내려오
선호도
WTI
라스
아름답
접하
정화
ai
내구
##uation
광양
유선
헌신
##연구
경위
범인
방문객
##업자
노벨
for
자릿수
지낸
##서리
바쁜
드린
중산
##탄소년단
농사
방탄소년단
Cl
##바다
파격
탄압
무단
경보
여주
스피커
인격
다룬
폴란드
환승
모래
초등학생
닌
닥터
전작
WS
주총
한동안
로그
두려움
차입금
갈라
으라
이분
시신
공격력
극심
it
인덱스
##광역
##에이
어릴
AA
오리지
고추
정말로
달할
외곽
드레스
우드
인과
의상
아이스
돌아다니
시체
##ick
갇
##ᄏᄏ
틴
##MS
임의
증액
로즈
동대문
보건복
알고리
대항
##행위
바꾼
크루즈
유죄
알루미
##랑이
꽂
시흥
도저
노란
계신
##아나
AT
109
##톨릭
나뉘
어이
##ry
영동
리뷰
##버트
권익
##질랜드
뉴질랜드
출고
혈세
시한
##본부
나베
##버리
매번
성폭력
매진
켄
구석
액세
##풀이
굵
경관
##보합
금방
심상
가문
의존도
보입니다
출원
통행
커진
업적
오디오
폭염
리버
##청사
미달
전격
다중
영위
우정
이윤
교장
공존
##59
##form
산학
##ou
##매매
합계
해임
컨셉
Bl
고성장
재수
##ear
거둔
이목
##디스
시골
냉동
툴
지상파
어지
들어간다
약해
지났
오사
시일
##타기
##88
一
107
강북
사채
알고리즘
##키스탄
##가루
엄청나
동국
노동당
스페이스
미뤄
더군요
엑스포
코미디
##컨대
유독
과실
리드
감염병
##몬드
잠수
안방
결혼식
PMI
##와서
##퀘어
유가족
##릅니다
세탁기
네오
야생
자립
정교
해결책
kbs
폭넓
어둠
태어났
쿠키
산소
얽
뚝
##IN
군부
SW
털어
돌아보
장인
##월드
##ood
사면
실증
##드리
다지
성별
페르
어업
IBK
공판
방송사
현명
김병
명문
보건복지부
간호사
##데스
서면
##페이스
배수
견고
저렇
걸림
거라
법칙
연재
빈곤
나타난다
쓴다
면밀
머신
소극
전도
브루
분해
알루미늄
유포
전염병
외무
레버리지
폐업
오락
아크
삭스
저지른
잼
흡연
길래
여섯
개조
플래시
##65
끈다
특강
성취
간섭
아가리
자매
동포
서기
1992
한경
온다
전경련
스테이트
##사업
동북아
##32
원회
드린다
##스트리트
사주
퍼지
##ech
김수
산지
실수요자
괴물
##무기
김장
소용
데미지
새기
Pl
##기구
신비
##ev
중증
한자
치러
미얀
어선
변환
퇴근
흑인
부드럽
감사원
미스
신생
문건
##현실
바깥
보석
키움증권
관내
오스
DRAM
피스
올라오
역학
치아
월스트리트
초고
주저
불신
국비
목표치
쏟아지
아르헨
소각
레이스
이낙
고작
가죽
현대건설
결단
윤미
자위
##집니다
으려면
오만
수성
초콜
정답
아르헨티나
텍스
일기
안산
니즈
치과
빌리
##베이터
다짐
타점
원단
무제
가파른
해변
썸
체류
로직스
재화
CF
주공
고쳐
##자원
1960
부담금
비유
댐
신념
미팅
지원자
짐승
캠핑
솜
주권
관심사
임대차
마구
미주
한숨
대역
권유
이길
여름철
##ps
프라임
##34
마사지
답니다
고품
분과
내면
북측
인명
해운대
해봐
시카고
##느님
파고
패치
광복
늘렸
##SI
성범죄
변이
조중동
결함
UN
이뤄지고
뻗
스피드
##ance
##사이
마누
소금
ch
침략
미드
##저우
포상
朴
해피
로켓
주먹
더구나
마산
후퇴
하느님
학계
드물
정신병자
개학
꺼져
##지대
지형
줄어드
머물렀
미스터
명소
풀리
일회성
##법인
첨가
시달리
##ock
##19
표지
관계없이
오페
##관위
계승
코엑스
주시
감염자
천국
발병
##아라
됐으나
버거
##차례
##두르
스러워
모양새
면은
연비
128
발령
놓여
쫄
곡물
청정기
키스
천연가스
공로
사이비
덩어리
분량
동아리
명동
테크노
캐시
청렴
생산자
파란
나이트
해설
##드라
##광역시
도요타
디바이스
바지
##고속도로
자빠졌
##혜원
유감
모험
신영
고액
후진
지체
新
LPG
써서
종일
오너
쩝
1993
##케미
갈아
미아
순익
투신
예탁
##빨리
##합니다
쏠리
웅진
##ss
기념식
해외여행
프레스
스파이
애비
장성
##테일
Ar
수료
서술
취미
납세
투데이
풋
비로
모순
상관없
##ult
약하
증폭
보좌관
동쪽
리니
##eg
##ind
뱀
##qu
##렉트
##바이트
육상
복용
이낙연
ᄆ
장갑
##클로
판로
이딴
대국민
봐서
##15
MP
추미
서쪽
남긴
기호
엄중
메이커
재밌
##치기
정관
##도어
잡혀
어두운
벡
정해진
한남
샐
기다려
안동
달린
오랜만
체납
##천군
사이드
산단
버블
부를
##든지
살균
독립운동
맛집
##DB
출현
##ign
보험업
##셔리
럭셔리
복음
##RO
배웠
박탈
봐요
대접
데모
메탈
필립
역설
이견
##비드
저게
특파
감찰
추방
##벤션
##our
##RT
외국어
KTX
NY
학업
자네
규격
생리
과시
목재
밑돌
근절
빛나
가르쳐
육체
##스팅
정수기
##가운
줄였
학살
으리
환산
1988
바쁘
활기
보호법
북구
펑
##셔츠
강렬
전광
스퀘어
베어
DA
조업
이병
껍
환불
오리지널
루트
초콜릿
##HO
등산
특파원
갑작스
알렸
창문
##53
아름다움
##ail
유류
적시
배틀
참모
일수록
컨벤션
무덤
三
##제표
장단
고치
보건소
사라진
뒤지
재무제표
브라운
##어날
시설물
##케미칼
전임
재테크
##높이
속속
##75
아키
셜
보충
팁
피아노
누나
최대치
공감대
바닷
국영
##놀이
230
유보
을수록
부른다
속한
무언가
조류
제치
비수기
##스크림
DM
##하나
미얀마
그림자
쇼크
뷔
김학
##74
일러
천주
전처
188
타이밍
##셀러
동지
감기
랍
어째
옥수수
구두
항체
시공사
입주민
세입자
미개
변함
##임스
WSJ
##학자
찾아내
팔아먹
##크로
관념
UA
다녔
연산
조망
##퇴근
##TC
거제
南
1991
돋보이
제작진
텍스트
궤도
꽉
꾸며
얹
학년도
돌봄
혈관
전교조
##러스터
가늠
사령관
대내외
리튬
삽입
내륙
성매매
골드만
##DR
클로
이야말로
로열
테크놀로지
PF
다이아
망해
양질
진중권
꼼수
현대증권
벌인
수출액
할당
새겨
사죄
##pp
트라
고양시
외출
아이디
미성
에버
예보
휴양
석사
우즈
구해
##슬러
상한가
살림
초월
아이스크림
윤미향
입주자
한라
침몰
기성
소신
였을
김지
카르
위임
##ens
클러스터
대용
토로
주머니
워킹
무난
실전
김민
열매
챌
경찰관
mbc
오페라
750
Ex
잉글
뜨겁
대충
앰
감산
가톨릭
경부
책상
넘쳐
IF
Th
남구
발탁
엽
##타르
FRB
연소
약식
사용량
끼치
1987
EB
국군
든든
짐작
화이팅
연임
원수
단절
공평
줄줄이
테라
화보
실버
##자치
낡
##pt
##러드
금품
효능
비극
대면
으러
사리
방산
질의
남미
전진
청취
윌리
##ey
IR
광부
유니클로
##25
열악
##18
BN
중심지
희생자
##허가
시켜서
요새
##에스
엎
com
펫
뻥
아깝
아사
듀얼
##오프
귀하
JP
디즈
아세안
지문
원산
엘리베이터
소홀
출퇴근
경호
전락
킬로미터
이색
강구
직권
포르투
소나
1300
동종
지갑
안녕
##36
운동장
성남시
벌여
세로
##레이터
주역
수차례
양도세
거울
형평
액수
이뤘
사도
##co
몹
기숙
겨울철
연패
마찰
권장
뽀
##바람
양육
곡선
각지
욕먹
통신망
아연
개미
##면적
웨딩
함정
호실
유무
치를
##are
특가
여행객
광물
안착
날려
끌어올리
자유민주
태그
호르
사임
제임스
##ge
톰
적대
섰
##시험
섹스
취할
is
당선자
주름
자민
배울
시립
그칠
##발전
이듬
화해
##공항
##LA
PS
과다
##31
OPEC
블라
225
문가
각광
하방
스란
밀착
스캔
터져
알코
유방
##일으
걸맞
제동
핸드폰
조선업
다는데
까닭
##다지
불러일으
베이비
초록
추미애
놀이터
음모
제압
텔레비전
별명
톡톡
그니까
보너스
마이클
法
전차
겹치
득표
증서
##76
염려
환수
과반
현대제철
김정일
##45
##이치
금전
##걸음
경사
스와
줍니다
성질
최장
진압
다크
수법
우체
탐구
118
침투
##거래소
납치
##저스
레딧
여행사
상쇄
##바겐
1600
하우
장병
화두
Buy
더라고요
210
체중
ic
유적
FT
통로
子
정직
form
합니까
틀림
파급
##오르
타깃
강자
##플릭스
넷플릭스
##쟁이
언스
악영향
폭스바겐
전셋
기장
##키아
발라
사거리
조현
이원
모티브
위력
크레
가액
답했
모의
결과물
기체
이경
기하
빌라
교부
여가
해져
리터
수제
경연
주고
하도급
이듬해
불꽃
고등학생
귀여
DC
세균
열려
장마
삼국
진정한
116
하남
넥슨
다시피
가져오
걸림돌
On
물타기
장외
휴일
베를
볶
농심
SO
1800
수영장
수원시
살피
땡
독재자
모씨
기울여
제정신
##니스트
오렌
음주운전
센트럴
하이트
폭로
##존스
재판소
모자라
정시
품종
아웃도어
뱃
간신
종업
##자재
##신저
본토
민영화
##저트
연승
연기금
한중
##26
##ans
독감
##11
스톱
채팅
##ber
유성
이뤄지는
서둘러
하얀
사막
끔찍
탐색
맙
수질
할수록
저지르
검정
영주
##페이
모조리
넥스
발상
기동
초보
우아
무주택
##적으로
아미
코노
부러
경색
딸기
국유
배추
끌어들
티셔츠
입소
중량
##엘라
##ide
##yr
NHN
1400
드렸
틀린
수칙
거실
가축
입체
토끼
월평균
추위
수구
##금융
성금
석방
아쉬운
브레이크
쟤
드러난
어떨까
둘러보
뽐
케이크
예컨대
연루
월요일
일조
비닐
쭉
특구
헨
CCTV
예년
135
DNA
외관
코레
##유산
다우존스
흩
박성
탐사
영문
이송
##GB
슬픔
출판사
핵무기
흥분
교도소
지장
보이스
눈높이
신조
두께
th
첩
낸드
발음
차선
Cap
합격자
절망
##식간
pt
문정부
수납
하천
고령화
챌린
바꿨
군데
강아지
가져다
통일부
맞대
社
입술
지껄
막상
침입
수목
아이콘
모리
변호인
썰
눈빛
윈도우
ᅢ
아니하
왕자
노스
다큐
구사
데이트
식이
##HD
쳐다보
크라
동문
시속
농축
##old
관망
담합
나눈
일련
여타
##ula
판타
홍어
스프링
1989
비결
참전
발레
수거
##17
선명
타협
음식료
분자
냉각
동조
다닌
저해
마력
농어촌
연료전지
라기
오렌지
자책
경상도
AM
시야
롬
승강
독려
통신부
경감
라운
양념
##28
방출
시끄
퇴진
선관위
존나
슬라이
과자
일으켰
##수산부
북괴
달라진
각별
##블리
입자
디저트
##운서
매칭
##그라
워크숍
서방
대구경
손혜원
교재
주둥
실업자
진도
##48
CU
해선
죽인
김제
종업원
집착
의제
내밀
아나운서
민자
지성
배급
##베이스
자유민주주의
사이언스
##라이트
삼진
수련
천하
스테이지
다닐
쉼
노원
에디션
##거지
국책
등록금
지우
KE
동성애
前
오사카
난방
매립
##협회
소아
HP
박상
##ork
상부
기업가
요법
의결권
모욕
쩝쩝
##23
군민
갭
TS
떠올랐
상점
향기
눌러
공문
de
상하이
천문
순식간
이인
예술가
##ical
관중
휴직
전셋값
처한
팍
자본금
##패드
스코어
기세
호흡기
종식
국감
튼튼
對
표본
암살
팟
con
악기
한시
sh
3500
##64
도어
##느리
##ace
맞물려
증후
이스트
금강산
New
일일
주상
제작사
의대
제네시스
유물
조롱
만세
물고기
메신저
리뉴
국제공항
##ik
릭
자유당
##로우
유혹
##79
강국
이룰
시드
##어내
공소
꺼리
임차인
내걸
선수단
물결
시마
스승
포르투갈
직영
##72
비로소
대검
펼칠
그만두
그다지
소식통
토토
동반성
앵커
이쪽
##어져
감방
파인
전복
연안
바뀔
꼬집
올리브
지붕
오리온
##니즘
떠올리
평일
산화
파탄
평면
열람
지켜야
종족
##유예
식별
여고
##배우
퍼스트
투여
우상
연구자
자택
지나친
동아시아
터진
스톡
베타
이산화
강변
##티지
리포트
찾아볼
느냐고
##39
우습
알뜰
##ord
ML
보컬
좌절
매직
마녀
부끄러
##철도
채취
사라져
호기심
쿼터
캐주얼
넘겼
클린턴
이해찬
트레이드
故
##위원회
마늘
무거운
선원
MD
딥
자르
찐
부수
Top
식구
특집
특권
방통
저주
간식
잃어버
비비
##마켓
여왕
원형
기피
말라
주고받
재선
김연
신나
정립
##센스
##49
자수
유흥
수고
어리석
피크
취해
누굴
##재단
밀러
##커스
조선소
##처분
##옵니다
견본
##광석
욱
모터스
렌탈
조카
일일이
가세
차등
만점
국외
##OP
가파르
메달
멀쩡
##ence
항구
샴
백제
잣대
보훈
##토록
행운
##44
한결
촉발
증후군
##ly
관하
알렉
##뜨렸
일본어
함량
실감
고로
비추
ᄊ
겐
논평
SP
증명서
종결
부끄러운
동선
헝가리
라임
FDA
점프
##57
##ax
할려고
충주
장미
파도
긴장감
아군
국악
손자
반짝
##수엘라
등교
유틸
유틸리티
세션
나마
방면
그루
보물
마누라
댕
개개
낮췄
베네수엘라
장례식
이승만
CI
박종
벙
윌리엄
##TT
개수
장부
로컬
파우
##RI
대림산업
관제
##41
단호
펀딩
##란트
전투기
창원시
해양수산부
세라
중개사
악용
270
##욕장
1950
홍삼
##리즘
天
지킬
##78
여대
통영
세단
일으켜
한식
찾아오
승차
##BA
지배력
고구려
##기에
프렌
발악
가드
로드맵
죽일
슬로건
불참
##68
PP
##ile
탈당
도리
냅
솟
##95
시연
연면적
대인
320
월가
역동
II
훌쩍
퀸
왈
미수
일평균
Pr
사각지대
정했
후임
온천
웃도
단편
스미
pc
승점
수월
##근무
330
던졌
생선
im
부유
##까요
해경
마드
##지르
제품군
1100
알코올
##42
임용
가전제품
논술
##던스
##삼성
이대로
설사
엔딩
잔치
이용객
##보증
이어서
셰프
홍수
우리투자증권
제주항공
대피
잔여
내국
인자
복권
공통점
상수
반란
kb
신뢰도
투자가
성당
큰일
오션
주전
알레
전량
우체국
그놈
멤버십
어음
대손
길거리
탔
씽크
멘탈
신청자
탐방
으셨
십자
봉사자
WTO
냥
드립
펼쳐지
시뮬
해봐라
코팅
서프
Ind
김경수
돌아갈
볼넷
##38
브로드
##37
AC
승무원
시집
맘대로
재인
하나하나
##스레
르노삼성
##ix
납득
향수
복사
차주
##uc
Gl
##코드
내려놓
은혜
포스터
베를린
급성장
단정
대구경북
십니까
정몽
sp
랜드마크
키웠
##67
서점
닥치
케미
멸망
앞뒤
파트너십
개량
##tern
박살
십니다
임종
##세이
놀랐
다름없
스트리
##야마
##걸리
코코
들여다보
넓혀
일곱
##부리
달랐
달라질
끊이
##ire
내재
##가치
분사
인조
유재
비관
덱
어마
망신
280
호르몬
교대
장거리
카톡
##리안
##16
아부
숍
formula
역외
설계사
포용
거주자
밀리미터
중국어
공표
260
맡겨
부평
내림
천사
예쁜
편견
Bo
몰렸
부풀
놀랍
마음대로
##일러
통운
나흘
포부
농지
게시물
##듭니다
##24
##조사
국익
##병대
정년
국산화
로보
손꼽
재킷
대명
차명
싸워
캐리
##13
김형
2024
계곡
막걸리
상의
간소
##ase
통산
어워드
선대
이루어져
예매
신원
##54
##라이즈
가처분
##쳐서
추출물
으세요
독보
양파
on
본다면
고는
표적
락할
자부심
싣
##팩트
궁금증
동호
애기
연쇄
구조물
염증
##크리트
##벌레
옥션
리니지
귀신
조경
마라톤
미성년
희귀
산재
재택
샘플
지르
익명
피곤
살아나
이어진다
돼지고기
자외선
이순신
급변
기업체
##든가
되살
한눈
캄보
장교
져서
아울렛
백인
디즈니
##동강
바치
무작
총기
부친
피우
떨어진다
법규
##92
道
매개
퇴임
망가
650
내보내
영하
평론
캐스팅
가라앉
##arg
개체
벨기에
이해관계
김승
소망
마포구
생긴다
행사장
550
오스트리아
공연장
모토
방송국
새우
거래법
##출산
트윈
아르바이트
콘크리트
체크카드
아닙니까
하청
가뭄
##14
安
차분
배기
##IST
생활비
##ung
대리인
구인
니까요
쿡
유비
저성장
담겼
견디
파기
##PU
금고
##그리
휩싸
뉴타운
공구
마루
생체
주어진
작중
키운
국수
경인
앗
엉뚱
든가
자치구
어긋
##ET
작정
이식
좀처럼
덴마크
사설
이마
잉여
##21
환기
기숙사
왕조
##프리카
지정학
나타낸
##te
##르기
그런지
배임
##테이션
노르웨이
지소
캄보디아
넷마
어로
입수
들어올
지네
표결
내다보
임박
넷마블
관통
의료비
후원금
경제성장
제사
##ld
동상
고고
셀프
도장
실은
발길
켈
대법관
##라이언
좆
닛케이
트래픽
당진
다각화
계약금
폭동
부위원장
##82
학사
보상금
장난감
떳
럼
혼인
괴리
시군
##백화점
뺀
상고
데스크
밀도
기일
원동
달아
자질
잇달
잉글랜드
쫌
게스트
##62
##anc
우산
##타이
팬데
다던
Pre
급하
동남아시아
인플레
POS
##69
중공
쏴
전시관
##와이
1900
##이자
##주의자
교인
MSCI
##추어
목동
쌓여
탐지
대입
리아
수반
취한
리치
##enter
속이
##ON
JT
##63
경직
나간다
BC
pro
인삼
대표단
지켰
스리
유기농
킥
풍속
예쁘
날카
삼각
낙하
하트
수평
민관
증권가
속해
경영학
##77
설마
편법
동질
탈모
좌익
갑니다
숨진
관악
##터카
돌아갔
KIA
렌터카
본연
임상시험
전가
스틱
훈장
동방
##mer
고품질
후쿠시마
##사리
##int
가리키
면모
반포
사제
민사
감리
##27
##국적
퀴즈
오세
서프라이즈
##두리
Valuation
유승민
푸르지오
중남
공법
365
高
카라
녹화
졸라
퀘스트
레오
고립
그지
##GA
성과급
뜰
구장
##포터
했어
CM
프리미어
제의
##실험
##란시스
큐브
각성
꽁
원본
간절
정동
##보기
주둔
정전
이나마
저출산
##통일
은폐
##노스
화살
태권
매크로
유수
TP
공론
##71
##예금
공청
금융업
##기부
스위치
소명
가져올
정액
특약
##네스
대권
출제
##연대
그쪽
돌아서
은평
사직
##33
어딘
##se
##현진
불명
##티스
천장
텐트
평형
##다드
챌린지
받아들일
PA
걸레
느낀다
계획서
생각나
GA
##61
우울증
부추기
각기
원심
속초
잔인
농담
광학
##렌트
이준
꼰
합치
스탠더
##ational
로또
##거렸
뽕
미네
기종
##통화
보리
##ith
합당
삼성전기
집행유예
언론인
우기
순조
총무
##손실
나눌
실린
##루스
선조
비춰
루이
##ph
##노이
全
카트
##ft
왕복
##ond
내세워
높인
##모토
하긴
말리
당정
수동
ml
안겨
스탠더드
너지
국지
스탠리
캐피털
일몰
축사
##병원
주입
애매
돔
##able
인출
회화
할리
억압
주범
쇄신
엘리트
##43
##같이
데이터베이스
패드
움직일
몰락
존재감
다툼
##공단
됬
액티브
우월
##99
안쪽
광교
열쇠
기둥
중년
구할
데스
직구
들어설
는구
흐린
비아
모호
푹
띈
대왕
황당
줄곧
##ian
하버
공채
##ies
##레나
수탁
전한
ap
트레이딩
스텝
발열
직결
부의
주무
국한
관세청
쓸데
렉스
치밀
행성
다가가
ex
##LL
금연
실상
머릿
플래그
주축
습득
넉넉
당뇨병
보류
사생활
빈도
대유
4500
조이
쟁이
젓
피싱
##미안
##73
헌재
HM
돼요
원리금
타율
려다
개개인
다니엘
언덕
삼성생명
학점
##안전
첼
화질
바나
치안
VIP
안타까운
려나
보금
보금자리
각도
선보여
##부인
강당
파동
균형발전
야마
시어
Cop
소자
빠질
다이아몬드
검거
다국적
롯데월드
척추
돌보
신자
##47
박용
전례
구매자
아바
거듭나
영등포
햇살
제법
설탕
유니폼
급등세
해온
중진
불어넣
대성
가루
원산지
사지
키울
한겨
로버트
이화
관련자
버그
경마
증강
엉망
음식물
##수증
정류
구직
미생
피터
번영
가이던스
오케
하한
함수
목욕
교훈
전성
콜라보
프로세서
셔츠
##아라비아
##차익
먹여
사우디아라비아
삼성카드
PR
액세서리
려던
드라이버
울트라
필지
존슨
절상
##85
슈팅
호랑이
구형
##iew
서장
성원
홍성
입대
부른
유정
LIG
능동
##석희
역겹
가솔
순손실
꿰
##천구
자란
내정자
어이없
##46
하부
ᄎ
##ystem
볼거리
까진
해치
바로잡
##ost
트랜스
핵실험
기뻐
김선
섬세
겁니까
올라갈
들으면
행하
밀레
강판
되풀이
개동
밸런스
SKT
건네
당국자
폭풍
##91
##동생
강성
學
거둘
공신
성희
잔뜩
1986
절벽
늑
레시
장내
샤워
거액
밍
DJ
베리
냉정
겁나
인허가
신세계백화점
정복
스태
De
종부
할부
아이파크
##66
쑤
달렸
가칭
탭
강서구
경희
당과
속보
색다른
세법
모였
리듬
쇠고기
달라졌
##베리
본관
해수부
전매
판문
두려워
임진
등재
z
와이파이
지각
중앙일보
##경기
그해
GE
토목
플라자
양수
NF
자정
세뇌
인척
갯
##94
브라우
그라운드
심포
후지
분식
CES
IFRS
공모주
대란
쑥
아이패드
이끈
수협
탈세
죽창
밀양
분단
돌아와
반지
달해
##ory
꼽혔
머물러
##22
칼럼
스트라이
불린다
알림
모스크
직선
틸
재산세
빠져나가
빈번
전대
쎄
##퇴직
돌렸
##잖아
##ics
이현
펌프
아우르
가담
이완
##다이스
랴
세이브
대교
##ank
##arket
표출
##의사
만회
경협
에드
123
못지않
달래
리어
편향
##56
로맨스
가솔린
Br
걸어서
정형
포천
맥도
대출금
공무
품안
파라다이스
늠
칠레
##98
안중
뻘
결실
일명
세정
기미
온스
은근
하여간
프린터
이루어질
나주
도미
일감
헤이
화소
AD
세분
KDB
토리
필라
주어지
해준다
113
선장
엄정
고래
계수
연고
중남미
sbs
##텍스
우선주
찜
베이시스
선세
종속
포크
서대문
이만희
##어붙
콕
라운지
패거리
할까요
사역
낙동강
##통화기금
아마추어
내세운
옮겼
SH
마포
김준
토막
Sc
저서
원한다
버려야
국제통화기금
의석
청량
빔
KR
중도금
남양주
正
##게요
아우디
KCC
세전
##싸움
가져야
cj
##란시스코
규범
##특별
##하여
군단
장터
전재
멈춰
의정
미쓰
##테르
결승전
백두
복지부
관리비
풍선
##VD
억지로
보태
보람
거꾸
교양
CPI
인터페이스
죽였
위키
양대
기다렸
뒤따
핀란드
올라왔
##ual
파손
훗
텅
1700
울리
써라
##내리
윙
엣
데이비드
##권력
DL
창피
王
공청회
녹지
플레이오프
횡단
해수욕장
고난
일본군
법대
기르
요시
##부르크
호조세
대동
트리플
##OL
벗어난
판문점
비축
##타임
공룡
근린
온전
이진
니트
카스
MW
뛴
소름
당은
더운
집니다
의의
나눴
Ad
휴업
시크
최상위
##83
늘어난다
슬림
##그릇
반미
무형
##ome
He
환전
누리꾼
1985
태세
제지
오디션
싱크
##틸렌
크다
예언
특기
##바바
공안
어학
오른다
판타지
느니
늘린
해역
뇬
얀
이창
無
차려라
민속
숙제
서경
성령
안주
사교육
보정
##55
고심
지극
품격
上
안개
퍼져
잇따르
빤
합창
엉덩이
만장
##겨운
##ah
이석
휩쓸
허구
숏
카타르
게끔
쌓이
어서다
용산구
문체
반찬
이단
기술원
사은
방사선
채무자
##래프트
망할
동반자
된장
컴백
꾸려
닐
포스코건설
중장
NAND
테라스
누워
편식
무이자
레스
문단
기밀
##모직
검역
성희롱
침수
국제선
제일모직
##산업개발
상여
전시장
타수
손바닥
우익
남해
海
온통
줄기세포
미지
낀
##we
배구
구직자
입문
매뉴
토마토
상임위
뭔데
에다가
##erv
여도
양주
전극
개원
##공원
올라갔
보답
##96
볼트
코믹
빼돌
한솔
오케스트라
##오드
김원
동급
122
##lect
다물
##외과
태우
레이더
제천
반격
듬
규탄
일러스트
##따위
##하이
거꾸로
성급
지방세
더라구요
##북자
##방울
영화관
ESS
워커
군주
딘
얼른
간다는
수감
보령
포켓몬
##뜨린
위촉
여태
그릴
공대
쪼개
관사
##ash
넘긴
근간
껴
##ron
사령부
SPC
반경
오토바이
##서울
작곡가
헬로
처형
##레븐
유익
공수
슨
대본
本
IPTV
킴
캐슬
놓인
닛산
##현동
중학생
##곡동
슛
경량
떳떳
##려면
##ram
TE
EBIT
최우수
올라섰
##부진
모음
##네마
강호
부응
잠식
승자
정계
##안군
공예
유착
에르
##89
피드
용적
부임
체코
상속세
##cc
식수
장자
시그널
펼쳐진다
제너
상무부
김광
##진로
멘토링
최고가
##sh
글씨
주어진다
서정
웬만
임하
중위
가치관
서열
동등
마일리지
프로그래
##ath
톨
심층
왓
낯선
메리트
에라이
애인
입단
법학
보름
파스
생략
오마
팩토리
경쟁자
본드
나비
민선
비단
##ach
입건
고금리
여정
철폐
현대산업개발
TH
폭격
부문장
입출
한파
적격
에듀
단과
대용량
세계관
나대
호감
렀다
배양
시아
파문
해리
공용
온몸
최태
판가
왕따
시동
장로
찬반
머릿속
만찬
##yright
신문사
알리바바
이니
표창장
단서
##ina
매뉴얼
암시
스왑
한복
접대
교직원
동굴
##52
##프리
재임
계통
테니스
샐러드
일으킬
스마
소울
공사비
##기술
취득세
꿇
블로
고온
실세
의구
##테나
레지
개표
테마파크
튀어나
장시간
본능
사소
CGV
안티
오죽
##끼리
家
샤오
물체
부가가치
지령
후유
##CE
띈다
귀찮
이체
욕실
지루
홍대
넷째
부적절
경전
팝업
FY
적성
UAE
제자리
##년층
나불
법상
서초동
두각
##진구
손보
117
잠수함
면치
항소심
##무실
으리라
강대
발족
소서
가든
##ite
법관
창단
아쿠
서귀
씨앗
첨부
##라이나
장남
시뮬레이션
손목
인내
뜨거
스타일링
Copyright
농성
보라
##uct
tr
살린
##인물
상업시설
사들이
등신
1984
사업단
##바라
생태계
이건희
끝날
멋지
기리
##SA
의구심
마그
돌이
##감치
기다립니다
모던
##ink
##찌감치
##카르
자이언
흰색
나뉜
Ph
역점
무늬
SOC
마리아
##소연
스노
수작
##루엔
팰
염색
하여튼
접촉자
##프란시스코
##주군
샌프란시스코
감탄
키보드
##58
로그인
박진
QE
##연구원
##방송
휴게소
펙
or
망설
부의장
인문학
커녕
빕
복장
문턱
직격
피력
쿠데
좌표
택트
메카
##ier
재심
켐
무궁
##다운
짠
##olog
지친
쌈
로우
##투리
ASP
##어졌
쓰여
세르
노화
몸매
지회
스톤
공과
원피스
스트리밍
성서
승격
갈비
만지
##az
남산
푸틴
JTBC
목요일
정태
的
權
앞당겨
옥상
에릭
액체
창당
왠지
##날드
하이트진로
대웅
김창
낮춘
##어마
친척
물자
##바꿈
커서
각계
生
이브
댁
엘지
So
##클럽
한겨레
수요일
어휴
서귀포
올라온
이대
토종
사학
귀여운
가결
국물
역내
설레
##51
현수
타선
봉투
면역력
위즈
천주교
강동구
겄
되돌아
돌연
북경
Kore
대마
더더
##ary
기내
##ime
얼리
성장주
툭
술집
보일러
소방서
조형
현대그룹
즉석
파월
두꺼
380
퇴직금
모션
청담
Fl
마우스
##서스
심심
틀리
사은품
BG
MV
문화유산
적혀
치료비
판매자
영등포구
금일
호출
리바
조그
##ae
##통령
##97
##obal
가급
##87
##에이터
신곡
플란트
##86
850
연차
침공
어플
상륙
쿠데타
양재
미생물
타이거
일수
철광석
어플리케이션
삼가
주둥이
##인지
레시피
연평
진통
소시
위스키
수다
자비
고위급
레전
베드
##29
물동
##구멍
##에어
본체
에디
무겁
블리
기준치
GTX
지역민
데일리안
##ann
##착륙
징용
컴퓨팅
가령
말기
##카락
누락
삼양
스티븐
##속기
##회계
창설
머리카락
성균
정통부
특급
##듀서
고령자
프로듀서
神
증감
할인점
가즈
센스
성균관
KEB
꼰대
이즈
우리은행
성북
개도
가로막
압수
외상
121
지식인
미끄
##들여
박지원
##구정
WHO
기자재
##84
씁
##가르
##ai
##무지
##기사
거칠
약사
##운트
살펴볼
일삼
포레
정문
로움
저격
로열티
보궐
볼륨
會
##폴트
막내
추상
EBITDA
호환
빼놓
퀀
유나이
보습
루수
##음료
롯데호텔
부속
토양
어마어마
##ree
독창
이광
##징어
극도
던전
##ata
뿌려
##동원
장모
막혀
김무
종양
국왕
네임
환호
막강
스케줄
안정세
회상
탈바꿈
던진
유나이티
라던
원동력
스트리트
정기예금
스터디
동경
후계
분수
모발
변했
미성년자
나치
BA
스테이
##선스
eu
서적
훗날
위함
##81
구먼
프레드
차체
내려와
압구정
##사채
양평
##야지
더위
통관
허물
지껄이
청소기
고충
콧
김희
가급적
공립
스러움
서원
나타낸다
사관
요한
1982
재질
용접
취재진
라이선스
모닝
리얼미터
##MP
음향
벚
스팀
작물
절하
바짝
정우
플레이스
테이프
야채
Mo
발표회
동정
두드러졌
도주
고소득
마음껏
상반
쓰인다
범주
公
##93
오산
진이
成
##pr
디테일
빽
넘어설
드문
진공
사표
단연
탈취
No
취했
탈북자
울릉
탈피
여행자
##어먹
긁
거둬
##가족
처해
民
밥그릇
몰입
풍미
##ower
파운드리
정자
플라이
##턴트
시니어
##러그
코스트
사용료
수익금
##티아
기념관
우물
그런가
후보자
여담
울산시
유쾌
풀려
자궁
우려감
아무튼
교감
한발
법치
밸브
지점장
꾸미
껍질
항암제
라이벌
일찌감치
EL
통수
표방
세심
축복
항해
부결
확연
##붙이
##카라
인위
강점기
낙태
바스
모른다는
진한
뿜
증오
LP
루이스
##어준
퉁
새삼
방북
니켈
박찬
평상
집사
전환사채
잡아
KS
아메리
##우리
승소
느리
스러웠
사우
렌트
녹십자
입양
상습
백지
디폴트
##orld
여학생
김주
##멘터리
##순환
차이점
##결제
피치
욕설
종금
김어준
기량
머무르
적법
##상부
륜
다투
벗어날
친해
증여세
##밴드
남다른
실비
국도
판촉
맞벌이
끄덕
착취
들어선다
##픽스
슈퍼마켓
함양
지켜봐야
##yn
정선
포수
무분
사범
구제역
모여서
##만금
미투
보잉
찌질
물동량
몰린
지칭
다큐멘터리
비대위
살아온
보살
성명서
평론가
점주
날아가
소품
PV
비틀
신형
낮출
더듬
존속
속출
안전성
드럼
자구
종신
##는데
안전사고
모스크바
##하루
특사
더더욱
대덕
鄭
소방관
팽팽
SE
은데요
요령
거북
레전드
1983
##냉키
파헤
그리하여
통역
조종사
##대교
##고사
아랫
카자
오이
영종
초딩
##여겨
Man
파리바
재택근무
등장인물
조문
IBM
바우
호의
초코
찾아온
##뚜기
소나무
버섯
버냉키
폭등
월등
달걀
기관장
##공개
거쳤
바나나
마신
##나타
발맞
쏟아져
적립금
내려갔
전압
듭니다
학급
발걸음
에휴
다자
서산
친근
남측
노숙
조건부
또라이
127
##ement
래미안
##저가
위례
액화
파키스탄
명심
光
눈여겨
특색
새만금
터보
##습기
파이프라인
산타
퀄리티
웰빙
카운터
깍
불거진
클리어
접점
##베르
각서
아가씨
말투
##시고
마술
산업재
중저가
up
##구장
웨스트
브라우저
디렉
##eb
지름
국공
불쾌
보유자
##ich
관문
성수
결집
고공
물음
평년
##오리
장래
Go
강진
릴레이
직위
원두
Res
##릿지
신상품
깐
계약자
그랜
머스크
##팡이
징후
얼어붙
산악
출점
동점
초저
출품
직속
MM
##킨다
기본법
텃
방과
김명
탄산
과대
##der
겹쳐
교민
옐런
버디
USB
책임감
시차
후방
방대
124
그쳐
처하
내림세
랭크
올라서
어느새
낭만
발현
떠날
야심
숙련
340
본문
133
관해서
스테이크
시내버스
일까요
안락
임영
의거
발부
코카
KC
설득력
청주시
디아
주스
포로
흡입
산은
명명
가열
돌려주
재즈
유병
버프
습도
##원지
##루엔자
세인트
터졌
법무법인
식감
유화
事
차림
박재
시킴
자화
메드
컨디션
화석
어렸
어색
펼친다
다이오드
##마니
대포
인플루엔자
상급
시책
문항
도마
성전
만기일
원망
선가
##서울청사
정부서울청사
루타
중세
로선
세끼
사위
브레인
##ys
기술자
스위트
정류장
곤두
드려
국판
行
변해
##반대
한샘
의왕
간다고
블레이드
자생
밀렸
취항
풍요
손석희
평판
7500
주지
깡패
##기야
잃어버린
알릴
소비세
고강
##정원
사업체
금주
호스
함대
호반
델타
하버드
이관
프로토
기만
##플렉스
항로
명복
희석
시위대
여행지
가르침
캡슐
##ward
장애인
넨
공급량
##타리
프로필
선방
##port
장담
하와이
원안
바르셀
바르셀로나
주니어
##지가
교주
램프
뚜껑
간직
더해
쓸모
출회
성도
스폰
오미
관리법
고종
화가
채권자
냐면
나옵니다
제반
왔으며
사방
##게이션
내비게이션
팔렸
상존
##살이
스티커
격상
여경
피지
기용
##이나
현관
액정
개년
생물학
는구만
사라질
나르
위크
청계
EX
스티브
마나
튜버
라벨
용인시
엇갈리
챔피언십
스탠다드
##방향
묘지
참치
이코
국무부
쉼터
교통안전
개신
하루빨리
옮긴
##사태
치사
지지층
장애물
돌아올
막바지
촉매
##pe
상이
리비아
POSCO
고스
유령
##예산
지질
##af
방패
동전
性
하노이
##제과
농약
##가상
##위치
우라
원로
##관광
남북한
##소통
##벨트
숨지
나타낼
돌아간다
의사소통
화이자
스윙
오징어
성찰
전념
트러
비준
불법행위
강수량
바꿔야
1979
132
어부
필두
京
패딩
매운
무디스
145
틀림없
보스턴
비웃
가져왔
겸손
강우
##대가리
희소
##지먼트
##시티
아메리칸
미혼
개점
매니지먼트
악질
CNBC
공휴
롯데케미칼
하차
##BI
마법사
저질렀
그레
콘퍼런스
훠
##수지
##ext
흘러나
이뤄져야
##런트
믄
뱉
회귀
용사
김천
걸러
심혈
비료
사재
박주
두뇌
도우미
액면
주의자
##일레븐
탄도
방화
트레이닝
알렉산
심리학
가상현실
방수
더라면
잔디
습격
정진
에이치
이케
향했
세븐일레븐
내성
식료
그친
뿔
고분
오라
##US
댈
망한
지워
촉촉
식탁
맥도날드
平
유언
을려고
가면
예민
Be
섹시
구민
라틴
외인
수출국
부들
##세데스
다시금
메르세데스
126
水
만전
행렬
세관
납세자
절제
일출
순회
웨이브
곤충
악취
전속
빌미
배부
성지
보트
심플
##오카
용의자
##유국
##보이
수자원
기원전
금값
본회
사악
직종
소파
청년층
재래
회차
방송인
##테랑
조폭
평창동
급한
남짓
라우
아토
생수
여동생
기습
후유증
베스트셀러
떠오른
RF
영수증
분비
삭발
ᄋᄋ
도봉
음악회
직격탄
이랜드
브이
상상력
원서
패권
셧
무자
국민카드
모터쇼
부담감
속한다
정조
집필
공자
놀란
더냐
CBS
철근
Tech
쪽팔
고위험
Le
비차익
말미
꾀하
돌려받
사업주
##스틱
쏘나타
압류
者
최경
사마
발전기
공휴일
자유주의
義
거쳐야
포즈
커넥
이언
판도
자아냈
딱딱
증권거래소
놔두
잔류
태아
포화
내전
들어섰
원시
##TN
##unt
원소
한정판
며느리
중개업
숨졌
전향
개그맨
대담
2400
소설가
휘둘
떴
드레
항공편
비평
회전율
우방
경상북도
접할
드로
1981
KTB
김유
유신
##무라
##암동
다치
KG
틈새
144
프론
총체
##에르
##남기
아이오
반감
두드러지
미시
등극
사육
##브라
Gro
지오
챗
KDI
노골
농수
질주
안면
##DC
코딩
가미
헷
망했
Comp
올레드
정준
서한
김윤
보호자
효소
국기
업로드
반문
백억
특보
영농
미칼
움직여
김문
클레
껀
##isk
프레시
주된
스테이션
가점
츄
숨겨진
개막식
교통망
흔한
악수
벌리
저딴
화산
이점
연구회
너거
몰아내
수백만
AB
##퍼레이션
##EN
출혈
kbo
갇혀
구한
반하
비방
##커녕
대차
면상
블랙리스트
대미
애쓰
CR
다뤄
계획안
소형주
전단
직관
예견
들어도
이바지
다가왔
무안
손길
커스
메트로
다방
안테나
##파이어
HDC
열흘
그늘
xx
바이올
깨지
접한
##키나
코스프레
몰두
##젤레스
al
950
현대인
높인다
달려가
AK
##성이
##볶이
내세웠
긋
독거
##태우
##EV
나뉜다
목회
불거지
햇빛
블루투스
한화그룹
타석
연탄
떨어뜨리
루머
##무소
귀한
플렉스
전문의
식료품
리빙
할리우드
##ert
이은
교복
간혹
줘도
연수원
혼다
저놈
CPU
이겼
돌풍
수순
이데
무분별
5500
입소문
쫓겨
동아일보
밥상
낙하산
닉스
흐리
걸린다
라구
획기적으로
실거
임산
초미
감세
비주얼
후보지
지난번
페인트
싫어
부흥
필연
절단
SI
두드러
미처
미약
사사
자급
제원
쌍둥이
전라남도
백수
중추
강보합
니콜
테이퍼
양양
Gr
필기
내실
이스타
체온
부디
일리
App
글라스
페트
집중력
르네
토너
미르
290
노려
전월세
취직
ST
쿵
끼워
불화
브릿지
카자흐
동산
분주
낱
##관리본부
공급자
차가운
남매
정주
공시지가
수중
후면
FIFA
세습
재경
본다고
가꾸
자책점
날뛰
##일드
당대
고창
익산
##공화
항생
권영
설교
지면
칭하
gs
인선
동창
싸울
도로공사
워크아웃
인피
실속
생필
155
좁혀
##드라마
생필품
반입
nh
묵묵
플러그
찌르
고비
##ital
##로움
목적지
ms
地
내신
스태프
선비
광우
완성도
김무성
슬픈
독립성
이뤄져
체인지
노래방
웃돈
모노
co
살릴
베테랑
재판관
레이트
반장
벚꽃
찾아왔
흉기
마블
메릴
콜롬
껄
##도르
고덕
무더위
상여금
옵티
마실
브로드밴드
극본
##tbc
건드리
스텔
시킨다는
부산은행
영재
질병관리본부
시전
순방
Wh
진해
꺼지
##사관
지금껏
제소
투구
경희대
당근
가성
PEF
토트
2050
버려라
버터
사다리
리프
용병
사시
안전망
Sm
테마주
wh
일세
KBO
쉬워
두부
비철
선선
축산물
가격대
明
은하
2200
하계
신보
나와야
129
공범
너머
보사
김제동
타사
신지
쌩
삼성동
헌혈
화성시
개신교
롤러
척하
하필
ro
한다면서
노동력
루프
스무
줄인
상응
깔려
십자가
주거지
##그러
한단
##보증기금
수퍼
예치
오프닝
토니
CNN
NIM
상류
쉰
쌓인
통학
열받
리베
약보합
아비
삿
초상
본성
송출
쟈
워너
##기계
방문자
피난
정장
담임
저건
진에어
회식
사우스
유산균
필립스
Global
무고
유교
##oll
웃긴
넘나
##전선
교보생명
매트리스
그렸
순찰
문법
찬스
EN
심도
소공
일진
용납
번개
CH
625
이오
북방
하강
이시
##ove
들여다
맞췄
##tt
교단
슬롯
정오
불출
##박이
후자
##pg
여럿
홍남기
발렌
310
토탈
초음
통사
##로리
화합물
상국
늦추
벌일
욕하
시초
나인
유머
정보원
구이
원한
니들
##시대
원사
베이커
pl
병합
커져
승률
소비량
활짝
판례
실려
쳐서
Dec
소관
지겹
사회단체
만두
짬
Intern
섀
몹시
망명
장제
씌우
치른
이연
박영선
투자처
위드
작자
수박
##erm
단골
집어넣
증식
Ne
165
이장
맛보
식기
내비쳤
팽창
드러낸
직급
OEM
##납니다
쇼트
할증
마틴
MZ
공실
보직
TA
생겨나
유능
메이드
발자
라이온
아오
튜브
un
IN
et
윤석렬
코디
비시
배열
서리
사무국
샴푸
알레르기
음란
과기
농부
민폐
##운다
시판
생전
##가동
이면
전성기
표했
6500
처우
털어놓
민경
상황실
대법원장
막장
외주
장려금
가진다
다이렉트
##WS
##신문
아홉
족속
##공항공
끝났
한양대
##시브
김인
소정
소고기
휘말
sm
았었
수만
之
피드백
외쳤
분기점
친한
웨이퍼
봅시다
##부동
텃밭
강철
신진
로워
막연
팔레스
강소
이별
씨부리
NS
해저
書
여호
임산부
HU
Dr
도망가
뺨
신촌
성장기
불허
펼친
NAV
실형
열연
후문
##ox
구급
##공항공사
방콕
유통망
금번
스와프
Car
##뜨려
가혹
와라
대미지
정재
잡아먹
Market
버락
도울
져라
간장
스캔들
김홍
##자유
DDR
귀농
420
##틀랜드
모바일게임
떡볶이
첸
BOJ
커브
인질
자선
보소
서울경제
검색어
내몰
##급식
미지수
심야
신분증
파이어
##네스코
무상급식
만도
골고
번거
한몫
벌어질
레미
총량
논하
팔레스타인
코르
적십자
분실
건담
영예
미나
어딘가
사들였
귀속
고배
cc
마운드
세일즈
상장지수
대표자
원룸
##OD
청라
재검
느껴졌
설화
팀원
더리
HA
이강
유난
늑대
수력
여우
##ication
##불리
불로
미러
어기
##쓰기
샌드위치
##창기
통째
우버
##디움
年
줄지
레일
단결
##베스
에버랜드
까다로운
하한가
왕실
유네스코
두렵
무방
윤종
볼까
뭣
보병
##코니
걔
##퍼드
##희정
이룩
##거스
혼잡
질투
풀어
NE
남아공
쓰리
렛
##yc
가설
불복
일컫
버릇
##ium
문헌
손흥
루스
행적
원만
파이낸스
相
룡
신다
For
##신라
카리스
관상
##대기
군청
##ition
小
특산물
불렸
역삼
가져온
마드리드
류현진
##iss
호텔신라
페리
살포
언행
군포
##ise
몰라서
마카오
해커
거창
스케일
라이더
##의식
도당
손흥민
공권력
유방암
대통령령
전승
차이나
##ish
어린아이
RP
접어
대졸
##리다
사업가
長
나간다는
깊숙
증산
ᅡ
로지
김은
쏙
즈음
그토록
화요일
골고루
벗겨
##enc
체내
구절
친분
작사
독성
불펜
主
덩치
##지엄
아날
팔린
고구마
태백
심포지엄
광고주
모아서
종말
응하
항쟁
VI
앞바다
이의
모지
밝혀진
연립
수개
동요
멋있
위배
제과
Se
心
제대
요동
챙긴
시안
이불
NO
인사말
정반대
##다나
동명
##공화국
경진
##계약
문경
애써
브레
간과
대갈
서울역
기탁
쓰러
으실
므
어머
헨리
##ater
##올로
끊임없
134
비빔
##앤젤레스
로스앤젤레스
sc
후반기
1930
CT
티어
System
교량
nc
만든다
애완
거래처
잭슨
쿠바
흘려
달인
연락처
코웨이
친숙
혈당
자칭
누군지
집행부
준용
EBS
##통수
핸들
계엄
착륙
화염
480
발산
부통령
더욱더
BS
이민자
서두르
뚱
냐며
친정
기침
리딩
파이터
자막
반역
금지법
멜로
주점
로얄
어떡
##oo
앞잡이
놀리
1920
강정
선풍
복선
쏠림
교육비
심상정
##화물
추악
프렌즈
田
충동
초안
기지국
취임식
이드
ed
오찬
1973
하루하루
레알
여덟
불문
##그레
##own
뷔페
모방
발리
수식
굴러
##케인
는다며
항생제
370
Gre
자가
175
부산대
##르르
FM
티몬
1978
보이콧
김구
원년
자처
항복
어필
BNK
CV
도피
부류
쉴드
어드
벌어들
##거진
속옷
조영
수십억
주의보
직거래
결선
##프레스
카자흐스탄
서포터
인맥
엣지
##aw
정차
겔
섣
여종
131
들어와서
스폰서
자니
커리어
SDS
쿠션
##을까
앙이
1945
줄어든다
다저스
악순환
풀무원
##ME
by
상법
용돈
팬츠
이터
일광
레고
실무자
##버거
인민공화국
Mar
듀오
한옥
마른
가마
광저우
현수막
리본
급부
로라
깃발
윤곽
가평
충전기
느껴진다
관광공사
모독
ISO
그립
여배우
마셔
통찰
서강
딕
공산주의자
밋
비씨
프라이빗
미비
##레인지
깝
컨테이너선
적잖
시발
쯔
그제
역적
현충
쓸데없
720
악의
병상
끌어올렸
극한
##렴치
軍
ft
폭우
붙인
점쳐
136
jtbc
대유행
낙선
장이
UHD
파렴치
##라미
절정
한성
프랑크
Korea
안달
내포
스탠드
소수자
##라이언스
망언
인적
리브
제철소
김영삼
##DF
변한
후진국
라곤
구본
길러
사귀
##상승
해왔
부엌
시력
차액
에스티
##gy
유투
문득
지리산
페루
##방식
알선
저온
세아
분대
반값
열등
외래
어쩌다
무제한
##파리
땅값
고른
퀄컴
##랭크
API
휴먼
부제
일축
귀환
니혼
노라
금산
프린팅
이베이
##겹살
몰아주
바비
강했
공격수
강원랜드
태워
보고회
가할
담회
스마일
##마다
TEU
장례식장
구강
삼겹살
띄우
올라간
이국
다녀온
신동빈
세울
카운티
어딜
전주시
이제야
집약
ceo
2300
국제기구
격화
돌출
##행사
담아
수첩
##우주
내뱉
서남
조원대
OK
미야
여긴
충고
최정
강등
해상도
##ade
GP
냉전
노린
조별
##임자
합친
西
##동자
cl
결렬
원했
위아
##란다
풍기
댔
##톡스
휴가철
政
그러다
아날로그
조민
황혼
조조
##메이드
수억
정찰
##하라
승마
경정
어촌
총파
LTV
보합세
대문
전류
브렌트
전전
反
TC
##쳐야
나란
성황
##버려
초창기
Am
기념일
복리
해냈
폐암
위헌
예시
치료법
수은
뮤지션
총파업
오비
버텨
##TRA
ip
숙성
결말
EM
지지부진
##ull
Or
레몬
습기
멸종
뒤통수
팡
최태원
불평
상각
선교사
환장
유업
그리드
이타
스타디움
내기
PM
생명체
낙후
카리스마
위태
미일
대응책
다발
과언
불사
부두
황사
검열
롯데제과
드나
동맹국
##밸리
질타
불타
둬야
at
갸
평상시
따돌
137
사당
존엄
맛볼
자취
떠드
비위
완치
교리
크라이
최영
셔틀
430
城
회고
반론
##ream
커버리지
수도권
증빙
엄연
##RE
대공
도산
##니티
개포
자손
크리에이터
520
정유라
138
봉인
살아갈
나리
##돌이
유학생
밀린
안도
진다는
껏
후생
부시장
칼라
추월
Cont
##마리
탐험
##arget
다녀왔
발맞춰
우동
굴리
챙겼
건조기
통신업
##비치
결의안
할래
세계인
변론
우크라이나
섞인
호칭
전광훈
파랑
개구리
##DS
릿
RE
##oh
무너졌
백업
양승
잔금
마니아
들러
고정비
입각
나물
조선사
NP
해병대
상설
양당
토큰
참여연대
##더라
잉크
사와
으니까요
##iel
소대
##ous
성모
요가
##ral
붙였
##ake
정적
관절염
외계
##버터
val
NG
파마
징징
카니
리우
됐었
##퓰리즘
잘난
김혜
넘어갈
불길
페이퍼
척결
Air
##ts
워드
명사
시끄럽
치부
##DM
동인
이세
이소
256
돌아선
元
as
한껏
현행법
쭈
버드
##경영
보행자
조합장
##각서
아지
방울
##부패
송이
플로리다
팔려
충원
저변
전라북도
전범
##지니어링
부정부패
전업
두피
##제리
##엔지니어링
화물차
양해각서
성역
RA
예정자
특허청
소릴
시시
당면
내구재
투스
서사
후계자
움직였
충이
폄
여객기
볼보
조처
퇴원
흘러가
걸어가
중소기업청
견학
##인수
관계사
학군
모은다
들어야
##렁이
Best
치중
염원
일회용
격렬
타락
만끽
타이트
몰아가
##가와
완구
전세금
볶음
교란
##수리
침실
초음파
방어력
ad
숙명
##렉트로
진열
ar
야구장
나타났으며
열광
##국수
##yl
마린
휘두르
##까봐
입당
콘솔
민족주의
##LO
이여
스메
난항
늦춰
동거
우측
스테인
2100
건국대
1975
제트
무서워
아이러
백종
##자유구역
##indow
경제자유구역
당도
쏜
효자
##절기
신정
만대
우대금리
픽업
사고방식
ABS
에틸렌
슬프
품절
폭주
참신
야드
거니
희망자
젤리
어우러진
울음
구슬
##칠성
는군요
##세우
##일치
묶여
##준호
오뚜기
재외
강타
흉내
잡혔
세밀
공보
예정일
리오
##모니
슈즈
털어놨
숟
옵티머스
산행
삼척
제작자
연구실
트림
이어폰
회색
콜로
색채
식자재
##장면
몸통
##올로기
성적표
이데올로기
##자산
형량
사대
해남
노원구
엿볼
덥
SF
실험실
호도
141
샤오미
정가
즘
경합
균열
샛
##럴드
사절
HSBC
퇴사
버핏
랜덤
패러디
망상
당한다
괄
뻔하
급락세
##질러
저절
화법
내시
마스
산유국
벌인다
pd
레이싱
패소
클렌
보안법
DSR
##훈련
박태
대의원
유라
무소
둘레
1974
성산
발사체
비명
조사단
142
나아갈
##브리
각인
후예
##ology
AF
개도국
##래스
성동구
애경
상봉
와이어
성주
기승
방위비
운영비
려니
이태원
담화
DVD
##맞이
VC
스케이
##ject
컨설턴트
VS
부총
##모습
후드
사신
##시스트
Te
더해져
담론
북극
서해안
검사장
이양
맞붙
아무렇
받아들였
##RP
착오
##ative
저절로
식단
방금
남원
고법
##드레
처녀
색기
청각
교묘
선주
Act
발발
이공
날렸
성비
아담
마리오
증축
바이저
제명
섹션
촉각
소개서
였음
점거
프로그래밍
치웠
내려야
미친다
삼성엔지니어링
존스
152
보성
배드
DTI
리처
블라디
넘버
살인마
둔다
치워
부총재
날카로운
아인
mg
민간인
두려워하
맞출
野
김한
검찰청
택하
이스타항공
신생아
가습기
다듬
능가
도배
찰스
NFT
떠넘
따라잡
랍니다
어처
선의
유격
동호회
포진
공관
1976
##나물
무수
별세
비법
##메이
##난방
체하
##슬림
현미
##예술
World
민낯
김종인
무실
쏟아졌
올린다
148
EP
WM
걸려서
스미스
전과
써도
눈부
사치
##숨에
꺼져라
단숨에
도시바
납니다
디플레이션
렙
다카
조수
문인
부가세
2700
햄버거
노키아
인방
##CA
러스
인증서
비참
시당
야말로
빅뱅
올인
##VE
고선
느린
일류
고안
하수인
아레나
씬
지어
440
가디
##닐라
넘어갔
아이언
나카
##업소
폼페이
로스쿨
유체
수돗
거침
트라이
##SE
찾아와
非
마곡
거시경제
##징계
러블
포퓰리즘
국사
격투
All
개발비
요지
토트넘
달라진다
바뀐다
본명
##키퍼
부가가치세
지킨
열망
연장선
BSI
주선
관대
이래도
양면
돌파구
기수
화사
무슬림
##Hz
주지사
숭배
유희
부호
접시
절박
업주
관망세
에이즈
으라는
롯데카드
손질
사스
써먹
무너진
ATM
대위
BI
조달청
연회
유례
##작물
글러
일화
be
pp
배움
수사관
PO
견지
IA
제안서
골키퍼
9900
##캐피
저마다
구자
광신
교향
##캐피탈
폭포
##부분
오타
훈훈
포커스
하동
치렀
멜론
정품
돌아다
채굴
다가올
마셨
내줬
꼬박
섞여
##내기
모셔
정읍
##누리
##치소
똘똘
나쁨
외교관
배관
어둡
선량
##웨이트
##글라스
네이처
##갈이
스냅
발코니
미라
스탠스
매스
##evel
원주민
빠리
일생
쿠웨이트
기획사
미묘
더군다나
나미
##산성
카운트
지청
이긴
川
타고
뻔한
##TP
##led
8500
처단
전폭
BL
모회사
지중
##스틴
생소
졌으며
학자금
Inc
박해
##으므로
선회
감행
도정
최적화
라오스
빨강
킨텍스
현존
꼬마
##이행
길드
143
토익
신협
아반
위기감
최성
가뜩
올라간다
잊혀
세척
되새
크리스탈
조센
pr
소량
주저앉
수돗물
과반수
자연스레
건대
직책
나이키
또래
슬슬
##델피아
부산항
필라델피아
가치주
건드
메세
외고
넥스트
분유
퍼블리
##perform
엔젤
헌금
다기
범법
처치
물리학
급속도
ABC
진천
셀러
Str
노드
코칭
오세훈
밀가루
평안
커리
급급
야쿠
앞날
오더
형법
장주
관철
153
순진
호박
창업주
선보인다고
냄비
1972
나열
토요타
머티
月
잠들
구실
무더기
어려우
잡화
설령
칼슘
녹차
덩달
가뜩이나
##ale
##감정원
한국감정원
사탕
인양
중상
전인
어처구니
왔으나
쫒
ISM
육류
색조
내려왔
완주
2600
세이프
극동
##로워
데드
변질
경제력
천황
어긋나
킷
OCI
명상
터질
##체어
친문
##갑니다
대지진
자연환경
Cor
벌크
알라
실크
김남
##ife
색소
준법
승강장
##체스터
가두
##왜란
임대인
분별
화학제품
넘길
ME
는겨
계류
##rom
워즈
머지
임진왜란
항공우주
권오
##RPG
객체
경남은행
이어받
강대국
팔자
2800
플래닛
마르크스
과학부
스몰
해태
경상남도
못한다는
총동원
선적
칼로리
태안
##BM
##부족
침착
지휘관
실리콘밸리
버림
휠체어
깨진
일렉트
뮌
희망퇴직
151
김밥
아로
Im
호위
지날
할인율
기질
비엔
종편
티스
관심없
끌어들이
##uth
계약직
고졸
##세기
겸비
편익
왜놈
##장난
선불
부연
개교
전입
청도
가락
중앙선
문예
철새
우즈베
에티
MMO
국부
퍼트
양지
조양
##부모
트로피
가나
초미세
트루
TO
제때
훔쳐
투성이
저능
잠잠
변모
ON
##라이언트
Ro
헥
식용
통틀
아리랑
YTN
큼
##혀서
OPM
##에미
유모
클라스
안목
제너럴
유서
파이널
##ML
스낵
운송장
총알
##무진
룬
무주택자
내란
표절
잊어버
컴투스
비열
PL
해골
내셔널
타카
샹
단풍
야후
드러난다
추리
손수
후반부
그랑
재팬
가닥
##수아
글쓰기
ARPU
139
산전
리온
이언주
##메인
다룰
무심
김세
동학
엑소
고독
구출
김우
롯데칠성
매기
거들
추궁
##ero
##날레
GC
양천구
나사
득실
쓰러지
강인
147
1977
백색
##사실
착안
특전
찍소리
한상
택했
ha
탐욕
집구석
146
SSG
간염
이율
미숙
나폴
후판
DGB
남경
구워
수비수
퍼즐
투약
스코틀랜드
허무
계양
##ning
어벙
의향
##lex
바늘
재량
염병
보낸다
부업
집무실
스러울
다거나
광경
예대
계파
검단
데려가
나날
민법
맏
대치동
복도
트윗
어미
유휴
##패스
신년사
TSMC
SSD
손잡고
동래
주교
섬기
올스타
반갑
서머
연사
거스
불상
애국자
밤낮
##케어
망국
망한다
금수
RPG
송신
저걸
보였으나
개인전
모로
산림청
이월
추대
##어링
江
크레인
매몰
야스
명함
천문학
ISA
닭고기
만연
국내선
숟가락
사나
나이스
##장구
번식
대전시
무색
례
바오
정대
체육회
들렸
다스리
담당관
강전
견딜
원치
##보내
플레이트
##사람
기보
##자드
고질
##빠진
거르
국과
he
쳐들
연기자
떠안
증권업
관전
입성
절세
독주
원선
한잔
도자기
##포츠
##프로
픽셀
재검토
월별
석유공사
부원장
치이
남조선
포식
용감
##우마
위선자
나옴
건축가
끝냈
162
단합
개연
오크
퇴장
경기력
연어
권총
행안
市
PI
끌려가
리처드
自
서울특별
崔
대관
##ene
그러다가
도라
늪
달려들
반군
Comm
##드름
따름
앞섰
여겼
적화
유의미
##펙트
입상
진다고
낙인
폐수
병기
증기
기류
속내
블랙박스
올라와
자산가
世
랄까
##ool
알맞
연달
늘어놓
##레일
본업
더한
##무니
은밀
교포
더샵
제왕
##돋움
이직
발돋움
거센
척도
트렌디
가명
김연아
멧
어휘
로맨틱
껌
##상의
비만
빅토
530
##기지
약탈
One
us
주원
KAIST
여객선
명실
부럽
사탄
검장
kia
##릴라
리퍼
공황
이호
태영
견적
접전
페미니즘
원더
맴
투사
타개
적재
어때
일식
코퍼레이션
깽
이규
##라노
##재판
날라
다량
지민
요정
질질
보탬
위약
제강
시련
##상스
개무
154
트랩
그러니
##수원
매사
배고
거주지
억불
휠라
기고
##제강
Pe
##사랑
저번
북유럽
유영
구걸
배트
실로
우롱
공명
代
동유럽
브로커
유급
지기
이방
모가
##자찬
지킴
##보레
굵직
임팩트
급부상
##천동
mc
나이지
나이지리아
쓰일
자화자찬
단자
편파
고화
##리에
##ctv
브랜
구독자
미포
접착
폭파
##터스
대타
교토
##지역
오피
저래
하인
딛
십시
br
##김없이
만장일치
눔
신하
솜씨
156
모처럼
광대
펼쳐진
허니
역부족
탄성
터빈
비호
신안
상큼
아바타
여간
클리닉
북동
同
월마트
프란
준하
윤활
화답
##테스
BE
동국제강
##숭아
분말
LCC
거래세
##산동
북아
박병
Index
대의
숙이
대한상의
모태
이철
안다고
##ivers
아녀
As
지준
1971
박인
미인
했어도
출금
대책위
1965
전략가
##떨어진
습지
밝혀야
상수도
불능
현대캐피탈
슥
붕어
뭉치
렴
장학생
얄
##RC
##둘기
460
탈환
불려
오키나
메이트
미련
149
수락
미화
관습
판매액
소양
이리저리
퍼스
산물
캐리어
뵈
Ed
버틸
지평
포격
503
연정
168
Qu
다가온
이한
쪽발
여느
모른다고
완도
原
쓰였
인승
조선인
KRX
나아지
우승자
정해져
##ility
##축구
조계
크롬
폴리스
쳐도
구린
자행
##니스탄
내려앉
굴욕
공습
누렸
악성
보온
불통
세자
빨간색
##마킹
파르
펜션
플레
노회
안무
분화
립식
대명사
잔량
벤치마킹
우루
허리케인
뤼
##lo
티저
엄선
##모로
행해
Me
급기야
철학자
##버린
매거진
형국
tvN
학술지
착하
밤새
##회원
다녀오
일렉트로
증발
기꺼
분담금
자작
둥지
장년층
정석
법리
베이커리
사계
삥
##쿠라
호스트
원점
갈색
괴산
엄지
우즈베키스탄
660
해답
반품
##다오
發
서대문구
머저리
##우치
##ode
##자부
차릴
르네상스
찔러
남발
템플
세라믹
어버
시험장
##뜨릴
콜롬비아
시네마
이루어진다
레이크
심문
엄벌
패닉
매파
1968
1969
경제학자
운동가
마니
북서
비금속
이용료
뒈
전망대
무서워서
완수
빨래
##부동산
GW
재물
귀중
흔하
아반떼
기관지
지저
교차로
몰이
갖출
각본
BTS
##텐데
의사록
##과이
안보리
배민
응급실
토론토
생명력
가관
터뜨리
키친
##다이
광우병
만난다
운반선
저탄소
##올랐
에이전
해운업
##ator
철원
시추
편중
교내
남방
디렉터
국보
파나
증원
##con
세리
노고
고찰
감액
퇴치
##각각
슈트
레코드
##부동산세
는데도
종합부동산세
##망이
탱커
승낙
파일럿
이룬다
중원
##슬리
실기
늬
기흥
원거리
자카르
##새끼
얌
185
지켜볼
양키
햇볕
cctv
농수산물
년놈
출입국
##커트
속여
사수
심신
헤르
지라
엔드
경질
연례
##노소
침범
經
암흑
원자로
Net
복직
스트림
##pen
예술인
고아
푸짐
블라인
온난
라이언
안희정
연합군
렉서스
선지
살펴본
횡보
SG
홍익
OTT
할지라도
커진다
막론
아토피
수조
##순위
SKC
BW
챠
질소
인파
절친
불씨
누진
with
410
史
##ric
어딨
##이익
박멸
계량
책자
LO
##깨비
경부고속도로
신랑
두들
자석
3200
서재
알짜
개막전
化
##세종
루시
경총
연습장
##장치
제제
방제
증강현실
기꺼이
말려
##에미리트
아랍에미리트
##무사
심재
변국
사살
완제품
쫓아
트론
친다
390
BIS
동작구
德
##DAQ
넬
소행
출발점
각하
그딴
이산가족
결재
래퍼
有
무궁화
괌
갖춰야
##가드
고용부
군림
돌아간
넘쳐나
##기획
##소송
금호산업
아이러니
국격
창사
##서야
백혈
영양소
누계
팬덤
단추
갈아타
빌보드
물러났
수축
주둥아리
모스
내버려
갈리
조준
##indows
청결
고흥
cn
애드
##막이
Fr
무작위
##aper
도왔
지탱
##쿠버
사이다
##ution
스가
두둔
장편
510
판권
##트랙
창의력
익스프레스
콜드
요트
텐센트
동백
판다
##가상각
감가상각
Anal
귀엽
수서
노란색
잡스
내놔
아디
여러모로
157
업무상
##weight
단양
상계
폴더
정세균
육지
출고가
되돌려
오키나와
골퍼
BBB
MVP
골수
소변
재가동
##쇼핑
몸값
##데기
무너져
토마스
입장권
야동
멜로디
박경
##린다는
덧붙여
경청
고체
##줄기
##아시아
손잡이
들먹
연예계
청사진
비둘기
강우량
흡사
달한
##ading
KOTRA
망고
안산시
소소
남대
라니까
천명
혜주
##amp
##view
외식업
장률
지부장
짓밟
레인지
탈탈
충무
앤디
QR
놀아나
가시성
##베트
실책
활동가
오븐
단종
수천만
재기
평택시
단의
은평구
MMORPG
쥔
펩
##대식
아이고
일용
Target
경산
농작물
연주자
##영장
프린트
최재
원상
일렉트릭
돌발
##소스
도메인
비누
158
모친
셰일
권하
김성태
UI
주임
##ll
남녀노소
과거사
사카
플렉
했어야
렐
나팔
회의장
##러미
##카운트
불고기
트라우마
테스
베풀
540
입안
맞이해
어우러져
##브로
페널
박쥐
아니한
촘
계룡
유린
차인
166
랙
망원
고영
정할
냉방
김미
자카르타
##ism
종영
샤프
러시
까다롭
##공서
파주시
지긋
펜스
불어
따를
울려
행방
뽐내
연료비
베일
달빛
라마
체리
대승
화랑
천안시
단거리
##유업
470
BBC
행정관
##na
헤쳐
사촌
제회
조인
영천
수하
소재지
체조
노령
벼슬
##닙니다
감금
사들인
고마워
##ame
참배
##oon
HUG
가용
경각
유안
장자연
배당주
기다려야
##다르
잠복
1963
노조원
시승
퀵
스며
사이코
항공업
무진
론스타
##ignal
선인
세례
남양유업
포탈
DMB
차관보
##폭풍
슴
##더기
나랏
사라진다
차츰
미네랄
시외
블라인드
결핍
후세
웰스
모나
바퀴벌레
친하
은메달
an
포위
외장
仁
##미르
리프트
밀크
장제원
럽
초유
스토리지
##금고
라떼
下
얼라이언스
모델링
외자
스파크
나트
쯧
##aily
변태
살렸
김호
마을금고
병실
휴지
경작
서강대
##사상
태생
일깨
##학규
분권
솔라
줘야지
남서
Over
High
에스엠
수두
고화질
기정
망쳐
진료소
바래
##row
한국가스
기강
정확도
##리그
##텐도
정령
해발
닌텐도
##ating
리플
太
아쿠아
##교부
참관
모텔
지휘자
##제이
김부
서울특별시
못함
맞대결
니라
기공
문신
우뚝
공언
라라
정현
항일
##man
수개월
흘렀
부득
KI
터뜨렸
##용지
재협
답한
궐
한화건설
##우지
고갈
턱없이
카피
거머
역겨운
노바
##연맹
어민
##처리
겨루
박승
인해서
하마
심했
돌릴
무성
거슬러
꺾이
될까요
통신비
가야
클라이언트
유재석
레이어
소매업
COV
그물
펭
송구
인지라
마는
뜻밖
벽화
사나이
생색
얼룩
유니콘
타일
편들
광진구
##천리
의아
잡음
해시
화자
조그만
##배상
무작정
적임자
네이트
제국주의
거미
소생
昌
세비
정치판
순이자
글리
560
정글
포스팅
울타리
미모
International
벙커
한화투자증권
파병
흔들림
벤치마크
좌측
##net
결핵
일간지
심부
뜬금
란스
급진
##십니다
묻혀
메우
제작비
줄여야
177
방류
##다듬
어설
증거인
##ener
대열
차감
무거
본국
프라이즈
천막
명실상부
산모
책무
왕위
##정식
앞세운
불의
##TR
치마
역풍
뇌졸
##필드
오메
##노미
책임질
물려받
압승
時
개뿔
찬사
메커
매너
경화
엔트리
##fer
선상
루비
황태
난무
군사력
out
암튼
구매력
일손
다구
칼날
콰
소급
때려잡
울릉도
미학
파스타
##부들
##air
로프
들썩
향토
균등
드롭
담장
범용
##취업
파울
아미노
성기
못한다면
장안
초선
Decenter
크라운
중징계
이선
##버섯
지로
뭘까
밝기
자의
진료비
선택지
DI
난관
나뭇
##젠테이션
기념품
##스톤
##맥스
독립운동가
갖춰져
셧다운
왕성
최하
창간
한기
Ag
백종원
품위
수없이
Ass
부상자
수교
1948
트인
꾹
었었
노비
문화재청
손절
입출금
귀걸이
부들부들
맞물리
칵
첼시
초고속
진행자
김도
생존자
옌
현주
톡스
176
보수당
##ls
일례
MMF
인수위
조연
不
센텀
미스터리
후폭풍
결사
현혹
견뎌
반증
특나
특별시
향방
산맥
소기업
시간대
문학상
웰컴
초중
코픽스
미즈
호프
임영웅
##ott
송치
디오
슬리
스케이팅
번갈
서른
아껴
SN
제니
포맷
라네
시큐
체불
모간
금상
총격
편차
만행
저력
변제
좇
바울
염소
Dis
영도
몰려들
북조선
인듯
로이
1967
충청남도
바닷가
손학규
구로구
도끼
박준
와일드
아테
백두산
계발
풍자
은은
YG
남아프리카
포항시
UBS
완충
학비
Under
김석
외과
침구
수변
##ild
고루
사체
수표
한림
WA
양형
혼돈
##하마
전문직
RM
산란
조성물
##관리위원회
췌
개업
식음료
십시요
선거관리위원회
여드름
스모
예기
기본급
맨체스터
부세
부려
아스트라
쓰인
인신
도용
##리스타
1962
기해
찼
통풍
단국
숙청
3300
챙길
메커니즘
김포시
경의
불출마
경영인
더디
투자액
빌린
Int
죄책
플라워
하프
##소년
지음
처했
끼칠
Off
FTS
악몽
무공
흘렸
쳐라
내린다
010
##덕션
김두
중력
추잡
손해배상
선체
그랜저
실외
목걸이
##베이거스
라스베이거스
경각심
기자단
줄서
불발
장본
고압
송고
교전
##저것
잠자
도망치
수성구
부설
다퉈
관례
사슬
정용
161
지하수
퐁
선글라스
결여
유대인
베스
스팸
하소연
전립
경악
스릴
nm
Med
도무지
9500
##oint
도난
금회
즉위
##여대
실존
리메
김진태
불빛
구치소
ph
발암
이것저것
요코
경성
성북구
SPA
##icro
라즈
팰리스
라시
첫해
무실점
복숭아
두꺼운
다져
##카와
##꿈치
끌어내리
##엔드
부지런
동물원
FTSE
실종자
몸집
벽면
사무관
구애
씁쓸
팩스
와야
근거리
3600
##도록
굴복
오송
브래
##ma
se
토의
순례
수해
밀폐
다정
159
패시브
할꺼
경지
##푸르트
뒤쪽
다이빙
선봉
노사정
소유주
한국가스공사
끼친
어째서
벌금형
모녀
무드
이정부
##러워
구했
봉지
설날
실망감
지녔
대출자
산책로
동대
##통신
계명
순증
##VA
비겁
성대
창호
비어
su
하이퍼
재협상
도면
163
하하
접어든
휴전
new
164
##폭탄
부영
유량
Sup
브리지
방사성
버팀
카레
형벌
지뢰
당나라
0059
자바
소박
질수록
172
이천
시드니
치닫
싸웠
포상금
젼
멋대로
무라
물어야
엘리자
Wi
방조
개회
간선
##눈물
쩌
퓨처
가리킨다
동메달
면책
유심
MBA
다졌
의리
알파벳
부역
튀김
뭉쳐
게이밍
서북
박계
추행
白
불러일으키
그래요
어쩜
어지간
치도
Techn
소총
기념행사
iP
정연
화나
Oil
理
저질러
정몽구
위메이드
와이프
거장
보인다는
자금난
물들
관용
부끄러움
쿤
島
iOS
재취업
낯설
용선
피눈물
##어질
시몬
하우징
궈
##크론
저쪽
趙
무마
군중
시즈
##정책
내려온
베이지
허술
이빨
Mob
리틀
감도
합창단
##고생
파행
양조
GPS
이화여대
공해
##ange
하사
영월
두드리
##마을
소동
이자이
石
김현미
##게이
왼손
대령
로울
채운
에센스
기울였
쉐보레
카우
뮌헨
하이라이트
고등어
틀렸
me
전할
和
물리치
조미
혈안
수율
BP
167
문화원
정중
전해진다
205
했잖아
독과
##경찰
GT
##은색
마마
과하
인먼
애국심
광복절
바가지
PDP
끝장
즐겼
퍼부
바카라
My
대당
콜걸
월화
##어요
178
기력
##카스
버스터
캐논
시제품
프랑크푸르트
빨대
강물
스물
준다면
ᅩ
떨리
Good
##바리
할배
순항
봐야지
인권위
슬퍼
잇따른
구석구석
##라면
메르켈
통폐
화순
절로
모름
제일은행
극치
자초
위니
살아왔
씀
뒤흔
##필더
##블릭
가압
미드필더
어느덧
드린다고
행세
일어난다
신항
팍팍
다네
바빠
세무서
##ute
했어요
##eth
종근
반출
시장법
극찬
자력
재수없
뒤져
##살렘
민경욱
메릴린
거버
Out
별거
이희
나들
TK
산다는
친밀
증거금
##무장
##ICE
##루살렘
Windows
##에프
일차
손색
법사
bl
전기료
금형
펑펑
일터
##ield
Cr
유망주
주효
동두
##분할
한약
Serv
춥
자각
상용차
속국
노부
전소
비지
상근
李
174
이글
Col
당혹
##이어
고마운
포르노
공여
뽑혔
마취
치고
코끼리
포티
워런
플리
수필
232
올바르
재일
빼먹
흔드
해줘
의성
bb
인대
와이드
우발
벽돌
在
저술
맞춰서
더블유
쩔
##악산
촘촘
##레스테
편가르
돌진
전통문화
ib
한국거래소
도적
##bps
권력자
시조
감내
벗어났
주중
김정숙
청중
주성
af
본청
상도
돼도
여수시
강남역
수정안
구당
나들목
쓰러져
근무자
광주은행
월성
참패
판관
로비스
해낼
##OT
청구인
적시타
하야
문어
하네
NAVER
뇌졸중
홀리
전보
잇단
COVID
일찍이
징벌
상작
저승
번복
1940
신격
위쪽
농수산
ict
박기
서영
이왕
성화
점퍼
낄
나기
뜻깊
경로당
동두천
갯벌
간병
##정지
쇠퇴
어쩐
##볼루션
초빙
통폐합
야마토
리가
##RL
宗
헤럴드
규율
난감
손톱
Part
자판
단조
##라기
위계
##보험공사
하순
##urn
서문
##덤핑
주정
You
마귀
반덤핑
자이언츠
병우
살균제
만물
올려서
돋보인다
기다릴
##any
터무니
지양
궁전
끓여
뾰
글쎄
머스
여진
예결
금성
산수
일어서
베어스
아버
##지도
들려주
단면
기저귀
이문
치는
테일러
법률안
송환
애쓴
잔존
콜레스테
일부분
뎅
흥청
국공립
필러
문양
카나
뒷면
몰아넣
1964
한국노총
양말
똥개
쌓았
약진
뛰어든
헷갈
PH
오줌
지나간
플루
코스모
니아
PK
울진
중성
거룩
Mod
대행사
XX
메릴린치
수저
열대
구기
종근당
마왕
메디컬
내과
바우처
안양시
차근
580
액세스
640
기절
##코스
향유
엄밀
##사키
장보
깨어나
비서실
##베리아
박세
##ery
말장난
콜레스테롤
이쁘
자백
수심
182
박모
평점
출세
렘
엘리엇
코리안
스타크
그걸로
불릴
럴
濟
땅볼
휴무
될수록
고취
##alth
기프트
##탱크
불륜
학창
고층
광신도
시애
중랑
노이즈
##세종청사
정부세종청사
감귤
할로
La
불분
원통
설리
질러
공매
BR
am
골절
대도
파란색
제스
급상승
Do
들린다
했으면
##벌리
EA
잡아가
지저분
른
헌정
도깨비
수인
UE
초당
리티
세팅
##earch
투숙
부적합
전자책
武
1961
칙
지구촌
마오
경복
엿보
항원
##리시
일주
부츠
영암
##효과
CFO
후쿠오카
트레인
##민석
고착
귀가
멍멍
##부산
조력
경영난
임시회
강풍
밀어붙이
국인
복판
bo
기껏
##폭력
애호
요율
다산
에미
나발
수염
임종석
##편차
섭외
재판장
산업체
춘절
마이크로
뜸
빙그레
보였으며
갑상
루나
나우
배타
따랐
공석
세워야
얕
재주
카를
카리
Sch
표준편차
토너먼트
신세계그룹
버금
카니발
불순
일임
스트라이크
싱어
미정
올려야
파우더
##진보
제일기획
레바
에어부산
##인수권
신주인수권
불분명
##수단
아낌
fc
광고비
초석
성형외과
방탄
폐해
몰수
효용
실재
처사
TOP
##블러
수십만
테크윈
다목
##eng
못해서
저능아
##MEX
MF
##년기
들으
똘마니
유역
손발
##클리
후안
슬기
춤추
맞닿
팬티
희박
##구름
##데시
ETN
전한다
리베이트
집결
허벅
저택
다간
을지로
담백
169
띄워
##스럽
171
BNP
필사
팩터
전광판
##하고
가로수
##이다
앞당기
펀치
다닌다
버팀목
##atch
두터
陽
##바구니
격파
Mon
당위
예루살렘
잠자리
케인
최진
생겨서
시종
##고래
깨끗이
186
시노
싫어하
##요금
목돈
전문지
##to
전달식
KTF
건만
처참
장본인
떠돌
취약점
##클린
왕비
포터
애도
여호와
과격
질량
겠다
들통
일품
이케아
용액
알린
수기
시바
마중
피로감
이따위
죄책감
뿌듯
동기간
관악구
도루
전립선
려다가
시애틀
뺑
트러블
균일
블럭
제격
가중치
지독
반등세
서진
지치
센티
sd
신현
진위
의과
PCB
張
BGF
못난
LC
반대편
##red
스펙트
사조
치러진
꼴찌
피겨
강령
꾸리
자민련
630
루마
##블로
제네바
출입구
시사점
맷
부쩍
괘
발대식
관공서
레미콘
3800
도수
참담
미술품
컬리
원문
아프가
추론
혹시나
뒤덮
캉
매끄
암세포
궁리
편찬
숱
내연
팥
##레이트
평화통일
정량
부녀
송전
커튼
랏
미식
與
해내
定
##재해
Risk
네놈
##라이더
차렸
밝혀라
BPS
터트
영덕
명부
놨다
KOSDAQ
204
의전
체형
##크림
셔도
가디언
감원
전화기
색감
선뜻
무너뜨리
거취
무신
유키
평준
누비
불거졌
##duct
본지
선언문
##승부
氣
체전
출루
요기
윈드
자연재해
##나가
인회
215
시크릿
따라야
밑도
제언
모지리
혼선
tvn
바그
주안
해독
##iness
해적
귀금속
기본소득
##son
203
잠금
직시
슬라이딩
두드러진
신전
삼촌
##토스
##모닝
빠짐
애프
잘사
군부대
내시경
끌어올릴
굿모닝
##튿날
구르
독과점
수건
단군
스탈
넘어지
로펌
정거
변속기
트롯
카시
회기
꼼짝
장하
변인
송영
위약금
유니버스
캘리포니아주
수취
추계
추징
퓨전
정쟁
이튿날
##하니
늘어지
추진력
게이머
생사
참고인
일거
나선다고
방호
##홈쇼핑
펼쳐졌
유스
소사
수두룩
sw
연다고
영진
현대홈쇼핑
아이유
장전
발기
미끼
HK
벽지
바이올린
문제지
스펙트럼
어린애
집어
Next
트집
바랄
숨통
마이너
##어냈
기울일
교구
리턴
##태평
따른다
금정
570
띤
Manag
##가요
##마르
We
다케
외국환
해야죠
응징
모릅니다
흑백
##워했
문희
개요
대남
근래
엇갈렸
##구조
무당
가격제
불식
건교부
백작
慶
타파
타진
발매되
캣
쿠르
양방향
馬
반기문
평행
훤
##CN
##iple
신용도
아프가니스탄
Mult
남양주시
부득이
4800
샌디
원한다면
극소
농기계
아주머니
173
선한
##넌스
양회
급수
느슨
보디
선구
내셔
공지영
지사장
댕이
스핀
멈췄
PVC
##ep
자폭
##무게
알아볼
사업소
트레이더
영산
취업률
중얼
LF
봄철
몸무게
##차림
기뻐하
##글라
##상도
맹세
서서
경실
##티넨
크라이슬러
전세가
넓혔
연세
킬러
혹독
고해
스턴
별장
숙원
漢
##정보
해산물
적중
##깁니다
새끼야
기울여야
外
##PGA
할려
선천
만능
성황리
##때로
재경부
경수
액상
수입액
여중
고물
TFT
당론
무증
우선시
옥스
##포드
퇴행
접경
그려졌
##제약
퀀텀
밉
명박
경원
으뜸
지닙니다
프라이데이
호화
선물환
펼쳐질
미역
유니크
고마움
실생활
남해안
基
경비원
박현
소화기
유니버
어버이
항균
주액
콜라보레이션
무명
경전철
테두리
애틀
엉터리
어울려
피했
레어
거버넌스
닷새
맡길
종목별
##우트
탤
건들
대나무
##fl
일별
쳐넣
방증
안겼
장대
朝
삼청
##ton
신병
정거장
떠넘기
국력
아닐까요
는커녕
타고난
지폐
퍼졌
아드
분신
조식
세워진
흩어져
클렌징
라이브러리
항공권
##테면
금세
##테이
본원
##옵션
재연
사계절
오차
EG
라미
##진보당
어지럽
670
스킨케어
라든가
예금보험공사
항산
공상
안토
감격
##인구
벨벳
모을
암울
옥외
레이드
포장재
Signal
홉
리버풀
돌격
연전
객관적으로
##aa
코멘트
돌린
역행
공교육
와우
黃
##화학
전함
이디
이력서
샤넬
서유럽
어땠
잔혹
아랑
슬라이드
기관총
수역
내려졌
##세스
오카
뛸
##ica
##가짐
박지성
China
빈소
##스타일
##버렸
새겨진
##드려
진수
캐치
받들
교섭단체
스테인리스
톈
열사
##ave
보선
680
기업공개
틀어
낙찰가
회선
고민정
허벅지
##사전
송정
우주선
##용수
옮길
실과
애미
녹여
꺼냈
택한
##ng
김문수
갑작스럽
우덜
떨어진다는
복종
선형
어비스
부천시
팬택
허공
도둑놈
파파
절충
장차
줄게
##가정
SR
you
전동차
전구
##호우
1966
브라더스
컨트롤러
쉘
청량리
젝
이효
토건
DMZ
자위대
샤이
변혁
목장
혼수
애틀랜
렸
디딤
저명
집중호우
##기름
잔잔
매듭
장만
187
2900
장흥
쏠린다
Hold
##oq
감정평가
통령
이를테면
드러날
제인
청나라
##테리아
간략
##환자
선로
직계
애로
진척
도급
재빨리
CDS
##링크
교두
신경전
실컷
예스
광구
마그네
피부과
라지
세간
##au
內
판매점
특공
181
곡성
준우
백혈병
층간
쿄
CMA
제물
184
판매사
신데
내려간
맡긴
호투
사회관
And
##sc
##로템
주작
여군
인더스
현대로템
김규
KAI
캐스트
##사이드
장동
발제
멈춘
외제
개구
기준일
문책
부식
장지
총독
니얼
폐막
포석
입장료
##날두
크레디
사회학
백스
##중국
날로
##워진
조양호
거듭날
호날두
천박
인피니티
##양행
MG
##무역
제갈
늙은이
KP
루피
의병
헤매
정렬
짜릿
외지
통합진보당
배워야
만호
이주열
출사
비디아
금기
설명서
디펜
홋
승승
수뇌
파고들
김범
##들리
고모
작살
끼쳤
내라
폐간
간행
고위직
##work
철강업
나와도
시료
패전
작작
시식
코메
##십시오
내진
가위
상한선
갈래
평균치
AV
세브
칵테일
헤아
##꼬리
620
니놈
##ision
스노우
반가운
채웠
내리막
비약
육수
스템
머지않
농경
내건
편도
유한양행
pe
부피
합하
일동
DH
포획
합병증
필살
지그
첨예
곧장
맡겼
고기압
에세이
Gu
병원장
민병
프로토콜
공허
쯧쯧
##까리
스트로
오로
완결
우두
담뱃
THE
발자국
삼국지
견과
지켜본
조센징
동대문구
손녀
겸임
할매
소린
헤어지
##즈키
찻
245
빈틈
##리나
Fin
옵니다
유전체
HMR
최저가
화분
통틀어
아래쪽
주립
변조
남대문
누출
교육장
하룻
활동비
리메이크
방구석
탁구
콜라겐
자랐
조지아
방관
투기꾼
장신
BBQ
본보기
하이엔드
LI
외벽
다문화
춘천시
##경정
le
밀어내
럭키
올드
드래프트
##DEX
분립
##레마
비주
980
235
곰팡이
실화
부여받
가변
서슴
한신
선풍기
##선거
조형물
##ere
서태
정숙
느려
온기
英
포르쉐
채식
면도
처리장
트로트
##경정예산
추가경정예산
리먼
변할
오메가
리부
벼랑
512
방점
그려진
여실
3700
기틀
영유
나트륨
##da
유격수
일탈
정인
하림
페널티
노태우
Bar
밀수
릴리
건넸
##하우스
유니온
계셨
깡통
301
거인
심기
490
질책
평촌
총사
대작
요르
잡아내
조개
경실련
게이츠
까먹
오미크론
미디
물의
##슈타인
골격
복부
왜냐면
##연설
##게이트
##프스
아태
183
가부
파출
가져와
바라볼
제주시
생겨났
눈썹
요미
남도
종교인
불우
쁘
간결
고만
어획
청양
만족감
혈통
수전
지쳐
정영
##비용
프론트
##쿠스
죽여야
의협
영업시간
초라
Bus
비장
옥천
각질
정의연
靑
따내
MLCC
인사이트
##누스
##br
갑옷
여단
가했
프랑스어
박살내
충만
##LC
통행료
ᄑ
##찌개
사본
받쳐
重
마츠
##aph
시흥시
바닷물
군복
높여야
수유
철판
Aut
리바운드
뜻대로
베이직
##글라데시
요하
빨아먹
방글라데시
수온
고운
홍천
어김없이
고속철
맞먹
미결제
중과
장영
##택시
무술
ᅳᅳᅳ
진성
VA
떠받
활주
들으며
모세
빌트
211
##바탕
요란
수혜자
마카
파면
내려갈
fl
칭한
카탈
전법
출격
결속
뿌린
움직인다
부턴
전투력
마차
Capa
208
바운드
맹목
2026
해인
획일
어벤
##찰청
배차
교두보
so
콤플렉스
말소
음극
찾아갔
보르
한없이
Sol
횡포
아버님
회사원
기조연설
오디
대검찰청
##dp
단언
외야
핫뉴스
적십자사
급매
눕
##감사
고추장
##GI
어쩌구
##LE
녹록
초심
BOE
망설이
내준
국제법
무지개
쌤
짊
386
인민군
지원서
양현
DR
빨라질
아테네
##ner
관영
주심
연못
대물
물갈이
네일
선심
DLS
베개
연기력
실드
승려
시합
승패
신봉
돌대가리
빌리지
전반기
충청도
179
세무사
知
이너
배합
강신
자분
채울
##생긴
땅콩
AMO
애리
##ype
안타까움
김해시
승승장구
도태
##러기
가산점
物
##로이
생김
門
귓
저널리
기가
甲
원할
악랄
##나갔
말미암
가릴
정사
##어스
무급
버지
능률
책임져야
멍청이
눈감
##어가
##브스
이토
여겨졌
원어
배팅
체면
들이대
매달리
회가
랍시고
코프
어택
테이크
추신
어시스트
에탄
치켜
Des
타임즈
심경
바리스타
달서
아까운
페달
목격자
신민
여겨진다
유자
골목길
번방
泰
발주자
형광
싸이코
텐데요
그로
Apple
이질
희대
슬라
노벨상
매도우
qoq
광명시
호우
몽둥이
하나같이
자긍
미래형
캬
Smart
JB
계망
명세
풀린
양분
출소
양정
교제
내려진
레이팅
생동
코앞
서귀포시
다쳤
불당
주워
득표율
수용소
징역형
##티넨탈
한들
난치
건너가
관은
##att
물산
허나
담양
ss
구태
Ac
악당
사세요
어짜
##과학
는디
산적
CSI
박형
성품
터전
지나갔
들어온다
들인
충실하
개천
##itt
피츠
서인
名
##어티
당직자
헌터
타르
물러서
청담동
분석가
SB
기단
몸담
##충제
ING
소송법
지중해
수의
산화물
접견
##만장
##uro
##잔치
어머님
알아듣
재혼
야근
왕세
##FI
빼내
##ated
공교
우라늄
끝없이
신용보증기금
오마이
##로이드
때때로
근속
승선
신다면
판명
매경
친선
시어머니
후발
거늘
cont
##맞춤
NYSE
표류
LPGA
리자
안일
젬
중첩
위인
##악단
몰릴
넋
김영란
찬물
태연
Sk
빌드
박동
늘려야
사상자
사라져야
찡
진흙
사우나
랩스
1946
모자란
Power
원도
안식
##커버리
##주택
연착륙
Group
요일
끊기
##로그램
갑상선
폴드
오리엔
五
##무늬
방크
206
永
칭송
善
휴스턴
내심
Univers
##지긋
3400
##play
자긍심
##하이머
Lo
번가
쳐다
차용
KODEX
통용
모모
##FS
남극
누설
경륜
바삭
문성
ENM
끝난다
외교통
##ym
위암
다니까
일쑤
뭉가
보호구역
흠집
번쩍
##용석
중흥
지긋지긋
lh
로빈
##올라
젠더
재평가
##도리
반가
흉터
이우
맞선
질렀
구가
전자파
채광
##에이티브
크리에이티브
토르
경동
향서
지방분
정예
문화예술
木
나루
우여
무스
물어뜯
아미노산
타로
갑작스런
박혀
발랄
묘한
내국인
발작
서운
##천연
비나
파편
최고점
신호탄
냉연
화끈
픈
구주
과점
아워
洪
도화
하남시
가장자리
짭
화천
207
方
미녀
사명감
사용법
브러
제형
기형
부지사
명인
백서
한화케미칼
유람
당권
가업
건당
누드
깊숙이
영지
의료인
강압
하룻밤
응대
토해
모하
ROA
##나비
지만은
속상
##부인과
신의
255
싸그리
대일
신대
추하
OST
##위성
AU
극장판
도이치
듬뿍
토사
엇갈린
발등
국화
아메리카노
사토
좌지
외계인
##지배
VOD
가증
순종
창녕
휴장
와이즈
만인
다급
華
첩보
콘테
##체육
한답
개독
##눅스
북적
신변
웜
##바르
만져
답사
##차근
구내
차근차근
초고층
通
문지
dis
청계천
드럽
鍾
직행
한판
위시
패럴
협력체
됩니까
와도
야쿠르트
라는데
소란
저작물
##명령
앨런
적군
중앙지
NGO
회계사
어묵
어다
끈질
판독
論
戰
시화
국론
갈지
AMOLED
聖
칫
요리사
등록증
계몽
민망
전환점
여과
古
Ser
이회
망각
약가
과소
홈경기
LT
각료
상쾌
이완용
신음
핚
다지만
훔치
Ap
외우
김중
달력
심근
오니
끝판
김건
치른다
탯
##SS
제게
폭언
내무
국회법
깨달음
냉면
절도
광해
다문화가정
後
거래선
사절단
##곡절
분홍
동양증권
없앤
모비스
조동
삼계
빗물
보여야
##사항
다임
훔친
응찰
뒤처
개소식
자형
반쪽
##태평양
담아내
수녀
추기
과외
보탰
폴리에
기쁜
남학생
튜닝
물색
새로이
희미
우여곡절
꾸민
MT
배지
이이
피아니스트
##vent
쓸쓸
카풀
예뻐
알려준다
화훼
점하
옥시
담그
218
타이거즈
눈동자
KF
생식
불러서
쪽팔리
##ose
는대
빅스
산부인과
동자
JW
놓이
리눅스
골라서
후대
##러움
총영
##십리
편곡
애프터
##EF
아치
유모차
##첨단
카디
블로거
화기
배신자
이북
위세
선후
비상사태
반항
스니
##이동
최첨단
##oci
스트레
JA
딤
뽐냈
설립자
명장
리카
5200
준공식
官
실직
용수
오른손
요양원
연명
경주시
반동
감량
마쓰
언서
##자치부
행정자치부
##촌동
경미
아머
오승
윤영
신일
게이지
모더
관직
경이
##활약
여관
##연구소
논산
온수
혼동
연골
끌어안
트레이너
추신수
선례
획정
운전사
PX
212
스톡옵션
돼왔
휘둘리
ac
자아내
강기
조공
수배
퍽
##중독
애쓴다
다다
삽질
미트
마주치
가스공사
4200
메세지
트윈스
빈부
절개
성직자
##문화재
유우
Sec
부적격
부검
광동
받침
##결합
##ley
박자
판결문
칼리
멧돼지
상조
하태
사춘
초연
유소년
춘추
세속
228
1080
토이
四
코일
소공동
측정기
##ization
왕후
플러그인
단열
이통
종과
스커트
따구
장원
본다는
놓였
어려서
내쉬
다던데
봉화
사의
cap
이남
홍영
젊음
알아내
카본
DX
풍토
강관
##천연가스
하구
BT
IOC
축물
##NO
KIS
단부
상충
외채
한텐
우량주
여운
싸가지
고를
버크
##오피아
기준선
에티오피아
끝낸
프리랜
욕할
정한다
뾰족
겸직
물러난
대환
##igital
왁
광기
귀촌
궁합
권선
005930
떨어져서
가출
737
안락사
차차
막막
허허
先
1953
민첩
tf
워시
둔갑
선거인
조교
비우
##틀리
악역
반정부
##느니
209
외압
아람
어짜피
마음먹
짝퉁
그까
##채권
##트론
밝혀내
손보사
ᄐ
##전환
마음가짐
##ti
안내문
Lv
뒤진
누리집
##irst
다친
##노동
나들이
엘프
세계무역
소견
Che
알아차
FPS
리라는
##더미
도금
좌지우지
Trans
요르단
정맥
닙
맹활약
훅
##착오
철강재
NYT
ODM
에비
버금가
드라기
##몰이
팹
##야구
총살
시행착오
어려워졌
어용
담대
김관
##서니
배낭
선종
엄한
275
라든지
연행
솔로몬
환시
정의선
도스
네스
원부
일단락
1949
780
기말
빼앗기
내편
밧
직간
말레
파열
느껴질
라더니
##따리
태종
서신
숙지
암모
##cess
##츠키
병동
ᄋᄌ
스크립
노블
수천억
敎
무례
##큘럼
실마리
mb
담담
케빈
에너지원
연구비
토벌
퇴직자
독소
해본다
반공
맙시다
기전
업장
우성
리비
멸치
타국
##냅니다
##berg
마음속
다변화
청바지
출연진
##랭이
비박
소닉
몰카
웅장
자동화
都
커리큘럼
엘리자베스
물려주
돌이켜
지으며
하리
때렸
벡터
스쳐
전년도
씨름
실렸
정운
드라이빙
석학
무비
에라
넘어간
석상
브라이언
##웨이항공
티웨이항공
천정
폭설
222
라지만
기록물
선양
보여서
개탄
굳건
바인
음력
상승기
##혈증
산후
몸살
순자
오정
##gram
역삼동
Class
224
귀띔
맞섰
미용실
코믹스
실루
일신
숙여
로렌
스팟
영사
퍼블리싱
寺
울주군
쓰레기통
연신
##애나
영통
서부터
다고요
울림
##ern
분장
데님
휘청
살인자
##부림
공사장
정돈
윤상
무승부
양승태
숯
걸까요
선다
최승
음악가
050
990
빈티지
##타페
보따리
에드워드
사뭇
집권당
하역
216
프리랜서
치수
털리
수혈
CAP
중앙당
클레이
끼어들
돌아온다
프라자
이따
중환자
할애
짬뽕
달라붙
오인
나온다고
예식
960
##절벽
부르짖
구운
충청북도
슬쩍
##YP
수신료
학장
대표부
說
명제
NI
해금
활주로
이루어져야
급행
전산망
식중독
경리
박명
반죽
산청
밀어주
##토토
예우
적기
호국
귤
궤변
정상급
##이스터
자루
옆집
케이프
구마
소위원회
무모
열전
직간접
##용품
사칭
차마
##번스
요직
한국개발
오클
동해안
케냐
탐정
##카이도
1955
보료
타구
차갑
재투자
계산서
모의고사
국교
헬리
할려면
##닷컴
구세
ELW
틀니
信
##하늘
섀도
텀블러
딱지
갖가지
준비금
세세
NCC
##분투
유배
애리조
중기청
애틀랜타
편승
라파
양일
##vest
링컨
중심부
식생활
으냐
ITC
운전기사
오영
처절
교촌
##ck
오라클
고단
분쇄
NYMEX
보여진다
제프
##RD
매콤
##푸스
패트
##당초
양구
##렁크
경차
자가용
황산
신규수
가져갈
二
평정
두껍
아프간
단련
IH
214
차후
김효
림프
견주
월말
트렁크
##ogle
UEFA
스키장
병자
보청
궁중
##바퀴
정공
노랑
교시
aT
의복
호치
##IL
붙들
쫄깃
다원
얽혀
Up
법위
합한
몽땅
한국개발연구원
윌리엄스
##푸드
사르
야만
여하
##ux
이랬
더딘
valuation
바이크
대등
Joh
##소니
지름길
약제
730
헤라
##티콘
박희
경향신문
WW
그린벨트
영업자
작업자
나돌
두들겨
독일어
간밤
안구
이보
초조
누수
삼정
대요
축구장
꺼려
밀라노
경복궁
FS
제네릭
때린
조직원
##슬링
이해도
##삭기
스포츠토토
記
결별
現
에이전트
산원
PG
고속버스
애착
쓰래
후속작
방지법
타이완
김동연
잔재
아팠
패션쇼
합성어
213
Mac
으니깐
헤비
둥근
티베트
파멸
SEC
조르
간간
어떤지
배스
226
데려다
경쾌
장타
商
무도
NT
김신
모공
##휴가
연하
반칙
기간제
진단서
당겨
집적
췌장
즙
res
성년
##킨스
특판
매출채권
순유
풍산
기념사
곶
공공연
760
나락
맞은
Red
사춘기
크레이
공소장
시외버스
##추얼
쾌거
HT
연봉제
##지마
김여
녹스
허덕
간다면
es
제빵
검체
샌드박스
패했
Li
스타크래프트
풍년
610
양복
출산율
콤비
극명
앞쪽
신시
난다고
id
사회봉
##미아
##ve
몸체
샬
El
2040
까마
바이오팜
사령탑
미지급
아쉬웠
940
치약
##티티
피플
대장암
사노
기색
스케치
##오피스
주적
합법화
##구치
MBS
계측
##워즈
아슬
폈
부안
가져갔
이근
이쁜
저울
##호영
Elect
레이디
1958
굶주
유적지
액화천연가스
##ne
폄하
##랑카
맞은편
수용자
칭호
체납자
Pol
유흥업소
관리사
제비
##por
열렬
나프
Day
UV
호세
223
도데
추기경
근린공원
교통수단
라이온즈
루마니아
스카우트
거물
회부
꼭대기
##배기
개명
이걸로
Micro
820
주조
한컴
部
유총
건데요
해이
배척
켈리
연희
기정사실
빙수
유유
실루엣
원론
연한
햐
福
299
##공격
##land
범법자
##들인
맹점
가스전
4300
금천구
빨개
##어음
연매
판소리
모유
외쳐
격추
매니아
UC
##대사
얻어
초년
동이
라이센스
##누르
구스
군정
투싼
USD
진솔
작업장
문사
계상
집요
갑시다
EPC
들였
은닉
검경
개당
면회
양손
근성
깨우
1959
이기주의
카네
싼타페
기이
퍼레이드
##소싱
한국사
할텐데
imf
피카
솔선
쓰러진
나폴레
아웃소싱
페인
최경환
당직
동맥
운하
플립
김소
노브
독선
가금
닐슨
디언
외로움
크리스토
뜯어
##line
는지요
된다면서
스톰
암컷
비자금
탈루
개검
의논
방법론
깬
카즈
트로이
눈깔
##도전
선우
자활
소다
내딛
간지
뒤집어
하버드대
퍼트리
안재
으셔
색출
이격
의인
영남대
전멸
탄약
사천
신빙
보청기
구구
리안
1956
바꿔서
추수
담수
변종
트레일러
##게더
##라마
거느리
퉤
갔다
이혜
캡틴
탤런트
고함
낭독
가덕
미연
저층
핑장
박스오피스
더미
마칠
제보자
끼리끼리
투게더
Per
다룬다
유리창
성조
##ergy
굴착
출항
청하
지준율
밑바닥
신고자
상경
세난
분출
휴양지
의기
노량
통한다
굴삭기
##더슨
구명
외롭
무혐
현시
여주인
3900
무한도전
##자치도
제주특별
제주특별자치도
앙상
황기
에로
하이텍
재능기부
리더스
체증
변기
코스트코
九
4400
국민당
나눠서
릭스
사투리
협찬
트릭
디스커버리
##박질
쾌락
과금
##쿠르
배상금
상어
광공업
폴리머
반짝이
##app
사회생활
##me
사과문
폐하
옴니
동성애자
괴뢰
415
노회찬
트립
사익
USA
회개
노점
재고량
특단
크래프트
떄
1910
적색
그림책
석권
##자키
퍼뜨리
공적
나폴레옹
후원자
낸다는
빅토리아
iot
사부
줄까
보인다며
불기
귀결
빠져나갔
엥
소도
혐한
규약
어울림
안전장치
생리대
성악
블리자드
스케어
리코
장어
수식어
특수강
##대원
서약
환하
NBA
고산
발끈
떠난다
도사
명중
에어백
시궁
원주시
데크
독식
후려
##레오
놀랄
어벤져
반열
라고요
진하
##리얼
노무라
##캐스트
vr
##NI
커플링
KL
##utral
낙마
黨
예단
막아내
en
비대칭
남향
주택가
학생회
화백
院
##비어
##규어
je
사재기
앨리스
공공시설
테리
김보
일궈
방황
벨라
륙
사적
다더니
먹방
##발트
방배
무의
발포
세계무역기구
자락
두어
명나라
미티
##진흥
##lear
930
밴쿠버
보루
매춘
좋아한다
##검찰
春
망가지
##영화
뒤바
##ience
top
온누리
도미노
니코
수컷
수뇌부
관청
억대
수목원
따라오
고군
진격
축협
한산
추심
제각각
주거비
SL
담사
AMD
도축
튕
이계
##기념
##기술센터
코리
농업기술센터
대별
싸운
##결승
두세
무림
##차기
소인
멈출
조강
남궁
보가
출범식
##치아
딜레마
연습생
HMC
레터
정준영
승강기
1919
840
##림동
프레젠테이션
방심
태화
섣불리
##나르
식스
무너질
위자
창궐
팽배
암기
고의로
세차
하지
범하
저수지
Amer
미키
##arm
親
##alk
브뤼
##시즘
##so
gm
217
지배주
되돌리
판단력
재정절벽
##축제
##카이
가옥
나토
어려워진
줄인다
##덴티티
710
아이덴티티
취합
레바논
받아
##갈비
서너
역겨
도전장
수입품
클립
221
Inter
뺄
망친
민트
스탈린
재규어
그랑프리
이코노미
장상
선입
아틀
무적
RGB
혼합형
단층
일사
무르
##내려
880
복안
희소성
##들레
지선
TPP
모를까
희비
건너편
날조
이토록
접합
##ency
설렘
하류
per
740
떡밥
뺐
순천시
안과
전자레인지
즌
소라
복식
진급
슐
항문
흘러나오
무보
##츠하이머
##ble
알츠하이머
590
920
묵인
디딤돌
쿠페
my
아로마
Data
매점
치하
의견서
##수소
Big
생겨난
발인
용자
##저축
테르
급사
단발
유명세
이형
알렉산더
4900
연수구
화신
그리스도인
edaily
민변
Mobile
##문고
##스트로
##아티아
통찰력
크로아티아
하이드
달아나
버려진
들먹이
인멸
즐비
결연
자성
대시
일본식
각급
두리
3100
期
앉혀
대표작
순창
파이팅
소회
착실
목숨걸
국문
연주회
DP
청구서
싱크탱크
근심
초교
사극
회의록
부동산업
##거름
오르내리
컬럼
##NC
성패
컬링
파출소
적화통일
##결연
너그
pick
쉑
치환
자매결연
구금
주소지
베인
##연금
노년
양동
니티
성가
하임
엔지
감가상각비
##AA
4600
태조
가까스로
성신
당파
비워
넘나들
##지휘
수긍
Par
벌려
234
制
대산
車
##rol
스크립트
자며
레이블
Min
하의
죄질
기로
233
##EL
건넨
인준
매달려
퍼붓
수사대
지반
객사
눈부신
마사회
필살기
온다고
준거
사들여
詩
지으
인천항
번번
평온
두산건설
초토
##태섭
악한
##쓸이
부원
PGA
내분
##버스터
묵직
영화배우
##OLD
사비
듀스
##지근
특산
개똥
멜라
일전
봉합
베어링
진짜로
버지니아
볼리
가창
770
AWS
신명
스파이더
누이
마하
율법
골치
립스틱
비무장
갈망
랜딩
##상조
MLB
프레스센터
날린
박이
하이테크
아이비
딜링
비빔밥
케이블카
휩싸였
총출
싹쓸이
완장
Center
생계비
강재
부엉
결손
##교도
모기업
영업력
이동식
일컬
나타남
도이
Service
팬텀
강북구
이글스
Prev
달릴
깨져
##런치
한탄
배심
##슐린
다나
정승
##식물
##oth
황이
##드래
화주
231
돋보였
충주시
##yt
번호판
인단
대니
직군
거동
ᅲᅲᅲ
도데체
댄다
부유층
대상지
깅
전미
##AP
양궁
해져서
##면서
천상
처신
휴면
숙주
재회
1954
능숙
니시
##저지
이라든지
피해액
네거
스팅
그나
Si
業
333
##엘비
스캐
미카
아다
유고
##여객
괄목
미진
수레
사활
무어
빌트인
아크릴
고평
명지
별관
860
제하
던스
##짜기
238
애용
표지판
반년
조서
천호
베토
PT
발화
매혹
루터
시찰
몸소
염치
산뜻
질감
알렉스
##당선
디톡스
크레디트
발라드
타다
구미시
대구은행
정상회의
비선
안중근
다릅니다
風
신라호텔
##리학
인슐린
FX
시궁창
##소닉
가래
어수
저럴
방카
mou
가도
한결같이
합해
Eng
쌍용건설
##크라
소시지
합금
다이나
기압
당첨금
탄수
이끌어냈
소용없
Not
떵
스크랩
##OR
취록
운전석
개보
환급금
##호흡
속담
마리나
Life
##어드
당해서
나온다는
명가
##uck
판시
##타로
차남
활로
##바키아
인버터
비주류
##렌토
부메
시스코
으로선
##차별
미들
나아질
1957
대서
지망
식초
도봉구
오성
##꼬박
열혈
Hy
말살
##aster
화약
어벤져스
공생
뜨거워
안쓰
1947
염기
부서장
꼬박꼬박
로버
관리원
입김
노동계
피해야
든다고
사슴
fta
네거티브
유분
##국장
게임기
칫솔
##넌트
막스
안상
인분
줘요
발행가
준우승
평했
세계일보
중금속
##중기
총경
공학부
##파니
치루
##시계
한다니
모리스
기와
소지자
##ings
부메랑
박민
백운
라가
報
Play
게임빌
##멘스
저급
졸업식
##oom
고국
gr
놀라움
쇄도
244
블록버스터
웃겨
페스타
비꼬
이동전
에반
##ao
보아
바자
흥국생명
드려요
##자락
신조어
현기
지낼
##메스
243
뉴저지
POP
MoM
짝사랑
천체
##ible
RC
출액
폐차
극소수
동무
중앙아시아
##ane
군함
무증상
인디언
CNS
쌍방
##민턴
다분
##십니까
이학
교육자
##elf
고혈
서예
NFC
돈벌이
계집
공공재
GO
볼모
상대국
十
재조
핸드백
허점
막아
재촉
RBC
공정성
동아제약
남길
조광
河
꽁꽁
수족
##ient
측량
내사
Em
로밍
에이치엘비
##불명
티지
정책금융
바젤
근력
하중
자켓
팔꿈치
유태
265
뒤따라
##바위
##신호
go
##뿌리
AAA
##uk
변함없
두려운
##서비스
식욕
출입문
시라
##혁명
Green
투표소
그리움
##조치
편해
##봐도
인계
San
AG
전문대
국무원
탑승객
봉급
펄프
발신
증착
폴라
##웃음
뮬
복면
업인
콘테스트
아재
빈민
서두
개진
불린
까불
227
소실
레트
hy
초소
허영
알제리
##모어
귀추
뵙
열세
차린
국민연금
요미우리
##tr
기우
pm
통닭
##IB
스릴러
라야
생강
전세기
##변이
Neutral
어려워질
게르
때론
평가전
나선다는
부산물
획단
활황
해부
단체전
쓴다고
잇몸
##드래곤
페트병
거머쥐
현충원
##습관
제곱
GV
돌연변이
흉악
절묘
식습관
로인
탈레
원성
##FF
퍼펙트
CL
김철
칭했
녕
훑
산간
떨거지
9800
순교
배설
로시
코발트
대청
선율
확인서
##폴리스
뜨거웠
##플러
구례
절연
증평
찹
웨스턴
비엔날레
시킵
연방제
얽매
인스
크래
830
조인트
간암
UP
##프레소
단맛
함선
프랭크
##자동
반락
##레일리아
우러
Energy
버즈
본받
##니엄
직경
썩어
게으
외무성
Google
##창수
시베리아
경구
꾸몄
스루
##브이
챕
모국
포레스트
##받이
양재동
죄수
버젓
과부
방재
##토류
문고
장도
트램
총출동
희토류
필로
갈릴
빠짐없이
액면가
어쩐지
캔디
해짐
970
나부
쐐
찌그
Inst
포대
투표용지
행정소송
배드민턴
體
sec
君
유증
##티노
읍니다
##그라들
연평도
淸
야수
상한제
구정
천식
##conom
퓨어
MSI
##모리
현판
까발
메이플
놓친
요괴
드만
암모니아
독단
스포티지
아리아
장재
회자
여름휴가
라스트
엄두
민간단체
##렐라
타도
호들
왕세자
승화
시큐리티
실익
굴뚝
소드
分
팻
하급
난동
편드
수여식
심폐
진다면
연천
블라디미르
##장고
개한
전쟁터
bm
준결승
전유
꼭두
반듯
##MG
##곡점
컨트리
메트
애호가
마모
##ubl
리라고
CIO
변곡점
껍데기
삼계탕
모자이크
治
월화드라마
박막
제련
조계종
본데
나불대
포근
신분당선
##믹스
##서블
장난치
意
219
셉
점장
장바구니
지스타
파나소닉
유성구
판세
재무부
690
모종
벼락
다진
로다
우와
악법
자이언트
##yle
서핑
##hc
박통
무더운
와이번스
다뤘
다이내
고해상도
유제품
줄거리
810
바흐
곤두세우
티슈
글루
부끄러워
264
왔었
예비군
렬
Rec
오창
조윤
카바
뽑아내
더니만
##사이클
호로
목욕탕
부대시설
##ound
가르쳤
클라이
놔야
애견
석면
##민호
난제
##혜진
일용직
영조
사하
정모
지하철역
베토벤
케네
다방면
브릭스
뒷전
준칙
건자재
##중간
인내심
##기능
자명
吉
장충
따까리
강습
리즈
태어날
##니카
빚어지
정동영
광원
이춘
초록색
밑거름
##ict
놓쳤
CGT
BY
망라
종단
콩쿠르
풀릴
마피아
구부
##저래
대추
지팡이
달달
래프
생보
융통
분향
해왔으며
다각도
##레드
당사국
한영
화증
대진
대대로
선반
김원봉
송년
메스
TR
하얗
채찍
함평
홀드
치욕
아랑곳
헬멧
페르시아
##네임
건축비
숨쉬
중식
간질
소강
호두
내공
이변
비엠
지아
기념사업
건축사
마도
폭도
빠져서
##훼손
소형차
였으니
기업어음
도리어
성벽
숭고
##ycle
##포스
CK
하자
경도
찌푸
comp
조아
one
산다고
안함
##위병
실검
##매장
수매
판국
직물
회장단
불태
##얏트
하얏트
기억력
북한산
Art
속아
짜장면
오름폭
영부인
周
이모티콘
얘길
거처
악명
코메디
##방위
월래
바쳐
일절
강의실
銀
핍
윤지오
도넛
252
던질
士
푸조
##지스터
살충제
대학원생
유라시아
gdp
안치
315
카프
타스
알려야
배기가스
위증
적외선
특례법
QLED
부국
진두
뜬다
5600
서식지
대파
라이너
氏
룽
배트맨
냉철
불어나
길목
用
AL
트랜지스터
APEC
구토
매립지
신관
쿼드
實
뻐
스탬
방가
명예훼손
반월
서바이
쌔
##les
MBN
플로우
취해야
고품격
불러올
지날수록
외투
장하성
Bank
db
사쿠라
원청
예리
인공위성
액자
정종
요구사항
딜리
호들갑
블랙홀
##박혀
봉기
쌀쌀
찬란
##formation
넹
옮김
눈치보
시사회
광산구
서거
所
노가
인산
껑
야비
열중
돌기
##제국
렌트카
오스트레일리아
친족
##지방
미워하
넥타이
원예
청송
##let
월남
탄원
희생양
응방
썩어빠진
고학
합작사
모자랄
가로등
말린
줍시다
##oss
일개
시스템즈
고귀
정치가
##무시
획관
출사표
조재
슈퍼스타
ERP
오아
두터운
이권
피라미
학번
우루과이
을라고
스페인어
올랐으며
켠
흐른
입혀
양립
홍석
말년
수목드라마
##섬유
패스트푸드
북송
236
외침
함경
소리쳤
뺏기
##던트
이인영
정치검찰
역도
원어민
##영향평가
환경영향평가
흐트
데려오
친목
리보
민원인
수리비
미셸
연연
홧
값싼
관리인
소모품
아동학
손주
오텍
자서
##소시효
253
fr
영성
no
산사태
간대
난사
아산시
박사모
##케이드
울프
네이션
파헤치
공소시효
유실
몸부림
줄여서
주치
챕터
갈증
김상조
TB
자금력
尹
중전
스프레이
기묘
흘린
스니커
##ins
세르비아
304
미필
붙잡혔
핼
열량
상담원
누명
유부
돌아설
만한
이동해
애요
항변
이뤄지면
과속
탈레반
케이티
##미스
술자리
icon
241
천둥
교통량
237
꿰뚫
株
集
추징금
미신
커트
과천시
왓슨
Pet
초상화
司
목상
내려서
읊
동의서
벡스코
와이브로
열거
함성
정부안
모피
합참
기사단
철면
밀어붙
피니
##거품
갈아입
##벤처
국민회의
음란물
6800
봉착
스콧
권했
한울
어드벤처
수영복
연석
##수범
시들
##시네마
게을
최고위
수재
발톱
쿠쿠
찾아다니
325
조한
직불
##구려
행한
who
##들아
##던지
지울
유추
서랍
사무직
항아리
거행
라이스
공산품
실권
노년층
성모병원
조두
고스톱
이윽
IPS
합쳐서
Digital
표상
870
246
중론
벤트
태반
낙점
비키
##냉장고
이용해
국밥
중생
##해튼
JV
떠올렸
행시
대학가
드나들
위기관리
원흉
이디야
이윽고
내용물
##하장
오오
세안
집행정지
밥캣
봉건
나프타
가오
둑
부치
레닌
경치
가교
수임
원비
침체기
컬처
4700
몸짓
이카
독립군
승기
스케이트
ᅥ
##iver
239
##텔링
스토리텔링
서스
##이익률
탄수화물
유찰
음식료품
총이익률
285
부스터
이태리
IV
머금
살상
단락
러쉬
따스
林
위급
마크롱
적반
강연회
##ty
##조정
동독
수트
229
오거
퍼진
능선
황후
맨해튼
단수
바꿔라
임실
커피숍
To
이러다
HE
물꼬
출렁
정부군
그려져
쓴다는
예감
왕래
##커피
연마
죄악
마이스터
걸치
김치냉장고
시가지
자라나
##자치단체
혈중
발짝
산동
행각
##지배구조
시중금리
기업지배구조
姜
MHz
솔선수범
##쿼리
보세
잠겨
보증서
1588
266
김근
레즈
성토
승부수
##NT
保
지미
약서
고군분투
피임
윤활유
축내
국민회
##ike
수석대표
##일비
PET
음료수
연재물
자갈
소치
넓이
##대표제
5300
예절
예멘
입항
싸구려
한국전력공사
뒤섞
부조리
내뿜
증류
황토
쫓기
롯데시네마
합체
병무
애교
볼일
##란도
끼얹
개강
종점
마운
전관
친지
카페인
led
레슨
건다
궁궐
발정
장구
참나
통안
젂
##꾸라지
내려다보
직수
망원경
코스콤
Euro
한하
원종
까스
이동하
두목
경계선
벌크선
##eed
선취
잔당
쏘렌토
억류
케네디
8800
바랐
그지없
DMC
사간
249
Bre
Mus
크리스티
권혁
들판
닌자
##셍지수
항셍지수
할로윈
##연료
회유
이회창
수화
낱낱
유이
곁들여
미공개
슈가
ICE
블러
의례
캐스터
우두머리
메이지
극성
분통
진흥회
아수
계십니다
1952
임야
##겠다
루블
##마당
교외
動
카르텔
심보
Value
피칭
창작자
##너무
복싱
무시무시
몰라요
몰살
분경
憲
제청
누스
288
쇼트트랙
옷차림
켓
기프
방전
소나타
천진
##cl
내야
깜빡
시발점
디스카운트
BJ
dr
시모
숱한
254
언뜻
LIN
넘나드
게리
CAC
em
차상
노면
상술
적반하장
큽
영상물
爲
강탈
HI
가늘
사행
두근
무릅
윌슨
사교
아리스
GWh
파국
품평
학교장
개각
추한
서클
핵연료
정명
佛
바친
김덕
주채
무얼
싸늘
부평구
재조사
건재
계실
짜여
##irect
신격호
홍보물
예금자
교통비
공갈
독수리
김학의
리언
진주시
정파
비례대표제
##유리
구약
리바트
받아들인
쉽사리
실탄
##말라
개망
종래
차환
로리
끄덕였
花
단파
##줘야
DO
전임자
바코드
올라선
태권도
유창
낙원
PPI
作
경호원
못한다고
껑충
당명
수산업
OB
접해
인구수
역과
저유
포커
기행
원익
면죄
살인범
현미경
맞춰야
위엄
홋카이도
##일기
문희상
Ge
빠를
ind
5800
##리사
##HA
고뇌
싸워야
Pick
인들
삼화
비켜
조찬
들으면서
##멋대로
장단점
현정
노량진
별반
현시점
창시
뱃속
징글
府
허탈
투병
상소
강박
말끔
셋톱
셋톱박스
겜
##ont
병들
열띤
늘린다
래스
쟁취
피디
Tra
황해
응시자
##은혜
발각
##gan
마요
이지스
초밥
##오른
맥쿼리
##둥성
##러치
타지
권리금
흐려
계엄령
영변
##코프
그리도
장판
한문
세출
김봉
##앤락
락앤락
팔찌
터트리
경험치
RS
터스
인천광역시
##그래
나지
이재민
지프
청동
DAX
페미니스트
원희
출근길
광업
##그림
약혼
띨
多
후미
AFP
행인
면허증
사고력
오존
355
마운트
트러스트
습성
선후배
5400
통곡
후견
피격
늘어남
수양
적국
브뤼셀
서천
일률
신라면
유람선
살펴봤
포구
적층
Open
Met
극좌
졌으나
철면피
묵시
해서라도
Technology
막혔
임계
방정식
정육
화고
라디
여의치
윗선
기출
파나마
톰슨
한의사
스리랑카
벌어들인
LX
출자전환
##기준
890
지닌다
死
족발
나고
미운
안위
디트로
디트로이트
잤
떨쳐
소굴
노보
부산광역시
단번에
온화
운정
pre
242
나팔수
萬
장초
고스트
대꾸
셍
네이비
마가
갈치
알아주
이뤄지기
##유키
끝낼
Sum
##마음
##아산
##피자
남동생
조선호텔
두통
큽니다
주어졌
야경
쓸모없
##폐물
무협
Cons
리트
충칭
##림픽
드러낸다
##레이크
아꼈
서킷
Management
모사
치명타
産
기병
내추
성탄
본색
미츠
멀리서
##주부
파운데
파운데이션
상암
특목
한데요
들려오
프라이드
매화
열도
day
논현동
302
가정폭력
강용석
반부
##하키
여라
유조선
동승
구타
어뢰
강릉시
드릴게요
포메이션
수선
力
뭇
테헤
시무
라이드
Business
못된
피켓
박테리아
알콜
Star
백미
청자
장녀
뛰쳐
잔소리
품귀
별지
##ors
꿈틀
센싱
MI
줄께
##파일
주진
##ᄏᄏᄏ
명작
##버시
도도
급성
윤기
##위원
익혀
회비
밀려났
##연시
뚫린
홍위병
바겐
使
단비
따질
DF
안성맞춤
##ouse
5700
만든다고
뒤편
##now
뒤쳐
연말연시
너비
비화
슬립
카다
북대
위자료
속셈
kW
피처
불이행
##배추
조주
왔다
테헤란
자본재
느긋
수도원
둠
조급
합심
KD
항공모
사무처
고농
음색
순환도로
순탄
눌렀
최동
감독관
기발
TIG
졸음
켜졌
Win
통할
기득권
타마
자족
Sw
섬나라
247
Research
로션
저항선
출연금
신예
프라이버시
커넥터
Free
핥
도요
##orn
##각시
자회
##fa
빈자리
챔버
유니버설
기축
체이스
중거리
##레트
석고
두르
승장
어류
내추럴
248
하태경
온의
효도
뜬금없이
기사문
수류
폐허
지급액
우르
키워야
인민재판
전해질
##경영자
##링턴
개항
저물
이라든가
황폐
휴양림
최고경영자
申
성씨
스택
쪽지
예고편
구급차
조망권
기장군
빠져들
내려다
밀려나
##럭스
화공
##회전
필승
롯데칠성음료
##조림
육신
포고
아작
CIA
매겨
오락가락
Trading
스로
RMB
이홍
판별
본격화
초년생
고어
노렸
방범
안토니
대마도
뗄
버젓이
HR
지멘스
htt
오퍼
은행업
낙엽
일면
##ews
남동구
장정
살아날
전도사
캔버스
잉여금
트래블
드셨
농림부
패킷
영국인
STA
쓸데없이
제수
##자원부
매료
순응
선위
산업자원부
치러야
##께끼
수수께끼
##저나
독서실
gl
790
김현수
305
아웅
악어
251
판치
드려야
##read
그란
쐐기
너무너무
어조
누른
SMS
김양
다가서
6400
약보합세
빈곤층
##회관
선거전
##나리
연회비
나위
국립대
움켜
더한다
난다는
남로
리소스
통화량
젯
Rob
뒤돌
분란
편광
얼핏
오랑
스니커즈
영아
동족
Overweight
서독
##원수
501
대양
안장
매장량
투기지역
우미
CMO
토렌트
어울린다
선거인단
싸지르
써니
001
##변속기
바닐라
감춰
송수
나올지
##ety
시금
Black
험한
그나저나
성문
부추겼
##EE
쟁의
콘스탄
샤인
허덕이
합의서
몰라라
플래티
배역
속삭
단시간
빼돌린
테러리스트
플래티넘
GPU
##무새
덕목
마야
벵
계장
어우러지
초원
환입
태클
##문서
##해하
가까웠
질까
##래드
알렉산드
콩고
앞세우
안감
거니와
榮
##맨드
코아
한대
변한다
학벌
IDC
속마음
수갑
생동감
5900
시몬스
떨치
시달렸
불러오
고분자
##무치
이찬
아플
수로
쵸
부풀려
물놀이
편집자
雲
아찔
편취
방언
갈기
조우
헤드라인
피보험
케리
깨졌
염수
첨가물
그래서인지
월북
병장
IRS
스타워즈
여주인공
가와
탁자
점유율
구심
들이받
맞음
586
최현
박선
공덕
윤성
기무사
도가
착용감
##가내
##아르
울렸
급매물
777
기웃
포브스
겨운
카메
MIT
러셀
루즈
온다는
HOLD
##eek
서스펜
싸이월드
세그
발전사
비평가
행정명령
악행
Analyst
쥬얼
게릴라
공산화
노멀
껴안
자중
예정지
패럴림픽
맴돌
문란
##즈음
하비
과수
인데다
##itch
탁상
사교육비
1951
똥물
진두지휘
##티어
아이스하키
토하
논설
7200
가자
선대위
혼재
연제
개폐
클러치
달째
토요
백조
##ule
살인죄
렉스턴
킴벌리
리전
2027
아무개
龍
클락
기치
##앙스
원당
투영
마티
요격
얻어맞
빠진다
아우성
조두순
청호
##ugh
알로
볼까요
아이슬
富
Ste
msi
끼쳐
잊어버리
서지
코스타
295
묘역
릉
관저
이대호
이만큼
식재
미제
사병
감정가
그레이트
##그마
경계심
이정표
##푸르
다신
아베노
고성군
WP
세그먼트
War
물류비
에디터
김시
리타
폐사
봉준호
##단다
RT
말문
종용
Invest
지열
##oud
거트
suv
아즈
##중국해
해리스
술부
다윗
틀림없이
아이즈
페스
하물
보톡스
부러워
틱톡
호치민
발하
기초자산
어수선
##보리
시에
팔라
글고
스며들
아트홀
간사인
##PN
##진다면
다임러
둘러싸여
아이슬란드
釜
고척
놓칠
##hone
웨일
SRT
URL
바티
NPC
역차별
테크닉
##치산
Project
칠곡
앙상블
되돌아보
Hot
스트레칭
프레이
닥친
375
펴낸
못합니다
910
비지니스
들끓
시약
손오
바야
off
##사르
돈독
서대
미추
세원
음모론
出
풍수
##창호
대칭
수액
함박
초인
찌꺼
변비
프롤
line
역습
튀어나오
트랜드
패자
항공모함
제리
##ube
나날이
TIGER
##ush
데코
자서전
한남동
##미사
##EST
뉘앙스
##나스
금과
테레
군산시
꼬투리
모아야
적나라
안랩
미워
따돌리
한빛
다가갈
였으면
Unit
자자
우려먹
콜린
겸하
랑께
이분법
고삐
호시
NHK
##수아비
쓱
통통
놀러
일문
국빈
슈퍼맨
서바이벌
기약
발단
들려왔
프랭
납기
실린더
허수아비
노련
에이지
스포츠카
상판
토모
빈약
통진
##초리
257
구상권
인기몰이
##ye
기물
누진제
명쾌
311
정병
달서구
서희
로이드
모차
미관
##osit
뒤흔들
안부
마닐라
권위주의
피라미드
서상
272
기내식
경증
피서
성욕
아아
min
기네스
간곡
런닝
왠만
소나기
아폴
어두워
##드기
엑스트라
주체사상
급제
배반
cs
서동
무학
안진
트롤
쓰러졌
찌꺼기
에픽
##위생
신저
030
스코리아
겸허
되살리
꼭두각시
삼키
전언
날치기
##코웨이
웅진코웨이
##위대
##플레
윈터
fa
시기상조
되새기
판매처
떠서
큰소리
BD
원양
흔들릴
강보합세
##국제
소충
함락
다이소
둥글
로망
맞춰져
법조인
이정현
정례회
만류
##꺼풀
여직
양주시
정해졌
궁지
노약
포탄
태운
편협
바라본
빼앗긴
운사
JYP
부엉이
도맡
매실
외무부
손오공
최상급
모가지
풀렸
끌어올린
비고
저당
파운드화
어울릴
프로덕션
없앨
성수동
근사
가식
정희
##콥터
씌워
작금
퀀트
던데요
농락
##문화회관
움츠
격돌
도료
물티
일과
험난
메리어
허세
구질
소매점
용시
박은
유례없
흥덕
날카롭
거시기
풀어내
세종문화회관
쎈
##캉스
전시실
눈먼
277
바캉스
구도심
cnn
선제골
UF
이머
선구자
외교통상부
##트니
기린
jebo
데시
동강
포도주
포유
##수도
우먼
소용돌이
솥
비상식
교직
수프
팍스
달아났
들어라
뉴트
아파서
##UT
김의
중용
재조명
최병
야망
의석수
가가
필요시
모여들
帝
기권
끓이
선처
카오스
민자당
愛
생산직
장갑차
262
그리워
정우성
중랑구
자상
스텔라
인심
##마루
NB
천도
함영
역주
##김치
갈까
키프
부딪치
인버스
군비
스탁
261
니콜라
는지라
전단지
모서리
##국방
##연수원
다이슨
City
국책은행
외양
##카메라
발전량
Gb
273
차명진
##여서
보유국
##자루
하물며
피셔
인화
닥쳐
느라고
물티슈
이륜
태자
정치학
한라산
##팽이
미니스
cd
송중기
객석
이준석
3040
셀렉
넘겨진
광주광역시
였음을
나랏돈
상속인
##세라
엑셀
##나갈
NDF
경쟁심
사법연수원
##apan
직방
끄집
전생
412
툰
Love
챈
##보호
258
徐
다이어리
산국
셸
밤중
무릅쓰
그름
##미리
운세
탑승자
토미
##징마켓
이머징마켓
hd
스완
이승엽
복당
주간지
NASA
아몬드
Vo
한일
펑크
##교동
후행
여서는
cg
덮개
심천
금천
민요
공부방
##불위
시백
##oph
체장
곳간
무법
허다
도드
의왕시
졋
뭘로
반반
It
##워야
안병
##ific
News
툭하면
기입
윽
굴곡
급선
만년
웃긴다
HTS
CIS
의뢰인
키오스
부릴
가인
에탄올
싱싱
요식
조끼
##아슬
통칭
축전
아슬아슬
##cr
토핑
夫
분뇨
한다거나
가속도
##질서
Vol
영양제
떠오른다
상체
내려지
나래
지노
들어간다고
星
가왕
대리운전
신기록
1944
안드레
비젼
여고생
라구요
치졸
근교
헬리콥터
나을
책임져
최민
321
죽인다
삼립
지바
거침없이
특목고
뽑아
기관차
전체주의
##의회
엑시
전학
면죄부
##메드
고주
아유
村
못사
263
법치주의
십상
교착
##wd
빡빡
피닉스
수문
비씨카드
받아들여야
##정동
역력
도이체
사회봉사
태양력
쳐들어
##벼락
어가
홍영표
가벼워
근황
치였
페놀
홀리데이
심의위
쿨타임
Home
멱
##WA
274
노망
난장
역경
물씬
##노버
빛깔
피츠버그
##eep
위트
파전
콩나물
공성
오보
쫓아내
박탈감
대리석
하모니
##임수
YO
한국자산
FP
시녀
동사무소
뭡
과업
타치
1937
송유
아자
근저
숭실
예술단
설상
##ana
312
양키스
등용
다섯째
##ons
성범죄자
심부름
命
깜깜
전병
6600
피리
시오
티타
프라이스
부침
268
HMM
개회식
원외
정취
산자부
284
이용한
##ional
리얼리티
##제르
발가락
행정력
##evelop
기념비
구설
변덕
성행
성관
데카
후일
흡연자
쩐
고은
라트
나일
동갑
은신
고환
발렌타인
겠다는
수류탄
이뤄낸
##공간
##텍처
##행정
아키텍처
모성
정일
첫발
정박
오감
주량
밝혀져
무형문화재
짜장
노후화
프로그래머
Is
女
이뤄냈
다이노스
돌아와서
이래저래
산학연
갈매
구찌
자부담
수군
해충
MAX
왕족
킹크
몸싸움
고원
넘어오
뎀
옐로
##다발
해프
고용주
276
리사
ARS
김부겸
성심
UX
절호
대행업
FF
쌍욕
탄광
기공식
III
가지가지
전북은행
희한
양천
전조
숲길
##que
형강
느니라
면하
할께
스포일러
구축함
한중일
한테서
명세서
##way
국자
울부
포니
남이
MWC
가의
우시
했을까
te
콤팩트
셀카
카미
빙하
평지
한스
최하위
선입견
코나
들여오
알람
애틋
308
7800
303
숄
스타일리시
유승준
후덥
269
시킨다고
얍
공전
광선
##학생회
911
뒷돈
리워드
스탬프
진가
두드러진다
고시원
교육대
부총장
총학생회
장가
Network
상록
부풀리
살펴봐야
##ress
##이스트
思
피어
##분자
지참
집안일
##주곡
생육
킹덤
6700
박찬호
Bas
팬클럽
워라
덕수
빵집
스텐
크리티
267
저널리즘
손대
연령층
자주국방
##ocial
따라다니
##PO
##퉁이
UCC
토픽스
식도
분업
##바라기
man
##GR
문과
범퍼
순정
Long
가면라이더
뗐
해프닝
iPhone
자평
명암
배선
Fund
傳
##제한
일파
해운대구
직인
##스토리
걸쳐서
1939
등본
IRP
넘겨졌
345
엎드려
문화부
6300
협상력
##str
골반
투과
선결
하찮
CSR
쌀값
뭡니까
좌초
유종
정윤
데이콤
오아시스
박철
레이터
306
출토
총대
역사관
우왕
찐따
유사시
레볼루션
에스프레소
김순
피팅
이익모
##나니
휘하
동그
제롬
情
숙박업
슬로바키아
깃털
순경
핵폭탄
셰일가스
##탄불
가부장
孫
한섬
CTO
중질
자만
동절기
폭격기
비운
비스트
중등
허구헌
전용기
반고
안민석
스퍼
싸이클
이니스
이스탄불
잠입
1941
참모총장
민들레
안전교육
ADA
돌려보내
가다듬
버크셔
##분해
대군
따온
우진
##스크린
은커녕
즉흥
국민대
##에다
생업
석가
초간
담아낸
뀌
모어
##게티
빙상
##쓴이
섭섭
유턴
샴페인
임차료
글쓴이
##램프
가비
혜성
##앤비
시럽
바클
별칭
봄날
루카
1938
형수
특산품
심할
건보
##less
커밍
ag
연타
작성자
##부대
연석회의
불응
여친
나니
##rop
##지물
촬영장
들키
##큐어
주창
의외로
난징
비르
정호
어긴
초코파이
순전
승합
참수
블루베리
총통
##이야
엘라
적응증
##fin
북돋
작위
##메르
분분
VIX
NLL
임업
부름
믿기
브론
##킨슨
배율
봉제
里
##cal
독해
속했
연필
에러
명령어
액티
교향곡
do
곤혹
현대사
자멸
바스켓
뒷걸음
이덕
Non
TM
##ms
최단
모라
역관
가압류
붙일
BH
일지라도
점막
##ection
메밀
모함
북상
북항
##약청
IFA
식약청
共
명곡
취임사
의중
라이즈
로사
해협
고용량
억제제
쥐새끼
자임
헌장
반역자
역전승
##메리카
사별
방파
모로코
관동
블루스
##송이
마중물
복고
티볼
하다
자판기
FBI
近
값진
연꽃
##질렀
##린다고
펭귄
임정
그러게
생각난다
6200
마그네슘
이청
利
까라
지롤
바구니
학기제
견줘
등대
딸년
용암
할땐
쩍
욕조
쾌감
피시
진통제
Park
딧
노려보
잡것
百
라틴어
바이오산업
ps
베라
로크
감미
눈가
##데르
상암동
火
##깅스
##영수
8900
얼만
개고생
신호등
방청
형편없
뒤졌
키리
레깅스
가둬
구려
마십시오
걸프
산호
빌붙
토털
살롱
수작업
유압
검은색
259
Fi
끼니
부딪혀
중처
흐뭇
준원
생색내
덤핑
이방인
순직
툴리
##스턴트
동양인
버려서
시초가
탕감
MK
찬다
동시대
##좌석
빅딜
반세기
동천
##inal
청과
##가르드
베란다
##td
회신
들썩이
후베이
실례
1050
##FE
김수현
省
신청인
##일관
헤리티
##에른
굴비
외대
콘도
John
part
##레탄
##팔트
보호막
오갔
노을
공공요금
트랙터
띵
야단
조병
골짜기
어떤가
로브
##춧가루
##볼라
##심장
프런트
인스턴트
발원
286
묶인
가재
헤리티지
아스팔트
퍼블릭
##actor
난립
줄리
言
고칠
견인차
務
원목
동체
오롯
여대생
DT
바깥쪽
에디슨
연약
갖춰진
전기금
이주민
DD
캡쳐
이스코
으이
모차르트
매제
고등교육
주담
찰리
컨티넨탈
가람
생후
그럭
미온
스텔스
토머스
전통주
##네이터
동호인
인사이드
델리
읶
##LP
999
수모
영업소
꽈
##very
##불이행
##원가
가한
도지
##보유
##교차
부조
우편물
코코넛
해바라기
혈전
기획부
영유권
묶음
##네이
한적
결정짓
방망이
광안
모레
앵글
바꾼다
산발
271
노동법
펼쳐져
잠복기
편집장
##소문
랬
맥아
op
한해서
bhc
마케팅비
그러고
스칼
러블리
로페이
공손
소풍
커리지
김여정
또렷
##소타
몬테
기술보증기금
비욘
속인
눈덩이
돌려보
통기
任
노릴
불합
허접
물놀
종량
뺑소니
##스케
서현
재보
조희
불가리아
임창
체격
꿋
판상
강호동
clear
부령
비앤비
왕창
낱낱이
뒷좌석
로저스
TI
방송법
가속기
아보
근현
일색
전기동
타이탄
요즈음
내부자
시름
401
벳
설쳐
얘긴
캐롤
##올리
노가다
##타나
번번이
접착제
SSM
얌전
이제서야
직업훈련
대장정
##룩스
살살
일석
MRI
##보유고
터닝
훈풍
과학고
프레스티지
원희룡
1936
안기
090
피부염
afp
##sj
개화
비오
닉네임
찔리
퇴계
##eoul
##결합증권
중외
황색
파생결합증권
독일군
프렌치
배너
요코하마
##저럭
비이
고음
유골
乙
##겨울
성조기
산골
개종
서늘
경시
울부짖
기통
발바닥
아카이
거쳐서
댕기
보라색
앞장섰
##플로
kd
col
뗀
Ma
도비
임성
JC
올가
전분
##바스
空
OC
7600
순국
돌고래
박한
점자
Sal
비행장
스캐너
꽝
까마귀
미네소타
미덕
玉
MBK
일인
비스타
죄지
좋아했
플래너
후안무치
저분
장기채
불러일으켰
박삼
잿
점치
겸용
붙여서
채무불이행
받치
남친
源
애칭
광진
중후
외환보유고
현지인
##태현
저작권
##ecd
싸잡
로스트
표창원
nbs
도안
윤지
온건
GK
노폐물
미꾸라지
남다르
고지서
뻑
더러워
##마침
##aut
물기
判
내로
##드립니다
섣부
종주
밥솥
舊
제프리
판매업
갔었
관현
##블랜드
졸개
클리블랜드
##능력
1942
일족
상온
7900
도로는
컨버터
페라리
것다
때마침
지방산
황소
평평
방공
Design
균주
##컨드
놔라
홍진
뱀파이어
매끄럽
面
처넣
##com
판매가
지산
mult
진원지
Stud
스즈키
민박
사이코패스
##sk
변함없이
##투사
디디
펠리
廣
벌벌
똥줄
앰프
태산
레인보
피보험자
##보스
영미
사회악
bn
카인
선거철
322
##혜선
오스만
관광업
심재철
##포로
빼돌리
들릴
몽고
다단
##랑스
상추
유권
추도
핸디
7700
몰아치
작국
머뭇
##CK
말없이
SV
권태
약초
282
요충
옐로우
어항
드러낼
무의미
빠뜨리
car
달려드
에볼라
일안
징병
인적분할
협소
난간
리모컨
불기소
둘러싸인
AFC
기억나
갑작스러운
335
賢
덫
직진
다가와
존립
자나
KGC
헤드폰
야크
이제껏
채무조정
향해서
참된
##sp
all
우의
긴박
돌봐
##비티
피코
내쫓
흐를
낙지
부티
창건
달성군
이뤄지도록
물러가
宮
문대
광택
졸속
카타
악세
북서쪽
니지
빨랐
작별
Award
찾아간
페퍼
트레일
보로
끈끈
교부금
뒤질
원액
##테르담
걸작
##덩어리
##마차
에스원
고이
스러우
할게요
##BO
최종구
실에
금물
세컨드
cp
블러드
중임
설거지
답안
bmw
파이브
녹취
미간
##래스카
##사기
욕해
양육비
mod
광양시
권세
동부건설
흡혈
Product
슬래
松
터득
소령
##천하
##은희
음질
4100
막무
바이에른
보드게임
조승
녹조
통념
막무가내
알아들
한단다
주술
땄
니나
불면
종묘
보험계약
디비
##특구
여적
080
깁
중문
위로금
다쳐
그럭저럭
열등감
중간재
미룰
삼송
##ams
심의회
중장비
박대
##타이드
상납
재작
상영관
도표
거제시
글래스
모교
황우
부사관
구수
국방비
꼭지
박광
커스텀
동장
비데
노즐
Reg
밝혀질
외로운
매트릭스
앵무새
유민
oled
날아오
챙겨야
접속자
立
남침
총서
부화
##언정
셔요
시구
파수
유다
생방송
3774
##검사
친서
책장
발레단
겨자
신반
##주니어
다이내믹
부전
##로로
하만
아낌없이
와해
선수촌
##ba
##칼리
성시
누워서
쓸어버
선데이
짜르
307
안내서
##보라
그제야
JR
보네
장현
과오
셔틀버스
야합
소방본부
제스처
##TL
이간
##ari
치뤄
字
공신력
광산업
選
일격
지간
HTML
프로젝터
이비
281
영업망
Sl
트리거
영생
그런다고
416
분향소
칸막이
FDI
초이스
興
최지
밀레니엄
당헌
바이트
흔들렸
콩밥
Real
##못해
로제
범람
회분
##한국
도교
끊겼
총계
초동
라비
목줄
작인
에도
手
원정대
씰
根
키가
##린트
보위
우릴
을걸
##맹이
면면
닳
국가원수
425
감형
##ied
GR
주휴
무소불위
des
학습지
어원
스티어링
석회
QM
맞아
주세
장마철
##방망이
귀순
노약자
갈대
새싹
PCR
신사동
도르
we
##임새
유미
저우
샌더스
결격
목조
재상
위스
주물
어학원
##뱅이
수탈
정청
오브제
걷어
부렸
캐쉬
가온
문무
민회
받아들인다
##진진
시켰으며
롤링
미상
사돈
맘껏
웹젠
##민주당
나자
놀음
고밀
CAPEX
주영
래요
Cre
서밋
평민
븐
난입
무턱
초입
페트로
익산시
인트
CAPA
5100
중개업자
반향
삼각형
컨셉트
꽃잎
망막
한가위
291
NPL
능력자
현주소
활기찬
鎭
1929
영업부
영동고속도로
고승
정주영
##orth
흑색
살려야
MR
##사무소
임대업
뚱뚱
보타
돌이킬
278
간파
독제
정상인
지도층
##코르
화전
잽
홀더
Lab
청취자
쥐어
라돈
지퍼
모면
프루
에이블
대어
셔터
최윤
렷
도의
찰나
행량
서치
비상시
등심
뼈대
작황
279
무허가
배워서
연유
추워
머그
유임
권한다
헤알
부칸
려는데
반말
템포
##스트림
새겨져
수치심
宋
대생
고혈압
오수
오스틴
조림
313
엠블
패기
찜질
참혹
Asia
기다린다
채도
lte
부도덕
무궁무진
8700
럭스
소이
이씨
최원
##보잡
Sur
화내
덤벼
다락
신학기
낙농
게을리
깔린
래도
뭉친
경멸
일깨워
건방
난국
소방차
뭉개
알찬
매끈
土
병영
6900
고증
오물
재추
타드
생년
에브리
LME
일으킨다
Fe
##ffect
들렀
블라우스
##플라이
국수호
슈퍼주니어
정수장
한바탕
세정제
모진
간극
교습
흥미진진
룩셈
하수도
뢰
노아
룩셈부르크
양수산
백일
##atio
팸
열병
황정
##수무
꼴리
반독
평화상
체로
oecd
양식장
티타늄
석화
UAM
고상
뒷모습
반대파
단통
세이버
고기능
뮤지엄
진드기
벌떡
289
전면전
달구
감익
바트
來
불명예
眞
완연
괴수
298
단도
성의
부역자
287
스튜어드
춘향
최수
농축산물
레인보우
듣보잡
그래핀
양배추
후덥지근
제단
훙
미움
엊
316
세계사
Cal
입법부
Work
슬러
##스코트
그린다
칭다오
대모
회고록
293
BLU
여보
신창
무인기
보우
Inn
길가
##ural
카누
단죄
堂
보냅니다
미동
Fn
삿포로
Time
National
네모
교환기
Mbps
매드
약학
고물가
고소장
메탄
##esh
CME
보은
드신
쏠쏠
분당선
골문
반포동
미납
##erson
전해져
퍼니
##그머니
나올까
채산성
로엔
파노
풍습
최창
Adv
전인대
결전
##맥주
볼링
배워라
공분
터리
페북
든데
##inc
반송
신동주
수술비
모디
퇴색
정신력
GI
영정
핍박
리커
수세
가발
본당
신가
교향악단
아라비아
현진
오케이
앳
숙종
섬진
##enn
0053
忠
어종
스치
Har
어딘지
292
남유럽
##관리공사
다라
해했
결제금
설악산
교화
이프
할라
영업장
베가
등록세
路
장보기
외노
##ature
버킷
산신
유식
도립
한국자산관리공사
막중
##복지
유토
라던데
행정학
##RNA
sl
임재
##남동
전집
##사업본부
떤
민수
신통
##구이
어설픈
우표
굽신
플라톤
우정사업본부
고하
빚내
완승
317
한동
비염
홈즈
떡검
스콜
케이드
##AAD
각막
암묵
가소
느닷
탄식
洞
##ize
리원
높인다는
저버리
뒤엎
THAAD
페르난
직감
gb
유언비어
명기
을래
한국군
축구단
자폐
배아
퍼플
위험관리
안젤
기하학
마흔
##척기
사인회
위아래
동양그룹
##사체
곡식
단초
불금
피폭
하체
고속철도
완비
까이
싸인
을려
임종룡
##제한구역
강추
개발제한구역
예치금
Gold
풍광
314
323
##스피
Su
##더링
블레
297
박보
타케
##press
泳
헤드셋
吳
해물
##교회
거릴
횃
그르
어드밴
찍혀
총질
궐련
모르쇠
탬
다녀야
알프스
겁먹
반주
범어
군자
안간
철도망
터치스크린
Super
cr
세대주
AE
환한
흔치
중독자
나눈다
나아졌
옷장
귄
마의
캅
참견
페로
만루
코마
용선료
돼온
데스크톱
309
폐점
허가제
생김새
내세울
매출원가
낯짝
개회사
경영계
현업
랫
間
참작
필수품
한국식
9600
애라
유연탄
浦
nbsp
원통형
떠밀
블루칩
천일
이러면
八
哲
바비큐
장려상
전위
중견수
찾아냈
동일시
김건모
인력난
천혜
##세척기
소개팅
택스
식기세척기
yg
system
학파
쿨링
김태우
떠도
체납액
모란
ED
ec
Mer
느냐며
##아보
283
맞춤법
인천공항공사
노이
8400
배꼽
찾아올
서연
페니
정미
휩싸인
다인
이석기
##redit
WO
이봉
##득점
잔해
寶
흑석
KCGI
더비
넥서스
유병언
외세
완주군
발해
이트
프란치
Company
함축
Bro
##전쟁
재닛
둬라
1001
EQ
직렬
관비
손아
자양
도다
권영진
1250
진안
##투수
요동치
됐으니
##날리
피에르
예방법
수하물
##길동
나온다면
특장
짤라
꺽
배재
라자
장막
##VI
낱말
##ival
##UN
294
##정리
굴절
군위
과표
기왕
밥맛
밑그림
1943
경의선
투하
뮤즈
무임
동진
1933
가운
이안
배석
찬바람
교안
잇따랐
흡착
비비고
자본가
1932
외연
튀기
##ino
화원
296
시리얼
박주영
살림살이
시온
유치원생
약효
질식
남인
합성수지
감청
동적
시프트
개인택시
발원지
##버둥
여장
톈진
호적
배출권
부단
브리티
동떨어진
##태영
입담
대조표
듀레이션
단행본
혼신
##타자
##ents
격투기
청색
호찌
전열
##실록
저년
##yp
선불카드
##ling
벌어져
명태
홍역
336
바이두
8600
명료
잠재우
디어
족보
페라
설레발
##네시
통감
RFID
쫓겨나
빙자
##버전
촉새
카터
할랄
개의
종착
##나도
SBI
역효과
하오
아그라
419
오스카
옮겨졌
매운맛
qu
천마
비굴
항모
수용성
에스에프
결식
안대
전해진
발버둥
틀어막
돌변
최인
사파
생가
아브라
플렉서블
rp
유념
피워
다이나믹
##축구연맹
난색
빼빼
선발투수
구획
묘하
숨긴
헷갈리
배리
할망
관측소
드로잉
김종민
크리스토퍼
수아
CRS
##현정
총판
##복음
유지비
노린다
빠져나간
동동
Key
Line
은유
신용거래
채움
쿠르드
앤지
불어났
324
ICBM
방미
불시
큰손
##효진
활개
묵살
문진
추돌
조던
##aaS
부르주
##ipt
조미료
갉
품사
급박
크론
##립시다
오산시
수강료
熙
부주
폭발물
##카페
신드
검수
방광
넛
입혔
발렌시아
중급
손실액
##ayer
가슴살
##투아
##mium
대소
비밀리
校
져도
좌익수
보합권
XL
층수
지나갈
수학여행
인천국제
벨리
제노
##ction
덮어
아인슈타인
議
당해도
횡성
EUV
타우
나약
##천사
060
산입
어장
GMP
기록부
찢어지
티볼리
역사학
020
오지랖
가로지르
澤
##조류
궤적
곤두박질
랜섬
빗발
아실
잡초
##ony
땜시
역류
꾸러미
무기명
꿋꿋
앞길
##추세
본고
부린
고열
##월일
논점
Bi
이서
인칭
쿠로
뜻한다
일군
취사
개헌안
청렴도
比
326
str
Econom
일문일
나주시
로테이션
데이비스
일문일답
##예프
패한
##ift
나빠졌
살라
마감재
천차
터무니없
語
갈라지
지켜봐
해병
clearing
소추
정민
Gener
부탄
챙피
꺼낸
if
부쳐
자숙
한태
크리티컬
고든
결부
루크
정몽준
구룡
쏟아부
trans
쪄
서포트
Port
용의
팀워크
지역주의
교부세
깽판
자아낸다
프리즘
포문
조원진
은성
자보
미뤘
파헤쳐
##콰도르
GX
거려
담아냈
미혼모
에콰도르
할거
##시효
총국
무자비
사이먼
온상
피오
미수금
옆구리
##화가
빌릴
난도
하스
개망신
Ret
에스테
제방
직주
##바나
##ara
데로
하산
몰랐다
차려야
초계
측은
헤엄
Equ
냉난방
스크롤
##its
##경제부
황실
크러
특정인
##관절
오즈
비관론
익스포
부기
재정경제부
한답시고
註
##열차
IG
이과
기부자
리크
어긋난
NK
저그
해야함
표제
올려라
교만
Mag
##어야
발진
컨버전
우익수
##아들이
액셀러
액셀러레이터
스판
숙였
이을
end
오락실
합의금
유원지
이와
유목
총력전
딜리버리
과당
발란
문제삼
이원화
##po
郡
고춧가루
중합
조그마
본상
수호자
Tw
BEP
과도기
comm
습니
##운하
스플
##ular
참기름
뇨
도선
옥죄
##ames
University
난폭
분만
카시트
내보냈
횃불
관서
카를로스
속편
한승
##베르트
구속력
통근
축출
심성
쫓아가
훈련장
괴로
달라서
휘말리
##디드
낭패
다비
중심축
수탁자
파시즘
봣
##세프
리마
불쑥
관세율
외지인
##la
래리
직사
대관령
서빙
마코
다년
상병
썪
끄덕이
옹진
오월
렁
pol
이구
마쳐
##ody
질리
태양열
DLF
컬럼비아
시호
강단
ᄁ들
금발
마커
##넥스
러너
그친다
Table
##조각
환승역
득세
미로
바램
저울질
배짱
처자
냔
결탁
큐어
사생
한국통신
7400
밥통
너거들
##종합
AN
박유
옥스퍼드
조져
흔쾌
오동
줄다리
apos
조목
도농
##코더
루미
대로변
강석
CAGR
사회당
산양
한통
찮
낸다고
임원진
결점
植
호에
매해
팝콘
신재민
바빴
##떨어지
농경지
##펠러
선재
대적
숙취
전권
##네트
절규
호러
무리수
갠
윤희
진부
405
할라고
關
인도주의
벗기
떠오를
불합격
표하
##rist
##불이
익일
오명
318
SQ
555
리노
맞불
멀티플
인천국제공항공사
의료법
일변
한다던
조현아
타이베이
口
##ican
보증료
제이슨
케익
다이얼
까르
명예퇴직
고형
실추
주니
스카프
내민
체외
샘물
이겨낼
##노선
줄다리기
늦출
앞면
그로스
도포
진과
8200
커맨드
타가
샅
##EAN
NX
화단
etf
갱년기
사로잡혀
빙판
살폈
서스펜션
자유자재
향연
##비통
쳐야
7300
VL
##OM
소리치
착시
빼어난
아수라
##리케
##코지
재미없
강경화
일병
정치국
Indust
골다
로웠
FPC
한보
##글리
저학
##다녔
거침없
산성
까치
문호
카마
처할
트릴
##회계사
외야수
군기
공인회계사
부담없이
북스
음성군
##추세츠
매사추세츠
청아
사선
감사관
여성복
칼리지
##여름
출연료
328
dj
오클랜드
해양경찰
기폭
말단
유타
아웃렛
딴소리
기혼
장문
후세인
鮮
364
臺
마키
예천
수증
##회계기준
너리
키코
Bloom
대패
호봉
중질유
레퍼런스
돗
##체류
국제회계기준
원판
##ware
다른데
압둘
붙여진
도자
조정안
##레라
올인원
특별상
산문
스테디
비닐하우스
경부선
아워홈
##바오
내비치
따낸
031
불법체류
아늑
매개체
갈림
여길
낙찰자
RV
비들
##급수
성종
이범
사기업
자일
어그
노모
페더
##ij
시킵니다
접했
탄원서
개최지
소호
외전
ppm
목전
솟아
##아졌
동당
키프로스
찰떡
프로야구
##문제
피노
함유량
수난
지켜라
##세웠
독신
오로라
우림
법제처
원초
주정차
리피
백배
왕궁
퓨리
蘇
##재산
브런치
매연
역활
부정행위
圖
피델
학관
##우회
시댁
용두
Blue
작업실
맞닥
자동변속기
행군
뉴욕주
##pga
생각없이
상류층
디시
진구
##ader
##CEI
카사
무용지물
소심
##ta
##곡리
루이비통
교육학
주안점
세여
김옥
병무청
문주
##에이고
캥
##인드
각색
미우
##물질
1924
샌디에이고
千
꾸짖
영공
상동
9200
엘레
##건건
삼천리
IAEA
조직력
##에너지
Cloud
불감
마운틴
세워졌
머문
사사건건
설계도
박삼구
웨이트
덧붙이
휴사
강경파
교과목
트리트
썸머
개수작
캡스
747
양준
헤어진
원광
예비비
폴크스
당주
사골
Web
가창력
야산
##plication
1905
##EM
폐교
저속
연출가
1150
ASF
커넥트
혓
1914
가네
스테디셀러
##be
##MCA
줏
투심
인텔리
시운전
남서쪽
옹기
선거일
1928
공과금
007
뛰어올랐
선하
학연
미당
쇼룸
혹평
이롭
##벨로
族
##에트
점도
에리
지배자
HSCEI
시보
밤하늘
후원회
포워드
살펴본다
##ke
신간
##가격
##파티
강림
기본기
본보
쐈
외할
교보문고
##플랜
쌍방향
身
바둑이
앞장선
요충지
수니
중서
특조
상승도
중형주
슬그머니
##마드
기선
꺾였
##이야기
sup
두말
케이트
요거
##라드
이채
경작지
어획량
통했
love
잠든
찹쌀
우르르
문수
남중국해
신수
비석
생화학
벌어진다
##공증
합천
골다공증
##스펀
구녕
당무
물방울
##ely
헐리
나뭇가지
영란
##상가
직항
##ering
로키
본교
중재자
dm
잡종
센타
070
조폐
우치
##아내리
공민
팟캐스트
꼬이
냉소
보온성
귀향
청룡
내리막길
돌려서
따라갈
縣
빗대
대제
라그
337
총회장
그따위
정광
사려
경착륙
서기관
대한제국
파묻
로저
휘두
테크놀러지
志
MTS
나고야
나와라
걸스
쉬쉬
드로버
목구멍
度
집들이
금태섭
나뭇잎
뜯어먹
선순위
대연
포집
師
수려
504
재료비
KLPGA
분간
마스터플랜
체벌
NEW
글구
연민
대타협
오브젝
BDI
##자니아
시종일관
프로필렌
백과
KOR
무기력
지지력
쥴
##돌프
나나
레슬링
수납공간
##평동
로젠
정론
체어
감칠
신데렐라
바를
은상
사가
레인저
사무장
포섭
연변
##블린
##ason
오거돈
굴지
빵빵
걸어야
왕십리
順
승산
실지
규준
성공회
##가기
ᅦ
거느
딴지
##ook
만취
양가
뒤따르
드러운
불태우
조흥
보호관
끌어내렸
##나기
대방
틔
331
전서
설상가상
뼛
윤창
활자
井
석부
왼발
행자부
술잔
##오버
DIY
표고
이병철
도운
대전환
전유물
죗
ev
Health
##반구
지른
적격성
격하
조원태
라온
핌
논할
니체
직선제
場
물거품
현산
단열재
조석
러버
문창
스쿠
ARM
들여서
입가
회당
고쳐야
클론
끌어들여
비하인드
통치자
보듬
팔릴
서산시
벙어리
ᅧ
낮춰야
소각장
펜실
##베이니아
펜실베이니아
쏠려
은사
즐거워
##기념물
죽전
##징글
불변
ls
소득세법
감전
hp
넘어간다
쌉
너도
앤더슨
한수
DPS
##일체
계보
위문
친형
선서
합숙
키는
라오
명물
예언자
가트
##맥상
ᄊᄅ
열화
티나
LGU
살펴야
눈여겨볼
명언
385
알차
우째
베르디
카더라
볼턴
멍멍이
홈피
##저축은행
建
서태지
inter
##코딩
틈타
댜
731
쓰다듬
뛰어드
터진다
욜
##파스
노역
뚫리
특별회계
##고시
운송업
옅
##틈이
##겨서
놓아
하이패스
자태
틈틈이
##물살
현대아산
어려운데
스파이더맨
씨부
급물살
노동청
분당구
재추진
내디
연두
키를
방불
판가름
1935
##트럭
문다
母
##aint
꽃다발
소멸시효
반중
인덕
그린스펀
숨길
외측
샤프트
최면
##포동
##쿠니
모인다
상장주
찿
과민
第
##kim
한통속
취량
탐스
김영철
##대고
어여
##자와
천연기념물
##각형
문전
수완
산업용
손짓
탄다
프랭클린
포옹
Light
예사
형질
FW
근저당
Full
안기부
##bi
영탁
디럭스
본계약
다가온다
징글징글
교수진
광풍
타원
항고
동태
까다로워
답글
사발
타나
1925
##민정
셰어
선미
어림
베이컨
화정
불경기
##미트
인부
338
청순
헤딩
품명
정찬
심이
피땀
##철호
가공품
배신감
mL
슬램
RNA
실소
근소
산천
펄스
Cent
이어가기
사단법인
일구
해군기지
경건
설전
학당
반독점
단일팀
332
327
475
냐구
Ver
나빠질
벌칙
웨스틴
영양분
祖
허약
##월동
시효
모일
한기총
납작
애시
오브젝트
郞
걷잡
두유
베니
양치
소탕
이맘
하층
도살
##스트리
ipo
속임수
끌어올려
몰표
인다
조향
음양
품관
죽여도
라이터
세이프가드
##News
무예
은총
##운동연합
영종도
기라
Can
황인
이성계
슬라이더
천시
환절기
행실
허리띠
운전대
주황
피신
변속
당해야
디엠
##ote
##셔티브
찌그러져
이니셔티브
TDI
여성부
역병
JS
벌점
재작년
ADAS
##신기
분수령
전력망
조력자
죽임
일봉
육안
뮈
간헐
박석
의료관광
만유
ICO
미륵
수줍
없앴
페소
강일
여아
특활
Pa
내실화
곡인
극악
통쾌
분개
헐뜯
담요
펍
피살
357
야구단
프란치스코
호크
할까봐
섭씨
적이
이도
철없
구조대
청해
화인
의총
time
별표
저쩌
프록
일교차
업과
면직
오래가
찾아낸
레포츠
젓가락
정태양
fe
금치
챔프
##토모
영락
이따금
##ovid
366
디벨로
앤트
참회
319
정설
창시자
##경식
차우
허정
어법
솔리드
였음에도
##AT
미완
둘레길
##부치
클랜
거래원
##광장
노마
방중
꽃길
맥북
사이판
영동군
체가
여포
상공인
356
나이다
급선무
##umer
되짚
節
재치
남경필
시공간
지마
경축
사서
BGM
베네치아
Enter
병풍
라바
복역
Mix
bbl
##oto
창동
칩셋
사대부
色
##요시
바닥재
공병
연단
졌으면
##ental
막차
전등
국무회의
투척
샤이니
洙
여긴다
한국일보
펠로
황성
Av
별자리
항성
축산업
##특위
마두
##셔서
골재
낙제
암만
일말
얀센
Mor
열처리
이삭
포교
장난질
필터링
式
청신호
수속
온제
돈줄
말썽
##uss
자괴
캐스
자오
재배치
우후
환생
감속
상종
엽서
유년
342
퇴보
1934
천성
순대
##ness
되살아나
고철
403
배심원
무등
임수
도쿠
왕가
왕좌
##만별
##순위채
금융채
후순위채
했으므로
재위
소아암
천차만별
마티스
애당초
토론자
었잖
잠적
스크래
##처치
DW
##먼드
1931
344
고성능
臣
##혜영
백날
시커
에릭슨
셀룰
코바
##ship
주금
디펜스
곰곰
햅
한민
대들
프로페
시음
타미
진실로
承
연성
주초
말라야
이동성
지탄
도성
원구
통지서
무턱대고
약수
학설
##하르트
##지기
마스코트
유니세프
급고
이륜차
모뎀
해녀
8300
주포
기하급수
FL
도식
Je
속죄
간경
ONE
대비책
화목
사출
가천
부랴
##ior
수입국
##레타
LV
노스페이스
나쁠
울분
공사채
체크인
구속영장
삼보
##hd
開
##두고
장승
329
Review
튀어나온
##선언
##화수소
개인주의
산품
공문서
孝
아역
대갈통
파츠
천리
505
행동주의
##산지
오른발
주변인
크린
찝
원생
장밋
첼로
번들
토시
쿠퍼
꽃피
룩스
환송
새내기
해봐도
쇳
##선미
내측
하츠
##저곳
이사국
등록제
##타이어
Low
대머리
매장이
IRA
이곳저곳
중환자실
기회주의자
##je
윤동
불어난
허경영
구심점
Commun
미국식
신반포
최형
체육공원
할증료
원스
##레이즈
인신공격
널려
내려와라
노루
가까울
##브릭
엽기
세도
시물
Ab
절기
최전
동제
니즘
출두
하정
백승
제독
##자스
알래스카
트리오
향한다
승수
HO
순리
부대원
디카
상보
康
나이츠
내원
좌천
양산시
놔서
예지
상담소
서커스
협주곡
쫙
지도력
임했
발행주
##err
폰트
창가
재수사
지구대
차단제
괴로움
사색
##체육회
심리학자
려구
망해야
ok
세조
취수
슬퍼하
안하
대한체육회
폭소
피파
부탁드립니다
원곡
연작
에메
##연휴
영호
다독
##지부지
##ci
##코트
파사
김광현
감초
첨가제
흐지부지
잠그
배기량
##anced
평원
평탄
성태
지게
369
각축
알로에
구본무
생산력
황금연휴
스트라이프
추앙
뿌렸
2035
獨
본분
비공
달려갔
대행업체
승합차
##ublic
프로이트
paper
카펫
int
가르칠
소문난
해줄
따라붙
장기전
계열화
유채
김정남
402
바쳤
AJ
##ference
Forward
섀도우
덤비
토어
##EP
풍물
고순
Char
퇴적
컵라면
쟁탈
연우
판서
1918
346
한명
지명자
름
##퍼트
배급사
스크래치
아낄
큐레이터
감식
시끄러운
파벌
조니
프롬
over
##진다는
##de
발끝
SAP
##oney
錫
파종
해안가
비회원
증편
어벙이
Dream
석좌
재력
NBC
무용단
바자회
현빈
타오
시금치
되돌림
중령
평형대
선단
Amaz
장윤
날렵
걸으면
이유로
마아
강해졌
##ler
일요
채집
삼중
기유
패망
정형외과
시간표
005380
기민
##soft
징징대
괜한
한족
고창군
TG
조리법
352
자그마
본진
포탑
겨루기
문맥
임해
튕겨
도려
제설
김기춘
관성
파킨슨
판도라
##보도
우매
Max
##ape
516
청화
Investment
비뉴
아폴로
브리티시
조모
협연
필하
mom
가꿔
변방
올려놓
갈림길
##수거
뼈아
486
가져간
그려지
로코
1917
852
유은혜
비드
343
제멋대로
중수
##비슷
##더니즘
글귀
책방
손씨
추스
구리시
대종
두드려
피크닉
守
허우
뭔가요
##ission
앞장설
재범
지적도
시민운동
레임
習
연설문
장항
##ross
제우스
##ST
요구르트
입비
계략
lng
모집인
달팽이
컴팩트
특공대
큐레이션
하워드
상층
재용
HSL
과밀
송유관
화교
심해질
감경
무용수
##불호
골머리
부러지
TDF
pop
호불호
까요
악보
1926
카탈로그
##출혈
고을
##이식
##itor
가져다주
잠원
##ICA
KM
김택
지크
풀어놓
몰려오
##르타
잡아당
강희
##우유
완강
9700
헹
##집행
bu
이복
쳐내
출가
제갈량
고베
컴포
양평군
가신
내막
냉기
形
지스
길들이
압구정동
##융합
##이면
박창
찾아갈
9300
Pan
사망률
숀
##는지
우도
秀
##타오
등단
상아
차도
감칠맛
사상가
스타킹
리커창
반신
참으
이간질
구지
변압
##그러들
미남
market
스트라이커
##베르크
Pay
손쉬
죗값
요컨대
##신용
권순
Del
프레임워크
교통안전공단
악장
세스
연가
들어맞
Develop
##튀기
스트립
눈매
순순
총각
##book
냇
업태
##ourn
순도
넘친다
홀대
볼펜
##승차
强
딩크
##ᄒᄒ
목마
행법
사기극
저스틴
##들였
장밋빛
##atic
배불리
불똥
이국종
일변도
이승우
가을철
net
건져
희곡
##상태
값비
아츠
##산면
다승
불거질
##퓨터
ᄄ
from
병목
미추홀
399
무기고
치사율
틈새시장
##샤오
##혈관
애썼
유구
뻥튀기
작태
찬송
아스트
민물
승복
불면증
낙서
임관
오승환
경제인
지켜온
정월
격려금
포천시
##골목
비야
ktx
##식품
어젯
파괴력
에고
줄려고
界
일국
좌장
엊그
끌어당
레임덕
두고
내무부
몰트
묘소
해약
노숙인
보여줘
보국
본의
CBO
걸어온
서훈
박살나
식용유
어젯밤
미백
선발전
깨물
박빙
##out
영창
김성수
##nect
##타입
빠듯
월경
권위자
##비안
조여
의미심장
칠성
각사
한풀
##학습
날릴
학내
##슈랑스
방카슈랑스
총합
351
우승컵
411
신드롬
##둥절
군포시
뭉클
저수
마장
소노
불러야
플루토
고노
도상
끈기
도트
직함
칼국수
날까
희열
과로
ETRI
황홀
예비역
어리둥절
이발
##ha
둔촌
두고두고
평타
프리드
조군
사리사
이어질지
미뤄졌
壽
도색
다구요
##종양
맥심
Japan
##동물
다른가
프린세스
벽체
아따
에바
초속
사각형
환경운동연합
##irl
핵융합
기모
봇물
점잖
환경청
비문
가석
EFS
DLC
방편
앤드류
켤
실황
여념
떡국
놀라울
간디
트러스
관음
기복
임마
담가
맞대응
다윈
꼬치
곧이어
FE
까페
노크
리만
부심
404
Mark
퍼스널
본작
분리수거
국행
라나
성큼
영풍
사무라이
심장병
통계학
독촉
솜방망이
자인
비기
무패
공예품
미끄러지
재계약
놀자
밀란
위너
노점상
견실
도하
비친
고준
숙면
니미
상명
원색
PDF
면사무소
##베르토
채납
벌렸
스틱스
서글
마사오
##이슬
검새
날씬
무근
부관
채점
파노라마
시늉
##구질
독한
명맥
마구잡이
변칙
소맥
##틱스
덮친
Back
분홍색
Program
망정
식각
##era
건과
일로
신다고
검문
끈질기
쑨
냅두
휘둘러
비소
월트
조커
AIG
6100
선망
오리진
싯
뭍
겨누
주례
만수
선급
와대
러시아어
##수무책
속수무책
헌납
해결사
잰
339
시작점
##나절
쏠렸
박연
라이팅
메틸
무전
되돌릴
온정
뇌혈관
##죽이
다빈
오재
무거워
신증
Gen
삼거리
엑스레이
다가섰
난처
대영
고속화
가단
평창군
븅
상전
주미
경남기업
불감증
525
라이신
달아오르
안나
판매고
334
395
##딜락
cf
캐딜락
ii
##기부전
앞당길
私
解
발기부전
##전입
발자취
총영사관
觀
인색
소임
372
499
쓰촨
자괴감
##부즈
송부
구급대
감회
오포
유현
격자
훈계
우지
KFC
지지대
던킨
장과
##조목
따졌
1927
http
위장전입
##UR
내려라
신안군
##St
밑돈
면부
##무인
해줘도
##발디
정크
징조
샨
암스
어버이날
레디
9400
볼리비아
갤러
영서
딸리
선수금
##이상
신당
사이클링
진원
마술사
##특기
안습
밥값
아킬
455
회계감사
벽산
투르크
나불거리
로이트
혐의자
빙신
약주
인터랙
차출
대낮
퀴들
수공
콘돔
헌팅
##스피어
져야지
당수
김구라
충무로
##기기
가로수길
인보
천왕
##코스터
##익스피어
1907
스튜어트
카오
발주량
주특기
인수자
간통
롤러코스터
리프팅
고려인
댈러스
셰익스피어
였으므로
만듭니다
뱃지
암석
432
블로킹
406
##ration
바실
아고
##라이드
괴로워
영업용
섬진강
Model
연지
스위칭
##라이어티
수진
비벼
낙타
브레이커
일리노이
수요층
버라이어티
체스
##달리
명하
옴부즈
결석
던진다
손쉬운
난소
때우
갈아치
머크
스피치
아득
가리켜
물러날
##ask
아부지
##셉션
주치의
##버릴
성체
아만
##교사
생활고
변전
지와
체험학습
Ear
##지구
EIA
디프
매회
좋아할
행원
깼
라거나
인아
강화도
유충
홍명
초토화
헉
##ats
예일
온열
부팅
app
삽니다
달랑
Acc
가석방
즐거웠
블랑
384
##ource
어야죠
가로채
정신없이
##ositive
TD
예제
즈그
그랜트
이어주
FPCB
결장
군용
커팅
이재현
KPMG
애꿎
보육원
성리학
나진
네여
떨림
시의
쏘울
드실
지은
교신
폐광
서베이
변성
거스르
파스텔
광군
공제조합
고동
단상
대호
508
비키니
변압기
억눌
Fil
소비에트
에지
박인비
빽빽
##홍철
레온
샤를
혼혈
카츠
뮤추얼
베니스
KPS
동식물
1923
병리
수렁
연호
잘생긴
매서
아브라함
스트레이트
##알라
##와트
횟집
주사제
##극장
더빙
396
애국가
착공식
국무총리실
비보
뚜렷이
되살아
방아
Rev
모티
용해
##메이트
카다피
자생력
##펜하
병변
구질구질
떼쓰
분탕
##컴퓨터
인솔
상환액
강태
수용체
키드
꿔
368
Ltd
정벌
문학관
버퍼
판매장
북동부
국소
아하
보안관
중요도
즐긴
배운다
짊어지
존치
펩타이드
##애미
느닷없이
상대편
퓨처스
노니
피소
범죄인
슈타인
##ua
##box
교육법
##각색
방어주
아카이브
방직
정약
리허
자다
출몰
윤재
패브릭
비쳐
815
##츄럴
세터
등부
당규
효모
빨려
##uman
질려
쿵쾅
CKD
따윈
Seoul
##ecial
체재
의안
카로
NAS
섣부른
쒸
##레미
PCE
363
무지하
##박자
결투
358
가를
361
미샤
권성
아세요
포카
기안
백설
##LR
초가
알루
숨겨져
그리스도교
합자
Link
뽀로로
헤아리
니스트
살아오
섬뜩
차로
생년월일
데니스
라이징
랴오
사투
얻어먹
정강
##칩니다
무방비
비둘기파
이겨야
국제금융
장시
빨치산
지구당
##부랴
벼룩
나타냄
도로변
오갈
들러리
혼조
EFSF
마이애미
강화군
Test
ne
잃어버렸
평사
뚜레
kw
피한
결의문
세모
경대
독립영화
모신
인감
지병
아리스토
연대보증
현아
정회
GHz
전문학교
부스트
##ole
신정부
전과자
##기간
COO
노브랜드
안하무인
애원
전래
로만
통업
상고심
역쉬
노자
소말
임신부
확약
뎃
됫
쫀
##ille
보험법
커넥션
세계유산
옥석
##icle
지휘봉
영화사
교동
왕립
일침
자지
유경
자기장
산세
버거킹
투고
348
502
조선대
송강
오리발
부랴부랴
nd
##ope
노상
시그마
349
플레인
바텍
어는
바뀜
산길
정평
철제
퍼팅
두툼
타계
##급행
고야
자청
핸드볼
스탠퍼드
쫑
초급
스타즈
췌장암
붐비
빈혈
뒷걸음질
구안
gt
스턴트
0006
외친
장년
##완전
영해
동감
Corpor
공양
IMO
단교
등유
조진
모질
1020
피아트
궂
Mc
급전
자몽
##손손
##otal
354
이상황
홍종
약칭
명문화
CDMA
불러온
동과
투덜
유지관리
이펙트
뇌종양
반달
플로리다주
창립자
뭄
##게이머
강민
논현
수라
소극장
프로게이머
값비싼
레티
잦아들
연구개발
떠들썩
김만
악인
해전
동북아시아
캐서
##르노
기술진
재야
응집
얼즈
코난
더치
계산기
영업권
##ities
코크
data
사리사욕
네온
직제
겁박
골랐
서성
주군
초전
##걸스
알아본다
손병
지방채
교문
신디
되돌아가
레이건
혹여
유원
대장균
페이즈
좌완
아케이드
수의사
조선왕
벌어들이
미래한국
손정
기다린
##OA
##토르
엮이
최문
##ERS
##적분할
제시카
혼내
달한다고
강가
물적분할
##프라노
패티
신동아
애완견
애덤
남겨진
셔야죠
가려내
헤드램프
말다
엊그제
킹스
##급행철도
광역급행철도
맹렬
새콤
조부
박병호
외산
홍정
생중
으리라는
호모
연해
스트링
키위
소크라
Tele
디에이
GoodNews
닥칠
서민층
공장장
뫼
ab
약재
졸리
기갑
##ally
##ano
호암
헌데
낚싯
Bloomberg
스탭
나일론
##CS
빼곡
위도
고깃
고신
중학
핏줄
감마
촉매제
##ocal
##영수증
재의
임할
글렌
홍문
현금영수증
기염
흠뻑
##티모어
이상민
망조
채비
거역
엘피
칼럼니스트
칸트
어찌나
래쉬
장실
망나니
신선도
구단주
디너
##래미
이용권
##머님
미친개
개비
만사
뭉쳐서
잔머리
##미사일
대기실
은행원
##셰어링
##이즈미
꺾인
Live
##입국
뒈지
루키
불멸
부주의
의령
435
속지
리퍼블릭
스파클
카이로
반대쪽
완패
가르친
남겨둔
341
작품상
유카
##덕수
347
덕양
시게
현충일
기울어진
부르주아
밧줄
마을버스
핵산
조폐공사
이가
쿠스
들여놓
소켓
봉하
택할
전태
무심코
Wo
미래산업
식비
영결
차가
한가요
오대
##가슴
돠
Ins
든다는
버클리
안다는
중화민국
카셰어링
이티
까보
은수
브러시
이노션
백석
시영
너도나도
거위
바이스
슬리퍼
##을거리
##ava
덕택
문산
뇌출혈
식빵
마더
소피
422
최전방
티파니
해왔으나
쟁쟁
뒤이
볶음밥
비닐봉
응원단
실록
강해질
##궤도
장쑤
##라이터
바글
읍시다
재림
동일본
약해진
김태호
물감
바니
일기장
정용진
나부랭이
##천지
간만
Amazon
야전
전곡
##eh
아닐지
규슈
끊긴
오우
나폴리
실력자
꾸렸
외국산
##나간
급체
메워
배점
정신줄
378
변별
쌓였
너구리
김승연
408
들락
신났
차곡
##업자득
VM
브라운관
PU
망령
토기
볼티모어
만리
시브
최규
##커버그
혈장
별미
테오
호찌민
투석
갈아치우
방기
시편
충성심
1922
일반직
##ption
승차감
불운
연천군
옥천군
강정호
리포
##수염
wsj
노친
알테
재보험
##독부
원지
는구먼
피조
양현석
계양구
컴포넌트
자업자득
린드
막부
사민
떠올라
시부
##구르
영산강
가감
쑥대
정열
만하
사파이어
##뒹굴
준중
가평군
업진
인컴
자본력
겹친
win
##교섭
후불
##답니다
##막염
삼익
##플로러
익스플로러
고딩
본전
유혈
탱고
SCP
우방국
Core
해머
한국공항공사
가야금
불임
액티비티
전우
함부르크
##HI
경쟁국
프리마
조목조목
부실화
논증
목포시
전략산업
그제서야
##렌식
##인권
주성분
포렌식
##뜨린다
자구책
고사하고
##EG
수입원
밈
392
리허설
전파자
##olution
아휴
오상
시끄러
연화
1921
353
던가요
USTR
자궁경
금빛
##르바
매표
황희
피난처
폴리에스터
마타
소크라테스
프로페셔널
브루스
Cost
해밀
##현상
구국
##셔닝
상투
포지셔닝
사저
##CNBC
로구나
이세돌
485
인사동
체인점
판매망
##다물
이자율
스타일러
구시대
적도
주문자
벨로
휴학
SBSCNBC
레아
페인팅
장위
폴로
환차익
불러일으킬
관리국
드라마틱
Will
대축제
ir
므누
재방송
근시
물든
대물림
인덕션
평수
Fwd
쉐이크
그닥
달려온
떨어진다고
미적
불완전
종아리
이긴다
후진타오
##go
XP
강지
준설
##덴서
mA
지침서
행주
377
경인선
유토피아
부숴
푸시
혹한
뒤쫓
간병인
보상비
콘덴서
433
##iam
피에
클수록
##체능
##씌우
백마
예체능
##노위
펜싱
388
먹구름
휴게실
##ense
잠기
##상정
대응력
그깟
시경
신승
달리기
레이아웃
##rain
Fre
##대장
듀엣
##uide
비통
씨드
못생긴
##캐롤
##렌스
영수
번성
가려움
전자기
트렌치
암초
피케
그럴듯
바레인
사정관
음압
짤리
중권
##ump
꾸밀
경수로
소질
퇴거
이레
연강
뒤틀
임베
임베디드
부서지
경기도지사
소포
##크리
난자
IEA
##캐롤라이나
kf
Underweight
모는
토했
강현
저가
서린
달린다
아기자기
열강
매수인
##이조
제후
오노
화승
심미
썰매
Bay
찍혔
비발디
NSC
##브르
번져
광해군
##보험공단
살핀
난임
진찰
개고기
506
Bal
흐른다
브러더스
뛰어다니
개악
딸아이
폐장
##자동차
주호영
##사이어티
Direct
Ev
겨레
ISS
건강보험공단
원효
악단
산도
선곡
실직자
십자군
바랬
세네
오랑캐
윤대
축조
362
톱스타
앵벌이
다수당
처박
dna
냅시다
스턴스
인원수
Multiple
가차
누려
##ger
어진
홍차
##입구역
미취
강산
사이언
타리
소사이어티
돈다
0002
##EW
육식
감사패
1850
mid
사바
그만둔
성현
여태껏
버틴
송혜
가요제
누린
##일동
로페
양강
교황청
Stand
나영
엄숙
민원실
투썸
코스모스
LSI
수업료
##각층
현우
침례
각계각층
리수
안쓰럽
다가갔
무서웠
날아다니
Microsoft
매그
발찌
헤더
787
임태
특선
판재
성탄절
At
로로
최준
##심판
고고학
형용
감돌
진나라
소방청
요번
중심가
체지방
자크
정보국
두텁
성난
##니트
해집니다
믈
이크
눈치채
람보
관위
정력
피에스
오다
대마초
First
노랫
383
사라져라
배당락
Pack
아성
볼드
신구
치달
방화벽
art
식물원
갈취
문관
엘시티
주무관
진입로
기할
피상
절전
징검
등기부
제품력
폄훼
재청
안이
Sun
괴산군
내미
합니다만
##랑드
##암리
경인고속도로
##북면
##불성
407
HDD
여하튼
다빈치
##ury
리호
선착장
얽매이
치우치
##put
중서부
다녀라
확장세
보신
교통카드
노정
드세요
##작전
상견
이부진
기독교인
런닝맨
황태자
어드밴스
광양제철
순한
화물선
Cell
지근
011
##uel
Flex
동박
항거
강력범
풋볼
고난도
후한
화환
놓쳐
춰
영령
찌개
열대야
면장
기준점
소모량
주사위
마스터스
따왔
Book
MRO
개포동
나경
아이언맨
##슬로
위비
##일비재
비일비재
##해전
지가
423
Ul
관우
걸려도
어설프
이병헌
되물
포장지
유촉
송전탑
마지노선
ESM
섞이
징그
##roid
417
ibk
일석이조
##보살
령도
Kim
입학식
석기
조선총
전사자
넘보
날아갔
풀타임
아니한다
입영
역주행
천자
##스타인
폭리
쏟아진
봉우리
무임승차
놀려
445
꼬리표
페스트
공탁
박시
마성
MIN
소말리아
솔트
입질
감명
인장
재판매
##pa
보여요
오른팔
투숙객
백금
ᄋᄌᄅ
이뤄지며
##reen
회복기
##텔레스
511
9100
강주
여적죄
free
윤정
법원장
##긍긍
강병
설과
열폭
전전긍긍
변증
##쿼터스
유비쿼터스
조선총독부
속력
파타
야유
피렌
휘트
고주파
식상
므누신
입도
미칠지
올라타
다자간
워리어
호스팅
싸돌
국경절
##도그
다낭
객원
우에
리포터
ASEAN
담판
조정관
남성복
##활동
겉모습
Secur
갖은
##노프
번질
KIC
괴담
495
##계좌
쪼그라들
살길
특근
동래구
보양
오작
사립대
발뺌
방음
##포인트
마르코
아포
원기
##조작
처맞
백범
저금
양태
엔고
불리우
통조림
아리스토텔레스
매립장
창세기
367
기스
불명확
에스파
일식집
동률
연고지
covid
시무식
신학자
로스팅
쪽발이
강영
분교
캡처
##테르부르크
함의
자궁경부
##대포
떨어짐
Kn
징검다리
##ines
Down
Us
도토리
형사부
##하시
보부
팔달
동창회
답습
Strong
참외
금융정책
##KE
불량자
환대
의정서
화학식
허드
벌여왔
7100
꾀할
프랑수아
메라
414
개사
수복
이상일
이광수
크래커
사쿠
자랄
장직
##ysis
문제없
바티칸
##UL
갉아먹
금토
##uture
홀로그램
곶감
범한
후반전
갑작스레
응급처치
니버
413
영회
토성
조도
투표율
후견인
에볼루션
##순간
전채
중사
김춘
동심
래는
##iance
난해
사이토
공금
보쉬
취재원
Display
직설
철분
아이큐
##oxx
이승훈
쏟아질
병아리
라디오스타
답장
파킹
##안전공사
어린이재단
린다
수자
알몸
폐회
명당
자결
해로운
위구르
첫선
김정태
나만
니코틴
머무를
##투합
##ada
소국
##TION
382
ADB
벤젠
쉬우
의기투합
##머신
아구
부록
전초
연구관
급작
섭리
숙식
더없이
갈렸
##만장자
세운다
억만장자
니케
붉은색
데이즈
욱일기
철퇴
상하수도
흉부
중형차
YMCA
경종
건축법
드링크
발사대
삼다수
##ude
##모스
맞설
지피
군장
##시타
분발
##imit
##양함
삼공사
박홍
설악
지류
광활
떠올려
퇴각
개이
황급
항우
걸으며
누군데
송달
경제난
불출석
벤더
싸질러
터트렸
올랐으나
방자
아그
구혜선
국방위원회
성호
굴러가
재개발
좌회전
으리라고
산본
때릴
자주포
Short
코피
##충전
노미
##진창
월급쟁이
중얼거렸
내요
허비
Gas
8100
##aker
홍기
숄더
옮겨져
전지훈련
수현
타오르
쳐묵
##사장
머슴
절절
떨어뜨려
태동
경력직
앙코르
결백
심려
뜯어내
브래드
제창
BRT
##장수
로더
이동국
엉망진창
찾아온다
American
재단법인
듀크
깝치
정녕
길들여
드레싱
미대
##oa
##아트
꽃게
선지자
##거림
근친
bit
경험담
파라미터
##줍니다
격퇴
냅니다
댄서
세면
시네
티아
다시마
무르익
살아난
작심
출장소
els
작아지
유커
set
암스테르담
마담
빚어진
분지
##무이
수놓
천민
추문
가산세
KOREA
친애
##개골
슈어
앙겔
##tv
삽화
가권
송혜교
View
매집
밤샘
군소
빅토르
한계점
high
##좌왕
빨라졌
연평해전
써야지
진천군
우왕좌왕
미친다는
소프라노
금광
고위층
과기부
##vp
##합성
병렬
##체스
동신
515
패트릭
담길
송영길
베푸
조감
##천면
도매상
저따위
바벨
스파이크
갑판
젖소
서울우유
박제
세워져
신학교
Plat
호주머니
농정
담뱃값
컷오프
스스
한다든지
해동
식문화
캔자스
들려준다
범유럽
농산
Peer
올림픽대로
시험대
##결제은행
동방신기
국제결제은행
LINE
##대군
긍지
##prise
구술
성진
용스
검정고시
강유
수일
투르
Vir
##레알
성곽
사보
Sil
전환기
경찰대
Sing
세후
이륙
총책
묻어나
##부수
보해
장신구
품평회
MX
임페
총점
가로챈
멱살
민의
장권
두드러기
식견
철도역
프랑스인
마동
충정
앞질렀
송심
요망
야스쿠니
평방
429
리차
부금
Dav
클로즈
제습기
건널
안상수
##지처
양안
해조류
미확
ᄊᄅᄀ
난데
안종
어루
반대표
##ird
장작
로드리
충신
2028
down
##미드
라크
424
정략
기폭제
Km
어의
정순
##연수
잘려
CAR
가브리
베이비붐
1908
계세요
##그램
Instit
더워
임동
##디엔
##vel
Gal
기어들
아스널
영사관
방진
방호복
지역난방
Level
주접
쬐
##스테
광폭
왕관
카세
수출상
현악
딸린
465
AIA
버버리
##금융그룹
##차곡
북남
양희
정봉
즐긴다
부산진구
차곡차곡
라벤
Marketperform
##당당
##식당
ER
##을지도
513
취한다
우리금융그룹
수학자
유명무실
##조심
노영
캐디
디아블로
다단계
손수건
단선
망간
베젤
송아지
시뮬레이터
국유재산
달려왔
상견례
원제
HDR
요셉
모하메드
감출
전정
##죽순
Sim
떨린다
슬롯머신
KN
무참
427
순결
아다가
더블딥
미룬
재충전
우후죽순
옥중
정신없
대덕구
개박
위정
윤회
탄환
행여
381
생산지
충격파
로하
배변
목수
상성
연장전
기념회
구해야
물리학자
뇌물죄
뛰어났
오도
not
억누르
OTC
빨갛
피카소
코미디언
강팀
##rent
ABCP
다녀간
골프클럽
내몰리
박태환
특임
낸시
구더기
북동쪽
수출품
프린스
닭대가리
정훈
미켈
Pass
격변
숨결
황영
다더라
치료사
##DPE
내통
작목
생산품
괴한
신해
방방
횡단보도
굴레
##랄드
대각
상방
389
부정수
이해력
##ates
운동화
보미
##감사절
추수감사절
드니
##누이
마카롱
Social
계면
천일염
##대간
레그
겠지
신공
안도감
백두대간
입다물
비츠
근무지
모터스포츠
pj
주원료
백남
내줄
오목
요런
##di
방촌
될까봐
인천대
더우
포병
이맘때
##콘신
신방
위스콘신
##성기
로데
업력
일주일
미원
371
자동차세
##슬레
친수
활보
##레기
민화
리무진
굴려
참이슬
스푼
메아리
논다
배전
Qual
금할
종파
환희
##반등
항저우
##에나
스타인
정철
Cur
급반등
리셋
합헌
씁니다
##등기
주요인
메기
명랑
par
독설
장석
갔다온
낮잠
한계선
핵미사일
덮밥
##지변
교무
풀려나
가린
근로복지
당구
괴롭혔
허망
쌍판
치장
부감
빌어먹
자해
이유식
굴착기
##약품
구광
Mem
다움
치운
애절
컬쳐
홍채
국제축구연맹
##점검
##타디엔
418
##슬쩍
피렌체
LIVE
에르메스
타타
##제지
후술
398
1912
자연주의
골판
나야
##잣집
김강
알킬
428
소방대원
파이트
미궁
어반
국민주
로미
가만있
Server
제쳐
로바
번졌
쿨러
Oper
삐뚤
해다
밀리언
모셨
평택항
##부지
깃든
일거리
##탄두
Underperform
AMG
재점검
번화가
본심
악사
sur
전야
기어나
밋밋
트이
한입
환각
저랬
문답
평균값
##count
한솔제지
냈으며
들일
론가
서안
##설량
##린더
리나
초능력
도원
집시
비토
탠
광전
노심
유행어
휴전선
대역폭
버니
급자
밸런
보유량
밸런타인
각주
376
성윤
bar
혁신안
##기수
수경
불순물
기자실
희극
PRO
끼친다
불모
빈다
뉴스룸
##cript
리투아
리투아니아
폴리에틸렌
강할
카멜
챙겨라
천재지변
내츄럴
금오
벌집
##호식
농공
지코
무함
월계
배스킨
은퇴자
이효리
집합소
지명타자
고검
라드
##ices
한건
김두관
을라
향응
전기세
국제금융센터
계도
한국과학
##FT
버럭
피니언
지영
인디아
##의지
후광
##oi
만반
상파
리셉션
봉황
프라다
##좌파
연막
##주머니
535
Fig
굴하
놀림
Mot
덕수궁
나잇
도인
이음
줄래
트렉
은산
볼려고
##etter
도심형
반바지
베이스볼
거래제
중종
개선책
백지화
##델리
국조
박완
방귀
우마
점쳐진다
캘린더
##에고
핫도그
가곡
미끄럼
CBT
꾸며진
류승
목공
디램
박신
버진
온다면
허창수
##js
##니지
##종일
GD
애자
코우
할걸
##쩌둥
##으리
마오쩌둥
비티
373
##ther
기웃거리
항시
울컥
##어진다
영결식
보문
엇갈린다
##GE
##KA
STO
매스컴
성취감
움직여야
구덩이
기타리스트
임지
충치
GKL
서병
해준
종량제
양봉
고지혈증
##내렸
HTC
달아난
마수
소피아
역기
젓갈
블랙베리
산점
울먹
접지
374
하이드로
##ca
부실기업
Christ
밝혔으며
처남
숙련도
멍하니
매미
난치성
##tn
##베네
왁스
456
비쌌
391
##너츠
##노트
오색
컨버전스
학도
Mid
복통
##ards
시원찮
발행인
프라이팬
스테로이드
good
수가
할려는
입회
##6570
포르테
냉혹
인어
픽스
근로복지공단
가이드북
뜬공
Grow
Post
##bm
##분석
초임
End
Associ
냐고요
영영
줄기차
미코
냉매
버들
##애플
늘린다는
퀴어
리볼
요강
튀겨
회도
판매원
코스튬
두만
하시
393
##경화
물줄기
합세
로군
상냥
스펜
들여온
버나
석탑
유일호
Cash
안타까워
선화
만만찮
맹자
부티크
검술
음대
##충돌
비뇨
아키라
피어나
##hem
덕담
표가
호통
바이옴
국순
fun
##은정
달려오
물어봐
스나이
먹을거리
도핑
써왔
359
마침표
그리스어
내력
농원
심포니
미쓰이
##눈썹
무위
조셉
왕권
자유로이
533
##za
무풍
크리스틴
북아프리카
Active
쌍방울
부타디엔
부경
앤서니
골칫
왕건
평시
헛되
##씽크
##코비치
추모식
##씽크빅
크나
도형
397
##isa
번트
하영
박순
1120
웅진씽크빅
##amil
그럴수록
lc
뱅가드
상면
레퍼
본조
물증
저음
알칼리
초일
부본
해악
신용장
가림
관방
실어
현자
부양가족
난치병
심해졌
케이지
기껏해야
##미어
줄리아
유한회사
재빠
그럴까
신축성
국순당
생맥주
장경
알라딘
손경식
Korean
동년
직분
##aver
들여와
신용자
칼륨
##빨간
동물보호
1350
불붙
494
빚어졌
거만
연금술
이재정
Sell
유황
최명
마이어
텝
병해
혈연
##ga
이뻐
자우
국방력
당진시
신제
아소
정성껏
경련
##대성
겸한
송재
약소
임페리얼
부릅
이부
추경호
Airport
혔
잡혀가
##친화
카페베네
mRNA
Dev
불닭
헤아릴
1544
밀봉
도곡동
대우그룹
페널티킥
Af
늑장
ww
도감
뻣
나이프
시미
난장판
동북부
밝혀냈
어카운트
뿜어내
울상
##예진
깐깐
어시
발췌
이정희
풀뿌리
석류
순기능
##ovation
항명
프로세싱
심판원
개기
광석
남영
콥
##절절
뚝심
무해
척수
김성근
나와요
##come
냉각수
들이닥
염색체
악덕
WB
다느니
바라기
394
부활절
천연물
구구절절
프라이머리
진달
발기인
한낮
##트라이트
다그
탈법
연발
오판
공유제
HL
정치권력
환경친화
토마
##광이
감점
영일
홍길동
나가사키
호사
##정부지
미나리
##공주
김흥
남한산성
##iet
정발
421
뉘우치
야자
빌려서
두드러질
광역자치단체
클라크
WD
387
하기야
탄창
눈알
멸시
이충
디오스
정족
주종
퀼
임자
요렇게
말뚝
위지
점증
사직서
##성대
##다간
MICE
이용수
천정부지
해직
##데자
면목
Tier
저작권법
나아진
안성시
##불교
##데자네이
양로
##사관학교
저촉
레노버
혓바닥
시향
앙겔라
1911
409
생쥐
용문
지방비
쉬울
속눈썹
쉬웠
BOA
신아
청소년기
##HT
게요
총학
##GC
디젤차
##천후
퇴비
굳혔
백기
최희
기제
예대율
알려준
북로
##ynam
##행선
##도장
늄
김광석
크나큰
휩쓸려
##iff
공경
으르
거느린
WWE
글로브
보내왔
찾아낼
왕정
처방전
아쿠아리
유가상승
양돈
김태균
아쿠아리움
##FR
대경
리필
528
아랍어
러지
어따
cgv
예선전
마테
유어
##석유
내방
똥구멍
불쾌감
놨는데
476
사문서
흩어지
전편
외양간
등반
이다
GMO
무의식
구색
마천
추려
콜럼
이동한
North
##령관
병든
여지껏
광역버스
계단식
FU
레퍼토리
여소
어정
해칠
농후
소년법
ᄑᄒᄒ
##그로
향할
자산관리계좌
변협
피폐
교관
용산역
##뮬러
HIV
유나
주경
##꼭지
다세대
카트리지
역서
코파
##afe
소세
쁘띠
이익환
작화
448
보건부
반한
사정거리
엠마
복합체
기괴
##sw
검침
대체재
##황후
IQ
동고
리파
vip
구로다
실행력
가족사
세워서
노지
카톨릭
지력
타코
변장
라빈
핑거
홍순
압축기
겠죠
라데
os
휴가지
가로질러
##산역
말라리아
오퍼레이션
태릉
수신기
tw
급식소
와카
이징
고율
내고
묶이
세연
불미
크로스오버
산산
삼청동
교학
중미
거닐
곰탕
금화
지어야
슈틸
514
666
신장세
##uf
성자
오현
정배
##raph
발란스
대야
후송
##omc
기뻤
##페스트
여전사
옹진군
시문
야겠다
답보
이슬람교
바바
주화
먹혀
즉사
자포
붙박이
환태평양
tech
중앙선관위
호리
슈틸리케
도곡
스피릿
여행가
조부모
오버행
총무원
럿
부종
점인
곽상
무정부
자료실
파인애플
행방불명
어겼
쓰러뜨리
곱하
프라하
현관문
기교
음흉
##께요
니콘
##셔야
빈스
여비
녹색당
개탄스럽
남점
##미술
응수
444
ebs
##길이
테드
그럴싸
바빠서
##데자네이루
리우데자네이루
간당
움직인
Cam
송지
엔에스
샌들
세레
물으면
스쿼
금소
압권
도전자
방부
압록
월비
입감
위법성
개차
끈적
확장팩
흑연
이사철
송기
풍족
전원주택
약체
우리말
##인격
설훈
와트
통솔
real
데기
Flash
여분
열일
침식
451
건실
맹신
외도
재래식
지드래곤
##양동
단체교섭
시시각각
452
기어이
라파엘
스탠딩
녹이
물길
웨인
밝혀왔
다용
어루만
장진
공익사업
속공
##통장
데이빗
삼척시
챌린저
독교
##댑터
##orea
송수신
포뮬러
부러움
사변
Ang
태안군
흘러나왔
##기스
송승
##hip
##래기
##렁거리
##face
우회전
찌푸리
월렛
주광
기록관
한다는데
어댑터
##활동인구
경제활동인구
과중
##불성설
진보신
서든
615
어불성설
부직
주재원
##계선
정은이
탐지기
##RK
곡면
엄하
회원권
진핑
School
격전지
back
올지
켰
할머님
신태
루카스
대한전선
MY
마태
빛났
아이구
##명부
산삼
무가
조간
현란
앙리
##간첩
ass
488
정회원
고이즈미
오트
사단장
향료
여혐
미니스톱
##망상
산술
스파게티
발아
형체
싸워서
중하
공백기
언약
##꾸미
드가
용맹
직통
IMM
어감
마자
한독
Da
안지
양곡
437
어찌하
Soft
##ple
우전
434
콧물
과즙
앞선다
극단주의
다년간
끝마
관광호텔
##야스
승전
후작
주사기
기울기
갈려
중계기
지출액
되팔
징크스
익스트림
438
핵탄두
백라이트
핫라인
##선지
지카
언론계
##iving
곤경
액도
폐단
고발장
부드러움
ep
김명수
쟁탈전
방열
망해도
수괴
황창
허준
해맞이
무함마드
망가진
시아파
여상
보여줌
your
사회주의자
가망
승급
구광모
##니컬
똥칠
##ideo
765
투박
포차
빼앗겼
딸래미
다람
체구
기동성
만석
위화
증익
밀릴
총탄
투항
고릴라
골대
데몬
##치우
거림
멘붕
리버스
##HS
다롄
쓰여진
##lee
빛내
속일
전반전
##린내
들어줄
숭실대
퍼줄
소장품
##모사
426
가주
bts
겅
Rel
코스타리카
테이크아웃
해변가
알아차리
##택트
나체
주순
구한말
##ations
우이
입방
뚝딱
분규
전현
순번
인피니트
불협
나무라
자조
향신
실용화
노른
지킨다
조심스레
1899
미치광이
안전시설
중신
이중인격
0519
산자
열의
임사
유대교
다마
사케
유림
000660
서체
해사
이나라
총선거
스프린트
뒤처지
마르크
일갈
한일전
피웠
노선도
##ena
예약자
황재
운지
자빠져
##ability
##승원
시퀀
연의
##비크
도시민
##포화
직류
##버른
지만원
밀실
바꿔치기
나빴
살벌
431
이니셜
종국
진시
도로망
1750
yj
##KO
##서도
감찰관
업보
시트콤
경솔
BYD
도통
##슈퍼
귀감
453
정구
조직법
장엄
반인
공터
성장산업
각양
누님
점도표
##구만
사키
허상
궤양
출채
살아났
윤태
촉감
건의안
플라잉
코튼
379
내려올
##ama
영접
468
건축주
서플라이
우원
전회
광둥성
끌리
오미자
구좌
바그다드
##막지
소도시
어떨지
군국
##ottom
벌거
잡이
최루
루이지
시어터
팔레트
골판지
##ights
멀티플렉스
재형
혼합물
Premium
옛말
수증기
이래라
##ply
씨씨
남동쪽
##모닉
이항
##ustom
양원
und
뿌리치
국관
장유
튀니지
##진청
are
기표
슬로우
대전광역시
##ification
생산비
##폐율
쾌속
##이치로
조로
화풀이
Tim
롯데슈퍼
스판덱스
복병
엠블럼
스포트라이트
되레
비수
근육통
AIIB
센티미터
맞춘다
처한다
무지막지
지현
TAG
살아간다
로딩
키나
##화음
궤멸
반팔
공영주
냄새나
스파르타
큘
MEG
불소
전영
탁고
돌아다녔
464
리야
사포
찬성표
콘택트
인품
그리운
##성어
스컬
안시
자물
458
risk
##eta
Hotel
약했
장력
최은
소부
부머
슬럼프
노노
송병
룰렛
울창
사멸
키운다
티코
##TM
##박사
##FTA
Po
와일드카드
##ham
사일
##치락
하등
건폐율
앞부분
위중
그만둬
배부르
아데
안국
말세
##appy
운석
탄산수
통영시
1906
밝혔으나
거긴
산탄
케임
베르크
일목
저격수
코라
호미
능통
캄캄
국제여객
여생
미소금융
인벤
테너
차오
인터랙티브
아임
들으니
행진곡
유두
아동복
메릴랜드
YS
곱창
Rad
기차역
데뷔작
어쩌다가
높임
박미
필하모닉
고우
후천
문학사
관리직
새로움
따돌림
cb
헷지
##une
모략
Rock
불패
어도비
차고
배성
GN
에센
만천하
맞물린
##oot
차손
찬탈
타투
유태인
부귀
스펠
옵틱
거미줄
강과
모나코
과학관
비탈
데요
특설
##unk
##idge
승부차기
후임자
저커버그
가연
함안
수족관
총영사
토스트
설렁
디비전
멜버른
안토니오
최용
PCS
인디애나
##HC
수포
Plus
한마음
박범
쑤셔
데려와
반점
형지
일깨우
체포영장
Show
괴로운
주모
##산리
##애애
del
##공영
소작
미하
지제
본다며
캐서린
도처
Spr
거북선
주진우
지재
522
선거제
442
보은군
응축
간신배
윤종규
스쿠터
조선왕조
불나
오두
끈질긴
펼쳐왔
코비
462
앨라
근방
세인
승하
우면
자당
창덕
538
스피어
부딪혔
파드
##of
##pi
436
눈초리
임명장
##고집
지론
##광호
고아원
갈려고
##비언
낄낄
늘려서
대할
장류
이아
523
524
자음
##트리올
몬트리올
그을
피스톤
아집
한다더니
룻
산시
신풍
수십조
아파하
view
기명
부축
미노
출연자
고흐
케이엠
공국
##이탈
맹비
쩔쩔
산란계
##UM
브라이트
##도니아
투철
에비뉴
꺼낼
472
기뻐했
따듯
퇴역
517
푸른색
1909
다질
별빛
넬슨
총사퇴
영속
독대
함장
##뚜라미
##신용평가
미착
티브이
노광
심볼
리세
숨겼
컨베이
국전
갈아엎
수확량
GAAP
Lee
매장인
스무디
el
송편
농진청
단기채
South
한국신용평가
이론가
디지털카메라
개운
민지
뇌관
구설수
만화책
##ancial
Er
쥐어짜
외화예금
태화강
그리워하
존폐
향교
##vern
신춘
내야수
안전벨트
탕진
약해졌
버무
본예산
준위
GG
040
리차드
기를
545
암벽
파라과이
모비
남중
하치
##펜하겐
길바닥
코펜하겐
토박이
고라
다날
Lib
넘어온
Engine
##ions
신인왕
포켓몬스터
##캠프
CSS
느낀다고
서평
물어볼
후추
##브리지
을사
이동걸
메인보드
물살
변리사
##냉면
온과
기도회
수그러들
##배마
팔다리
앨라배마
454
칠판
안드레아
스나
양조장
##아닌
새긴
ipt
지껄여
##댕이
최고령
OUT
두바이
제값
기다림
치러졌
휘말려
게놈
수부
장고
치러질
체자
##맥상통
기가바이트
원세
김종필
미명
##by
납입금
간수
일맥상통
주동
였었
뼈저리
##투표
로렌스
##배서
초일류
썬더
이바
연대기
당리
거친다
랴오닝
순화
바오로
##ivate
PHEV
호의호식
등쳐
송곳
자필
따져야
CATL
옥정
김영주
md
파가
kr
급체포
부직포
떨어뜨렸
응할
절임
바칠
해빙
빌렸
점원
거슬리
바라봤
##치마
##백산
케미컬
목선
윤여
죄목
척척
파쇄
진일보
Office
알펜
연식
정약용
##ki
441
윤종신
##폴리
귀뚜라미
쥘
요청서
행패
색이
글러브
강모
화기애애
하키
상호저축은행
가구주
도라지
중공군
테네시
##며시
천공
확성기
올림피아
손맛
덜하
위임장
에반스
한명숙
##ifa
482
제패
델라
스모그
준표
훈련소
관로
텅텅
회추
##테인
기성용
사납
cell
체득
두꺼비
##총련
이조
SMP
##ider
##비츠
동화책
##tra
지겨
백정
붙인다
##시공
타살
체인지업
아우라
탄자니아
467
이어간
Cycle
##건조
에덴
진달래
아벨
동문회
##하하
절경
제복
Control
SCM
빅리그
스탑
601
경장
##bl
지방대
##ournal
뒤로
흐느
446
환적
간간이
젠틀
한걸
암살자
##bon
거리낌
논설위원
불협화음
별내
선녀
그니
내자
하숙
Ben
계모
공진
온종일
렌더링
관치
1880
1904
Capital
##러윈
뼛속
일장
##그래피
핼러윈
각호
서둘러야
평의회
데이브
길잡이
김진표
휘둘렀
두개골
추태
##나르도
부지기수
두른
아몰
환금
이재오
귀책
까대
실권주
두레
리디
성광
어쿠
온난화
이탈리안
##시울
마미
촉식
##핑크
타의
출판물
박명수
일정액
판매업자
사족
612
눈시울
대자
선악
파킨슨병
##흐로
사야
문물
중한
##기술원
문제집
정치력
집집
##구장창
Type
한약재
4050
##연자
디지탈
수니파
주구장창
Brand
컨베이어
비산
거린다
성행위
페이크
담보인
한국과학기술원
449
바야흐로
여명
말다툼
묘미
이웃집
건식
1890
깜찍
rpm
푸념
LE
갈구
따님
Auto
Rem
초순
리시
잇츠
코디네이터
떠올릴
각양각색
프리큐어
홀몸
짓눌
전업주부
이기심
##uit
나루토
명도
체급
하얀색
관보
당적
엑손
컴즈
##짓기
스윗
SHO
흉노
NTT
거듭났
##문트
교권
묘목
했잖아요
생크림
신림
피로도
되려
일그
문세
ds
대수롭
정교회
Multi
gro
웨이보
격식
전력난
##예우
남긴다
보리스
방도
Chem
삼림
석연
사대주의
일회용품
KH
딤채
민초
비빔면
헌병
동해시
콘트롤
맞잡
알려짐
인더
숙박업소
몽환
변절
447
미역국
아쉬울
운송비
과소평가
맏형
눈뜨
KK
보살피
개짓
감지기
거주민
알린다
증거물
전관예우
water
혜원
기설
머플러
프라이어
돌린다
동부그룹
고참
##ze
사통
노동절
망해서
##스테이
빗방울
부다
457
층고
특권층
휩싸이
Of
협곡
김중수
##읽기
LD
학제
수준급
예찰
IHS
진사
xxx
위용
연금법
정족수
참가국
등불
빈폴
이엘
일어섰
넥센타이어
##강도
레비
529
간호학
우짜
463
방배동
찜질방
올림푸스
라텍스
참의원
단타
황은
이반
원합니다
##두렁
음직
443
프레디
출중
##그라드
##스트럭
농어민
##니치
반목
복습
인강
잠재성
크리스천
전출
본안
빅스비
추천서
헤어졌
fomc
레크
계주
헬렌
어질
수영구
##의학
원샷
##로호
발명품
술탄
쫒아
감소분
신다는
자물쇠
창신
향긋
명중률
기다려라
낙수
퍼다
IPA
갤럽
악물
따릅니다
잘리
아름다워
샐러리
남하
추동
전청
후려치
##정신
화병
##에이징
바이킹
안티에이징
da
방파제
불이익
제곱미터
1915
IBES
부광
반딧
병살
살필
흥정
심심찮
창작물
fda
중국식
들르
등산객
지녀
언저리
display
진즉
vod
몸뚱
헝다
Credit
벅찬
역배
원폭
544
국과수
기암
483
##상식
편할
현격
터져서
##갔다
북풍
화난
WoW
기니
오자
##스토크
##치료
건달
구균
회항
하정우
아네
마네
속칭
대포통장
어려워서
혈맹
박성현
떨어뜨린
전모
동봉
고발자
##ka
불어오
##렛대
bas
지으면
망가뜨리
머드
지린
575
sky
하객
위원단
##몬트
음영
안영
나랏일
##독성
기신
오키
498
클레어
평야
쪼다
003
Point
무화
겉보기
삽시다
에이트
재끼
사파리
압박감
잠긴
한다니까
둘러볼
동주
가브리엘
에일
전근
한해
##pos
##uch
진양
가지가
두둑
혜안
저지를
지렛대
해줍니다
철권
갈라진
독일인
심리전
##그네
다림
보배
우천
차수
덮여
##다닌
망토
김응
532
사이렌
##론자
도호
선충
한게
커밍아웃
흘러내리
스타일리스트
애새끼
보인다면
jm
셀링
소하
이헌
뎅이
보여도
보험업법
di
닫혀
시연회
Internet
흡혈귀
UFC
존나게
##이센
부고
정근
파밍
애타
음해
곧잘
레진
채색
샘플링
##스러운
편제
Mich
리젠
ᅲᅮ
야식
바이브
취해서
검표
말렸
무빙
맥킨
에밀
파프리카
부비
태승
Neg
705
스토커
이영호
##블루
##자치시
사격장
홈구장
선과
공방전
김종국
특별자치시
##보트
꿀벌
수면제
##order
직판
med
움켜쥐
Media
거름
콘래드
병해충
흉악범
##투어
##use
공주시
##거려
##수사
김용범
만진
##창구
다로
알아본
##acy
대보
황병
한옥마을
경포
act
하동군
##fr
곤지
스마일게이트
라프
##덕지
##의정
469
##대리
아편
일러스트레이터
534
듦
오열
차급
허기
장보고
조수석
한국학
안내판
돌려보냈
프로토타입
NCS
엔카
편수
대대손손
이르면
향신료
레이디스
어니
509
성인병
주대
가한다
왔다갔다
원두커피
##자매
스펀
치러진다
특종
##네즈
짝짝
머뭇거리
스태그
는다면서
갈매기
노른자
빈센트
##담보
타이머
읍내
리지
거래자
Plan
칸타
먹일
읍성
비게
우겨
스미토모
##통제
민우
ODA
##백호
망설임
제어기
##노당
##르기니
##iron
람보르기니
개관식
선동이
이주노
자료집
변변
전고
아전
예식장
은둔
에메랄드
우석
민노당
보쌈
극작
Music
볼수록
불안해하
Great
478
Wel
메종
산실
466
되도록
방명
아지트
RIM
리얼리즘
Grand
일시불
오간
##테말라
대첩
해수면
수행원
의장단
포도당
과테말라
클루
474
퍼블리셔
가제
가까워졌
527
매서운
에이전시
까만
전점
블릿
야욕
중의원
사르코지
##DE
XR
고프
망이
전립선암
기환
우가
556
iptv
##농사
틸러
##브로드
과부하
빼돌려
내려간다
Pal
##넘기
연수생
독백
타행
물대포
번창
진출로
주황색
망해라
배속
홍천군
다녀갔
나왔었
청량리역
주디
항법
엔도
태양계
울화
##reet
변전소
Master
##달라
호가가
트랜스포
WBC
뉴턴
고달
카일
##바도르
민방위
모터사이클
건성
1450
신우
일직
Imp
김유정
야시장
모카
##룸푸르
##배서더
sub
체육계
앰배서더
투매
현종
esg
널렸
꾸며진다
저학년
피서객
Fab
이성윤
베베
옷감
픽업트럭
ur
고약
그렉
석재
진경
##소영
영빈
439
IND
##사정
뜻밖에
천수
##바라지
COM
니콜라스
아이리스
Development
DV
격분
##atter
음미
뭄바이
펴냈
다자녀
##워스
핸즈
##샅이
권능
난청
내팽
염분
##lean
서라
MAU
ILO
대립각
의장국
호빵
VPN
딜레이
##ners
김지영
학우
과수원
리우스
book
허울
금감위
##대왕
글꼴
칭화
1895
##스태
##akao
디엔
개콘
##내미
청두
샅샅이
그러니깐
##랑크
지하실
Hz
먹칠
##간다는
발표문
롬니
비거리
아르메
끝납니다
관원
컨템
흥겨운
대감
서막
##earning
진우
트랜스포머
얄팍
1913
주형
자투리
부차
비아냥
리거
진취
진피
DSLR
노블레스
471
드미
첫눈
605
##튠즈
##마개
##양이
양제
질지
비협
빈집
아방
아이튠즈
##시원
광양항
Copyrights
야죠
이법
##카도
괴상
기지개
압록강
피조물
나침
한선
시다
원탁
value
##ris
씨알
티모
군내
발품
전리
근해
돌림
##시위
keb
first
사오
##루이스
김천시
헤겔
비엔나
웁
목표물
수감자
아낌없
밀반
보광
송두리
교통편
간탄
내복
얼라
##잇감
##ady
비안
배현진
1550
풍조
Food
남남
조흥은행
실바
요우
청력
맹비난
부르크
성장도
김범수
모병
면세품
기마
기관사
주변기기
496
##바이러스
우터
소자본
플로어
에스컬
에스컬레이터
브릭
강사진
도와야
외동
SKY
나성
디레
성내
##지리
손영
밀려난
초호
촉박
간척
숨져
노재
로레알
담근
훈육
487
갈리아
다를까
건도
비춰볼
포토샵
올린다고
도파
어구
리저
봄꽃
712
스토킹
개꿀
마에
재소
골드바
설계자
연합체
공항철도
악착
아삭
정읍시
##보스토크
##축구협회
블라디보스토크
앨리
은행법
대한축구협회
분원
에밀리
제니스
딸랑
텍사스주
Electron
##kw
살만
터뜨린
현대판
경조사
상품명
산만
SAT
주전자
##무대
전국구
몰상식
선지급
툭툭
재정난
기울인
상트
혼탁
##다비
구문
##얼빈
테타
감춘
망쳤
노파
박일
전력량
까맣
족쇄
아들딸
아킬레스
음파
팔짱
473
치우쳐
##갤럽
암반
글리세
지게차
##계리
##바글
골몰
런지
성윤모
출자금
507
진다며
##스코리아
wto
자른
비말
프론티어
송라이터
찌든
##지심
단임
설파
영자
장화
한국갤럽
용법
논조
Sant
티브로드
내치
용광
토라
감염원
당선작
거치대
순공
벤투
어려워진다
광채
달기
잠실동
카이사르
531
발병률
고용자
알아채
언어학
하얼빈
해진다는
문안
관급
문민
하녀
현물환
##로니
기시
승무
둘러본
미각
적조
차일
걸요
곤욕
West
유노
휴교
해놨
미나미
제끼
스마트카드
휴관
BPA
##관세
산속
예타
##관광부
아브
미쳐서
끼우
분진
스테판
588
문화관광부
Application
##오줌
네비
484
발전시설
은근슬쩍
들어갑니다
##리온
묻혔
지럴
호원
앤드루
##스태프
상륙작전
함몰
청량감
유흥주
오프로드
##쉐린
잡곡
표식
##리우스
미술사
미쉐린
역사가
독립투사
룰라
열병식
요점
졸지
콘서트홀
좋아해
도려내
피지컬
KISA
꿍
여백
짭짤
##천년
잔다
찔끔
##버릇
어젠
초도
포자
DK
아서다
제막
처가
개떡
육계
배리어
이정환
대흥
보일지
Capex
##통행
농법
493
술수
집배
Mx
산별
##케이크
간행물
##채기
헛된
혼전
안무가
link
계산대
놀부
통원
565
모험가
환영사
아의
훑어
경산시
타쿠
험악
내서
552
다트
정체불명
습한
이끌려
보호주의
에너지부
들춰
코칭스태프
포춘
무안타
실력파
초고압
Growth
비니
자간
속박
로지스
Week
불러도
성운
상트페
상트페테르부르크
##헤이
세칙
물밑
기계식
박용진
요람
바글바글
겐지
768
후각
그래미
어쿠스틱
##서명
연제구
Solution
염전
파커
영화인
RD
역발
진군
승부조작
단돈
본디
##필수
##세탁
481
유로파
공유기
조깅
동갑내기
만지작
##거릴
초읽기
##츠카
폐선
라이나
박진영
학동
치워라
꼴값
담보부
박카스
461
떠받치
헛발
곁들인
아르메니아
자궁경부암
Fire
내어
##유사
헤일
##reat
헐리우드
알약
655
GU
새천년
##스트럭처
라가르드
확증
윤석민
##si
##yo
걷어차
콘센트
인프라스트럭처
매가
NEC
House
당께
다면서요
불입
유품
군무
환우
부추길
꺼진
사향
보름달
##verage
병증
받아쓰
정혜
매끄러운
최기
542
사무엘
살아라
전치
피쉬
##손가락
김기현
##리니스트
망자
펄펄
492
PDA
지나칠
카리브
윤봉
국난
어셈
깨알
바이올리니스트
풍문
부자재
##묘지
속기
평신
정신대
스냅드래곤
Set
##슬기
부강
출정식
유장
명수
워렌
계기판
드리블
버추얼
본고장
비틀즈
금메달리스트
sr
실러
용설
근거지
fifa
925
악세사리
빨라진
까발려
이상훈
Science
양악
문자열
노장
수렵
##카쿠
넘버원
거하
건기
깽깽
박남
부잣집
그레이스
선경
침뱉
585
꾀했
닉슨
점쳤
코란도
##런지
뇌리
구연
에워
비속
엿새
장서
CRM
책임져라
원아
현금화
박하
임병
##min
Wr
픽처
대니얼
돌려야
해져야
끗
허름
도마뱀
수익자
나타납니다
어정쩡
격전
투지
여론전
갔으며
고기능성
부어
세종로
반원
굳어지
나았
박서
코로
부드러워
어판
클라라
뼈아픈
신경질
##우먼
고파
에베
주원인
휩싸여
보시
이매
톱니
이청용
은행나무
622
최강욱
율곡
도망쳤
풀가동
성부
룹
##간선
성교
애환
총감
제니퍼
지킴이
2060
Process
618
비업
이끼
예물
엑스맨
학예
기립
뷰어
##uble
김현정
목성
흐릿
광명역
##ivity
팔뚝
라던가
꿀꺽
천변
치주
정치색
가르시아
악령
북서부
별일
동수
상징물
수술실
신제품
국내법
모조
암사
짤막
##렘방
강제성
신증설
팔렘방
NICE
521
non
축구팀
웅동
반란군
전자서명
##wa
인쇄물
감췄
머들
세치
546
비비안
깃들
양계
자차
돌아볼
밑바탕
당락
놀아
따먹
불꽃놀이
##프레드
정심
##간선도로
라멘
창백
친필
서양인
프로이센
대합
엠파이어
능한
염화
외삼
ost
올랑드
대주교
비뚤
##렉터
선심성
1130
화염병
Head
Team
워크래프트
선승
아흐
베기
pH
알카
작단
경제부
맞받
Action
헤치
희안
건너갔
광어
519
막아주
##무스
니치
짜내
하교
호이
저기압
김재규
##안경
QD
Mart
알트
산림조합
화이트데이
Special
##타니
##미화
아련
독학
Pop
mon
이동형
합의체
공포감
들여다볼
##희경
상급자
문파
정홍
Log
다른지
떠다니
앞머리
애시당초
BAT
도레이
조용병
결항
귀경
푸마
클라인
class
EPL
신뢰감
지나쳐
혈액형
겨드
침탈
끌려갔
##접속
##바이잔
달라져
하향세
관광버스
덕성
477
부주석
##지스
의경
폭스콘
민호
보살펴
아제르
못했으며
##irc
준동
soc
RG
서툴
한국남
합쳐진
bc
로봇산업
##rib
페이팔
##낚시
낼지
OTP
틀려
물정
아제르바이잔
덱스
##스민
TW
사피
펠트
Android
526
고조선
몰려가
생활관
엘리스
흩어진
##CCP
호스텔
##갈색
##타스
으니라고
1004
Face
허재
동대구
GL
천인
김병준
다중접속
양기
오시
##거슨
면전
사만
칠드
동서양
현행범
북아일랜드
558
디플레
에스토
유관순
##탐정
스컴
커짐
602
고소인
동일인
셨으니
해밀턴
##타워
예일대
형제자매
방어구
영흥
##거린다
543
밀양시
레스터
막대기
밤사이
##적소
세나
##풍기
으레
북카페
뚝뚝
알맹이
##치미
달라도
구내식당
적재적소
박봉
해장
되새겨
백발
##동맥
기출문제
방폐
정청래
가쓰
체대
나태
최남
기술직
실트론
최전선
본가
판화
459
Your
내후
뛴다
록스
순발
성상
원미
##경궁
백합
엇박자
셀레
용매
소이다
에쿠스
강승
림종
가리켰
수비대
순발력
주비
물린
윤진
479
당함
억장
끝자락
돌아다닌
떨어져도
노통
667
삼국사기
여리
스즈
##ipp
병가
숯불
적체
현대식
디지몬
상수원
죽여라
수형
좌시
그람
도예
큐티
하반
국문학
환호성
바라본다
성결
건전화
실까
기념물
강연자
하이데
바기
가입비
라세
시요
광역철도
Count
##라는
##스로이스
에이티
롤스로이스
구차
든게
야이
635
에이핑크
##공산
##urg
광운
들린
성냥
남광
인권법
test
마르크스주의
##놀림
칙칙
빈손
큼직
Price
신모
Ber
꾸며졌
##터치
매설
압연
니키
오작동
배달원
ecb
혜화
눈부시
윤아
관중석
시달려
범칙
손아귀
올라도
심대
바닷속
불태워
world
적료
전상
##Fi
로니
물으
쉐프
Pat
허경
은어
##씀이
조남
##궐선거
자두
속상하
저항력
KIST
목도
체의
똥오줌
뒷배
562
해안선
##수술
태수
걸어왔
발트
카키
티빙
퍼거슨
재보궐선거
##경색
497
성정
검색창
씀씀이
거렸
속초시
윗부분
제이미
##ius
총지
피복
King
꼽혀
살까
제구
##는데도
낙인찍
산체스
관계없
허둥
도망갈
돈가스
아시아인
REC
뇌경색
최신형
인공호흡
거둬들이
마우
눅
기댈
동승자
##챙이
임파
클리오
작렬
테츠
관능
러서
개칭
기나
지석
토가
고흥군
역전패
시방
편백
매도인
스트릿
합격률
기주
라식
566
경제특구
뒷문
쇠락
아보카도
554
처묵
총소득
경외
후궁
내게는
옴부즈만
쩡
창덕궁
IE
장량
후끈
ADP
기술료
고명
월터
용호
차태현
바로크
방명록
##필름
싱크대
꺾일
성숙기
금남
함구
TU
충견
헤게
양양군
윗사람
에스토니아
배웅
상서
필적
동업
물병
조의
수지구
##백과
벼르
산둥
허심
땅바닥
맡겨야
식전
피운
당나
바베
작명
##번트
싹싹
Tag
식대
걸어갔
극렬
마물
모듈러
예술품
이승기
##eck
궁정
652
선교회
낭만주의
개차반
비관세
수송기
##들러
##지책
##CEP
kcc
미풍
김기덕
난개발
이어진다면
아부다비
##세계
점성
청부
커터
reg
##마이
대납
방만
도사리
집기
1896
자구요
세에
꺄
산위
배당률
617
645
티오
##ald
##ita
구세주
1870
##olf
숙의
이종걸
다도
##가미
레오나르도
숨김
시타
장장
등쳐먹
큰소리치
순금
브루나이
##진흥공사
##구동
갱이
나침반
비와
궁핍
날아갈
여행기
빅터
원해
녹인
##머니즘
올라올
전지현
개역
불가결
활기차
브로드웨이
PLA
포장마차
터프
피자헛
www
라이엇
정두
wti
봉안
태백산
Sport
갑부
용제
화세
551
Sub
군국주의
레더
타박
매달린
무한대
엿보인다
송원
개리
띄웠
Prot
mp
흘러들
002
클래시
삼바
인도적
주세요
떠맡
선릉
송산
위층
페레
RED
네타
오진
깨뜨리
news
레프
work
스테레오
건마
텐션
조각가
심해서
으려나
기본요금
라그나
으려다
고학년
출렁이
쿼리
도미노피자
똥통
예배당
골리
창밖
떨어뜨릴
밝혀진다
##워프
난독
니어
봉송
옥수
Don
눈독
퍼질
##ging
다람쥐
스카웃
PW
워프
캠코더
알마
자퇴
1650
HACCP
##달성
Vis
##카미
동관
등원
여심
미스코리아
##estival
자화상
나노미터
##골프
##바른
무연
헬싱
##tain
시청각
옥순
들이밀
헤게모니
리도
자타
도심지
붙잡혀
옥탑
대학살
집수리
라트비아
다네요
537
701
지켜줄
지휘부
캐머
회심
##라이프
케임브리지
##ids
이른다고
gu
광고판
후강
경남대
Ba
하이에나
예장
학령
이름값
인후
강해서
깔깔
몰랑
특고
수비력
상실감
김완
장한
허황
키워서
라쿠
아우구
목표달성
들어간다는
어셈블리
빈대
뚫려
아차
어나
이탈리아어
##디슨
마일스톤
금정구
성악가
화장지
##루냐
이경민
##메다
주단
송년회
러시아인
쪽방
몰려드
입장객
련관
아야죠
틴트
##네이션
건드려
깨어난
대항전
뛰쳐나
라이플
성형수술
예원
국내산
Mnet
끊김
##aby
Total
댑
들뜬
천적
IL
Zero
고택
까칠
bbc
1894
립니
김정훈
서유
감싼
허베이
국민운동
단두
웅진그룹
독차
급식비
##로프
구소
답례
##와라
음용
의용
로하스
게나
다층
소믈
소믈리에
개울
마고
탈선
티아라
계엄군
필라테스
단아
뽀뽀
골밑
##동욱
##멩이
김숙
논거
서도
시우
536
비노
영통구
원나라
구월
자연산
콜레라
미야자키
원한다고
뿐이
쭈욱
##ulture
나리타
경력자
능지처
##고무
혼잣
코란
가토
Factor
개주
떨구
투옥
이정미
전합니다
##중앙
변색
나빠진
다스려야
중심주의
중얼거리
국토연구원
꼬락
홍제
데몰
심지
도매가격
##iti
도경
오딘
어린이날
누운
##ized
금사
대전차
안다면
오릭스
망칠
mAh
락스
보폭
부별
수종
혹자
715
이동제
벨라루스
라켓
보더
아낙
한센
징집
부적응
언젠간
##규칙
Hi
돋우
월례
승천
율촌
이두
험지
메주
은빛
노프
철인
횡성군
VLCC
별것
고쳤
부마
눈꺼풀
전성시대
##아다니
491
몰아붙이
644
구의
노라면
졌으니
서청
레드카
주광덕
yo
선일
피그
도가니
회오리
삼국유사
퍼블
세인트루이스
러플
스웨터
바쿠
네슬레
배상액
조감도
프리킥
김예
말자
완전체
NL
결정력
산티아
##론을
BoA
air
법전
부교
mob
##사건
##호테
대련
CSP
변증법
표고버섯
갈라져
김한길
생산물
뱅커
##역사
##고양이
레나
보약
Club
교우
북촌
기슭
세탁소
만무
서울숲
Shar
출구조사
뒷부분
신령
로슈
1280
Autom
궁민
의연
사니
테디
김호중
열립니다
오르막
multiple
박윤
SMA
아쉬워
수송량
##수스
감봉
려야
이익금
실릴
중간고사
금하
향대
604
백과사전
눌려
엄포
준엄
STE
##잘못
쫄리
산티아고
마주쳤
모아진다
양모
시퀀스
골칫거리
폭침
key
씨부려
레귤
아까워
켤레
유엔군
올려다보
깔리
유희왕
웬일
조규
긴급회의
도드라지
##효상
난로
##콘서트
윤주
577
서번트
지어서
수료생
##콜리
549
관람료
에어로
구하라
삼양사
폐막식
평이
직역
지환
구린내
홍성군
비바람
요식업
출자자
##ECH
내키
cost
사복
금도
다냐
스켈
주마
다이버
메꾸
725
##만두
rd
보헤
군집
##론을박
대혁명
1140
애리조나
명주
정해야
##조끼
권기
갑론을박
김웅
진흙탕
눈살
집념
Her
길드워
혼용
몹쓸
##AM
595
애니팡
조용필
##가방
##현주
##파이브
사기죄
보그
해서웨이
수빈
##베니아
능지처참
White
고학력
도망갔
우스꽝
cons
외칠
속살
관리관
수미
쳐드
당나귀
나른
훔쳤
공복
쇠약
599
찔렀
채워져
매카
양세
조시
재조합
##봅니다
슬로베니아
삼강
613
오염원
왔으니
귀빈
OM
잉태
오리지날
도외
rating
스태그플레이션
잘나
로스터
Form
Advanced
쌌
나츠
팻말
단양군
빙산
풋풋
빚어질
무배
576
mag
세르게이
hm
##NY
고육
539
수요량
745
국선
왜국
외딴
오지마
Equity
MVNO
##래동
먼데
세키
489
간만에
잠원동
DST
가려서
상주시
허니문
big
수료식
프랑스군
##미화원
김낙
신물
초지
구한다
정보력
한답니다
##산소
제모
싸운다
환경미화원
초장
네이밍
내홍
이용섭
벅차
서드
너트
702
요시다
##hed
##lin
묵념
김영환
1916
배회
섭렵
마신다
##ellig
타월
##편네
터뜨려
미스터피자
Found
응고
##티드
낙태죄
배고픔
실험장
허성
창조주
태평로
관인
하명
배설물
현무
##프로필
부드러
봉산
이무
단신
문병
갔으나
##보감
동정심
찬찬
니퍼트
유재수
구겨
hj
피해갈
호호
##Sh
606
끄집어내
스킨십
0357
반나절
벤틀리
뱃살
여편네
##페이스샵
더페이스샵
OF
국간
대천
지훈
IFC
꾸며져
마코토
공증
하르
동석
발치
싱그
의식주
Java
SCI
Tom
살수
위업
영재교육
장로회
547
페덱스
쪽팔려서
##해졌
순교자
David
OG
Call
보스니아
경운
말초
Cat
량의
부글
하심
가려져
프리젠테이션
퓰
경춘
급파
왈가
##두부
모국어
Europe
##퇴르
##oin
소르
손모
숙고
총독부
발칸
먼바다
인도인
##개토
낙천
남동부
김충
엑스코
##차도
JD
인진
무서움
연산군
아름다웠
AW
603
614
육사
펩시
벽걸이
##더위
General
##과천
노스캐롤라이나
WE
##XX
##고스
격한
광개토
코자
청명
SBA
활약상
어쨌거나
##장어
명창
PPP
정남
시험지
##포폴
교총
쭉쭉
밀려오
호대
먹통
명화
정안
청했
##ji
675
가트너
프로포폴
로동
운동회
Institute
삼류
비합
턴키
포만
WI
먹인
후련
로데오
예산군
기국
지역상
내려와서
강기정
무서워하
온돌
VOC
올리버
원자바오
으란
늘어선
보라매
천문대
가좌
cor
어이구
##동네
라다
깁니다
난생
##저만
수계
##ello
플래카드
끓인
둔감
성병
관람권
조사원
종지부
하루카
독차지
데브
빕스
수생
567
##궐기
진면
폐질
내비친
올라설
유기체
총궐기
사진가
평가서
부추겨
다지기
불자
해일
FCC
고블린
토드
쇼핑백
##개치
마제
프록시
##마시
TL
578
##슐리
도망간
커버드
인시
##클레스
##ret
뒹굴
Phil
암담
541
슬라이스
##블랑
##적거리
사미
##래요
바통
##ives
꼬시
연주가
선친
보르도
동두천시
스포츠센터
##EZ
uae
함영진
캐비
역명
매튜
이미경
조각상
욘
겹쳤
비좁
연근
불모지
훈련기
삼광
생각났
껄끄
Chip
##난성
격납
법체
꽃가루
##ograph
Journal
김환
습식
뉴스타
##걸레
cu
삐딱
치우친
작아
늦춰질
덕양구
미라클
FPSO
걸린다는
561
##매스
빈발
설움
608
보령시
찌질이
목자
쓴맛
자축
553
격언
돌아다녀
##osh
시끌
김태희
쌀국수
추자
다나카
피사체
쏟아진다
##팔이
깨져도
완도군
욕했
Positive
지천
센카쿠
가려진
물어본
카스트
##lection
경심
부와
육회
##갈기
잖니
통기성
마케도니아
괘씸
구와
정진석
제과점
종이컵
따끔
집게
사심
##ures
##뛰드
남정
UL
검사소
데일
승시
화섬
##ector
유진기업
야영
우화
##스포츠
ITS
지배했
김동현
민가
도망쳐
유대감
후레
강간범
죄의식
열창
주라
보관함
캐시미어
철책
##하이오
걸어오
신경망
에뛰드
운동량
기어나오
경공
지발
골프채
오하이오
문종
양진
정개
하성
극비
저상
준영
563
616
내분비
굴기
둘러봤
리액
레인저스
전횡
내려질
카탈루냐
허태
배부른
effect
준장
해괴
이만저만
다의
신평
쑥쑥
휘감
갈린다
XM
니엘
피식
사유지
쏠린
에마
설현
품주
kn
렵
도련
렌지
경영주
온비드
황창규
HC
필명
##정역
귀재
모잠
##cept
548
먹잇감
덜떨어진
모잠비크
노형
##eter
che
내보낸
화강
방주
##ael
노천
RCEP
클럭
컵스
민병대
알려졌으며
##할린
조비
바클레
grow
##ehicle
극장가
가져온다
저의
PTA
기나긴
편집국장
심취
엎드
네바다
상패
라쿠텐
청천
지렁이
판타스틱
관리제
나로호
라카
##봉산
##숙고
혼잣말
##uction
명량
허전
지수인
해치백
##xit
레토
해남군
바로미터
을껄
접안
폴리우
##탄회
심사숙고
##unc
허심탄회
오답
증말
폴리우레탄
억새
우렁
메소드
그땐
완제
덩이
듀폰
소마
변두리
티맥스
비늘
##레톤
##홀름
기댄
지에
공작원
역발상
홉킨스
독사
OR
생과
통나무
반민
감사원장
##amb
문형
물통
박헌
치여
레귤러
뒷산
익스포저
친모
건드렸
패혈증
소성
돌멩이
스켈레톤
재부
AMC
건너뛰
굼
중퇴
파스퇴르
세진
인비
표기법
레이더스
닥스
루리
혼례
풀려났
##gi
길동
데려온
##왕산
퇴학
모퉁이
잔디밭
염료
단두대
짱구
그려진다
지냈으며
알아냈
화살표
군경
동위
수연
약발
##워키
방구
얼떨
574
중고생
ak
단란
연보
풀린다
콘티넨탈
Information
꺼졌
밀입국
클로드
정선군
듭
무표
iPad
강직
기화
빙의
남지
재처리
둬서
란트
심술
유탄
건설기계
라덴
썰렁
가계부
아이파크몰
갓난
Gi
최광
아래층
잘라서
기산
물망
갔다오
뉴델리
구식
화천군
휘두른
##action
제사장
##ᅳᅳ
슈미트
기른
무침
송시
탈의
소지품
표준어
한게임
바이오매스
기요
눈꽃
수신자
CDC
텍스처
스크린골프
NV
##토시
코호
인제군
끊겨
##머드
##ura
가스관
핸들링
신진대사
시큰
징징거리
왜군
우사
분탕질
쌍꺼풀
어렴
##riend
배식
원터치
cnbc
##ets
부에
푼돈
혜리
치명률
이왕이면
어당
터로
부추긴
나타냈으며
훼방
##ays
화엄
목화
안리
공효진
사금융
소강상태
##바인
인바
pos
쓸어버리
제이콥
육질
지칠
부대찌개
##도시
공차
외할머니
뇌전
##tive
차단기
594
여세
공공사업
에일리
배가
백자
심연
헤아려
Mi
607
##노릇
##포러리
마동석
메뉴판
이중고
회복력
오금
할부금
대여금
마쳤으며
꼭꼭
718
모욕죄
컨트리클럽
결정지
고사리
##투맨
극락
능하
판넬
찢어진
Strate
단념
목청
무서울
컨템포러리
부울
SDR
달라요
밀워키
의문점
고무줄
다녀도
병진
브리즈
취리
정전기
심청
##노이드
707
우상호
장악력
청국장
1060
앞마당
근면
급유
크랙
변별력
알파인
##대책
공격자
공리
맹주
RX
매리
사물놀이
대화방
크리스털
명과
선영
acc
가까워질
프린스턴
스톡스
원세훈
남단
멸균
뻣뻣
잘린
금식
불경
##전화
뭉쳐야
발생기
리알
고분군
##시블
담기
이민호
손소
척박
serv
광각
ZTE
김복
럭비
아식
여제
쑤시
취학
영문학
옮겨야
##OK
호명
##평생
관도
Thin
베드로
슬라브
제천시
징그럽
##다닥
외유
aid
##AC
##내린
Mach
##ulation
##오래
치맥
접어드
동양일보
을지라도
고출
단전
##PP
##서양
금색
창안
888
공포심
차일드
이판
게이트웨이
오호
응한
차베스
레고랜드
남여
##자족
린치
큰데
855
콜렉션
Game
냉담
브라이
어레이
##무도
죽도
행업
사하구
연회장
구렁
양화
북대서양
오하
으십니다
고궁
전능
그래피
싸이트
해비
서당
##소녀
##창동
백상
av
sid
밸런타인데이
조나
연극제
알펜시아
거사
연해주
기흥구
##bject
##느질
환멸
##분계선
그라피
발생량
군사분계선
미즈호
세네갈
기념사진
감투
경락
덜미
예문
##민정음
SQL
위정자
이치로
중경
성전환
자급자족
VV
초식
볼라
장강
맨투맨
샌즈
지존
총지출
익사
후장
611
가마솥
진기
스톡홀름
티몰
매머드
맥아더
복합제
임시직
카네기
나왔으며
퍼티
백남준
걸어다니
프리스타일
덕산
딕스
차폐
뛰어가
##떨어져
정창
미술가
캠핑카
소액결제
천연자원
훈민정음
DE
KBL
녹아들
실랑이
싫어한다
Financial
##광선
불충
분전
투정
red
미오
스레
665
약해질
lcd
메시아
##마디
##현수
갈릭
천정배
갑갑
개그우먼
건설업자
오레
이콘
색소폰
##개구리
중앙동
최고액
공기압
시한부
테스코
##정권
몰드
장생
비협조
용융
572
진정서
##바브
북위
지하경제
##개미
##변제
꽃뱀
중가
초계기
바빌
방풍
봐선
훈제
무한정
시터
##나비엔
557
경동나비엔
나감
덮치
체념
승부처
단오
애처
탈옥
주방장
위령
598
##알라룸푸르
볼멘
심오
유준
ADT
이달초
오래오래
광야
금속업
휩쓸리
주옥
호혜
낮춘다
쿠알라룸푸르
##formance
배고프
검소
줄여라
신랄
임안
황선
드로우
에이드
페르소
냅둬
불스
STS
다이스
1903
녹두
##뉴타운
비해선
템플턴
윤호
총칼
Dem
보호사
펜타
레즈비언
개찰
세태
한낱
아스타
은평뉴타운
1860
무담보
남사
사채권자
마계
병폐
비견
방문단
유통점
##oe
당산
전실
##AN
NR
캐머런
유괴
태만
인스트
누그
풍류
##ront
판검사
시제
해묵
835
걸음마
베네딕
##viron
편대
##ious
필로폰
매대
해링턴
브루클린
무직
신석
지움
받침대
희망찬
셜록
심위
부러진
사할린
내열
못살
잔업
칩스
후군
철원군
칠곡군
영제
호송
조윤선
울산광역시
굵기
안배
비뇨기
내후년
윅
경무
잠겼
581
BMS
개척자
올라야
자연사
##매수
냐구요
탐사선
kcal
월동
브루노
지방청
남상
모티프
우간다
쉐라
##거든
기싸움
life
##장소
띤다
가물
기항
지고
돌잔치
밀림
양민
혁명가
802
영화상
Paul
동원산업
##제비
재적
점철
소로스
올려도
외삼촌
##YS
노안
임금제
대통령상
알미
전용도로
루소
백선
##가게
송인
강진군
블레이
준호
라우터
방아쇠
Ca
나그네
찾아와서
프로파일
독살
주리
일렉트로닉
곤지암
카렌
사옵니다
요요
해성
##arth
적응력
하수관
세종대로
볼프
어록
철조
차비
찾아간다
소가
고출력
국방위
정찰기
프리뷰
HB
반시
알지
비상근무
뒷심
가르쳐야
드래곤볼
음악인
조선주
##개혁
언데
방해죄
신파
추안
이명희
주무르
유기물
##uh
늘어났으며
아웃백
##록스
고된
어면
지난날
팔아
넘쳤
밥줄
어물
구전
소기
##argin
플루토늄
##장사
Id
조난
대원군
출루율
차치
블링
OIL
이영훈
York
족장
렛츠
순환고
##imited
##치오
대운하
월지
##회로
755
시스터
자장면
새빨간
도쿠가와
고초
825
프리우스
##딱지
월초
배고픈
귀담
부안군
아이피
이중성
옆방
논두렁
코러스
꿈꾼
남작
573
sol
사모님
놔둬
친밀감
##시아드
668
마르티
유니버시아드
앞줄
노려볼
트랙스
##출자
풍랑
대자보
안철수연구소
Bit
닭갈비
고민거리
단시
심산
저편
정범
두만강
Arch
더러워서
계감
고친
서가
##갱생
고바
예인
##전등
따라올
##amily
아르테
직능
##rier
타악
돌담
##보유국
한신평
급난
대정
버르
세사
윤택
MTV
대성공
뒤따랐
SCMP
자란다
자력갱생
겨를
섬멸
장해
심리치료
index
Nov
동해선
알미늄
인류학
저널리스트
이븐
632
소꿉
참새
571
만하다
머리통
휴직자
MINI
564
하하하
재활용품
레지스
휴맥스
##현민
김판
nyt
일시금
티끌
##충우
첫차
LOI
SET
사회과
색인
시청료
웨일스
합쳐도
1577
연좌
다든지
복량
Mov
어때요
조인식
육감
소연
자장
오리엔탈
##키스
송가
핵보유국
기초자치단체
안가
리얼돌
어렴풋
헬리오
##연구재단
혁파
주택공사
한국연구재단
##볶음
낙오
애잔
kdb
##구구
사림
퇴근길
구릉
벤드
##agon
동력인
요구서
욕보이
##vironment
EMA
데려왔
스펜서
##레타리아
좌전
현장감
약값
569
혈류
김재원
방어선
구시
손등
프롤레타리아
##ylene
bi
알록
미싱
술사
이필
두타
하곤
lo
결단력
레이다
투기성
##따라
609
699
##어낸
이착륙
남주
피부색
##라호
난타
기름진
##소매
삐라
격노
감수성
갔다왔
정정당당
호소문
##dr
##TF
병마
금년도
신해철
##ential
##ociety
나포
아난
지국
다보스
떠나가
##유지
재가
뒷바라지
김국
단역
자소
내놔라
개천절
무고죄
##다닐
걸즈
따오
준가
에인
최연
711
이응
추도식
파내
584
워낙에
그자
와의
친자
박문
예하
암수
유랑
끌어오
라디에이터
WF
Consumer
드넓
했는데도
졸업장
원더걸스
공급원
킵
경재
둔치
홀수
곱씹
봉담
윤병
##충우돌
맞짱
성복
##렌즈
도체
샛별
치프
복강
포인
표준지
현물출자
저래도
1010
좌충우돌
##asy
푸어
양정철
제이스
##대죄
##ini
버트
엠티
fil
임피
컴플
다이너
초대장
컴플라이언스
수비진
Opt
tbs
강제집행
뇌파
변해야
러프
식음
조스
##als
인신매매
##나잇
##은경
줄무늬
임채
다름아닌
633
팔린다
환노위
석고대죄
방랑
808
궁금해하
거저
온두
무배당
온두라스
위생법
똥고집
패하
559
올겨울
주먹밥
형용사
답방
하지원
more
가까우
광섬유
제이크
극지
재봉
영도구
금괴
로터
육즙
피나
튠
니가
연찬
여천
한법
갈아탈
산둥성
##반찬
공종
빗장
고딕
계위
후레쉬
국가인권
뒤집어쓰
##형제
수채
조소
건의문
나아갔
웨이터
메트라이프
##ume
토러스
만국
최석
허수
Care
##센서
민설
구슬땀
느껴져
America
마이닝
갑상선암
sdi
일레븐
기울인다
서슴없이
##활성
바베큐
직수입
성고
CVC
동역
라벤더
우등
##야시
##살개
##헤드
##개장
크루트
Hol
좌담회
좌절감
##nings
접이식
모더니즘
덜컥
브룩스
##추리
##대소
독방
송나라
씨네
어웨이
정밀도
Corporation
플렉시블
페르소나
떠내려
맛본
568
코타
Syn
미향
내한
투혼
mvp
미토
mk
695
리디아
Communication
ez
발린
주현
흡족
새꺄
해부학
커널
역겨워
토우
용도지역
Report
##사의
위키백과
##것도
비잔
들여야
기프트카드
##용준
경춘선
농업용수
##gen
증이
곰곰이
예수금
패악
치적
남해군
태백시
화창
##두근
외평
팰리
592
ret
슈퍼카
##데레
비등
갈라놓
서학
탄두
올바로
주동자
066570
패인
안전도
마초
온양
캐럴
685
문화제
일조량
패셔
황보
몰아붙
재빠르
도미니카
##호란
##udio
폐질환
그레이엄
생산액
원작자
여지없이
김하
익혔
뜯어고
코닝
천연고무
단검
초구
채워진
##els
이일
화형
춘추관
##바드
루니
샤르
식업
좁혀졌
짜여진
레베
알카에다
583
강백호
부여군
입체감
Saf
풀어낸
주희
설렁탕
숙박비
대곡
시로
앙금
탕정
쑥대밭
Zone
역자
자잘
총성
신망
직권상정
남아도
하늘색
농악
책봉
환갑
교도관
명운
재미난
마져
야대
##케이블
청년회
바다이야기
Association
642
661
할리스
Di
폭죽
김재철
부익
신월
코랄
인형극
저항성
송장
사다
지안
스펀지
크러쉬
경은
양현종
개인위생
광케이블
704
##군데
도량
향우회
##ato
귀성
추접
테스터
##울루
고재
호식
법무사
##포도
추어
손예진
##벗고
전공의
송광
으랴
뒤쳐지
무녀
야구팬
##ones
권해
요로
마이카
칭한다
1898
거린
tk
질린
출도
천지일보
634
CMS
대통령실
디에이치
##코아
ix
제미
ICC
깜박
뒤엉
조범
703
삽살개
##선열
함흥
야마구치
##mp
섬김
거북이
레이첼
삼위
처칠
bps
기동전
논객
여차
일희
골조
배영
유즈
김성주
권투
뚝배기
예술제
팅크
한밭
극작가
홍상
##ester
육포
토키
손목시계
##ots
추첨제
늘어난다는
원은
엔제리
속였
향배
보내온
식당가
적대시
오른다고
##사벽
다이어
을려면
삐걱
제각
621
오드
발효유
종주국
이신
##무쌍
혹사
넘사벽
면도기
선동열
약해서
인코딩
공개매수
EF
드셔
적수
청진
Analysis
원호
##uz
무릇
위젯
지배인
기말고사
##angu
BGA
er
만신
##세이드
발벗고
##유진
유별
하염
##아프리카
그러면은
도그
목차
준비물
클로이
JK
전진단
##회복
모병제
와요
불러일으킨
875
매시
부촌
Night
희롱
RPA
엔제리너스
헐크
623
장준
남북통일
##anch
린스
봉고
한불
Thom
소리바다
오른다는
실토
지엔
마그나
벌거벗
최선호
##tual
mbn
##코모
대광
밤잠
유월
집배원
REIT
꿈꿨
스쿼드
트위스트
미호
전석
부족분
입원비
전해액
온타
이피
##가을
토플
power
##게스
##자전
핸드셋
##체육진흥
국민체육진흥
모다
설빙
엠씨
PCA
mix
1897
로버츠
당좌
라티
록맨
분투
외가
겠다고
러시아군
진세
코리아나
바느질
면화
VAN
매달렸
너스레
생긴다는
좀비
수화기
미리미리
##구미
보형
분광
실신
716
아델
시부모
유니티
난지
릴리스
블레어
NAFTA
어처구니없
쿠라
수욕장
복원사업
언주
우완
출한
스탠포드
MU
SJ
터너
김상훈
려는지
격주
최양
지파
푸에르
분석기
얼만데
포항제철
피안
Innovation
메치
이황
찬미
Biz
미행
진땀
합방
행간
권력욕
624
Sin
맥킨지
정과
대각선
석양
여교사
악연
sing
629
김종훈
칠드런
프레데
프레지
순사
메츠
정봉주
삼위일체
선덕
cbs
오리엔테이션
신방안
부다페스트
중략
남서부
꼬락서니
낌
장아
FIU
치어리
린지
이에
조련
출금액
꿈꿔
##라호마
오클라호마
##어치
708
SMD
숙인
생겨날
무주군
총무원장
띄운
하기사
꾸역
낸다면
어서요
##주민
##캐슬
패륜
관세법
이뤄낼
type
극진
트리스
정만
덮인
이설
착착
행복감
랄라
사륜
Band
부익부
퍼트린
Base
네이마르
육갑
최장수
박항
영양가
변천
##ars
숨소리
끼여
##프레서
LTRO
상무위원
##택동
아귀
언젠데
##항력
##나불
매킨
XS
신칸
628
시계열
뉴코아
세분화
주택지
자격정지
앞지르
냉랭
우하
915
보수주의
##집합
##하트
문선
서툰
담수화
컴프레서
##타고
국번
밑천
연암
약소국
##학동
묘비
석조
무너진다
검지
모둠
유색
##umb
일벌
1110
인큐
638
EMS
무기질
정류소
고인돌
시큐어
그레고리
##TD
예후
아랫사람
경자
바싹
예상외
해맑
란제리
포승
라이다
##CH
삼영
Prof
티스토리
##확산
쏘아
농업용
부친상
용평
지축
불상사
화대
##aterial
베른
세대수
붕대
643
김이
떄문
전염성
신준
몰지
원공
건축학
급여액
드래그
사냥개
open
스타리그
갈랐
강운
계신다
##타트
적막
좌상
DG
면발
생깁니다
생도
가실
까봐
낭송
옮긴다
격동
태웅
pb
써준
트래킹
fm
값싸
골동
욕한
실린다
아뢰
취침
김동원
블랭크
이현수
문화사
아이젠
쓴다면
주금공
휘닉스
Water
받아들여졌
우군
631
불신임
꽂혀
GNI
Sem
칼라일
애서
윤용
##ouch
농무
식장
임진강
일중
도르트
##클라
시지
무효화
3653
들추
황룡
올립니다
마윈
감시단
넘어져
김현철
스펙터
항공료
해지지
##부정
##엔진
게양
디질
들어감
목판
추인
황진
훈령
입학생
감별
문젠
757
HEV
ka
김광수
##스윙
Ratio
돈육
리퀴
반석
남원시
mem
가이아
법질서
세탁물
밀리터리
주눅
얼빠진
0054
Spot
문중
몰려왔
초과분
648
박유천
##리자
아첨
윤경
수확기
파르나스
무표정
에이미
불가항력
아이나비
##카나
명색
우열
장식품
프로스
도제
브람
아니할
591
매지
딴따라
트로이카
스트라
머큐
빚더미
청정에너지
growth
꼿
번뇌
649
##고개
본방
Organ
도계
장혁
파미
##ople
##uter
어려워하
지성인
달비
이요
후륜
Road
더뎌
dmz
애벌레
챔스
대항마
LB
688
도미니
뉴캐슬
밑밥
감기약
에인절
##사슬
방석
황무지
화음
휴대전화
머시
뒤바뀌
촉수
672
악착같이
스기
안승
빗나가
##uan
판자
##어머니
조아리
Rich
한달
정각
조타
딸내미
상승효과
##fc
환골
진보당
난이
초롱
리바이
Hand
군축
설경
엎친
##이탈주민
고정간첩
코코아
트레빌
문디
문집
입식
able
iF
ld
마호
Online
북한이탈주민
프러
세목
철갑
증하
##메이카
##auty
군용기
당혹감
압둘라
울진군
##고속철도
##보증보험
자메이카
서울보증보험
보증인
문상
찬밥
박진감
애슐리
독실
페르난데스
다오
도망친
매표소
수행자
덜덜
멕스
845
CIC
중대장
XC
신도림
쓰임새
김치찌개
Fun
국민학교
##테리
변상
##익빈
드나드
환금성
라리
예찬
제쳤
add
강창
미완성
영광군
발육
착지
혈청
724
뜬구름
잘잘못
가느
테트라
강선
빛낸
811
판박이
빈익빈
하마스
Sa
서요
리믹스
장성택
Quant
코지
홍합
화물기
하늘길
태후
파고드
달료
max
파워콤
중책
hs
동공
조바
유희열
이철우
바클레이
건강식
Chain
##협력
kim
청동기
딸려
움츠러
신시가지
아젠
다칠
자작곡
뜨거워지
진면목
##my
십쇼
흘릴
##소판
섬광
알갱이
##ny
가팔
픽션
볼록
내레이션
창릉
랜턴
평행선
눈여겨보
##인간
어링
율동
##raft
선천성
위화감
재수생
참나무
노부나가
##토미
호법
유목민
아이보리
알토
가린다
되살려
박상현
인라인
원상회복
스코프
으이구
##트린
간청
AKB
때려라
특채
752
상파울루
대뇌
현오
864
글래드
금지령
답변서
지켜냈
##TER
부질
억양
기압골
들어내
방사포
최경주
맛깔
바운
UFO
번역가
Connect
되묻
천배
9001
사월
약대
651
FCA
드워프
이주영
##amsung
당액
##토리얼
이뤄졌으며
장호
##ota
박영수
연강판
바란다는
노다
부트
복분자
신칸센
스쿠버
재소자
들어올리
##과세
##vd
아론
옥포
스플릿
콰트로
구서
총수입
흘러갔
폭정
흔든
예수교
떨어져야
Industry
켜진
656
채동욱
어지럼
준다며
##UE
Ho
정운찬
리키
체신
639
란산
배색
암행
하로
소수점
우레탄
대단위
꼬여
서주
언데드
나간다고
극일
노승
성묘
593
번진
토피아
강건
ECC
뭘까요
입상자
wp
신실
참깨
소식지
키퍼
텔레마
앞당겨질
괴테
법회
인기리
특이점
먹먹
연거
##ora
키라
653
버러
윤증
환담
미지근
꽃밭
한줌
##roll
현판식
Wal
다케다
희소식
##axy
도공
제대혈
mail
기겁
지쳤
Human
처인구
작당
기회비용
##계산
일렬
VN
괄호
마유
소버린
##화나
지는
서천군
영양사
아쉬워하
응당
굶주림
빗발치
슬리브
꼬인
논밭
596
달갑
쫓겨난
송창
형세
건너간
아무데
라메
질산
가르친다
로어
부칙
성찬
713
686
Exc
##내장
칭해
홧팅
정대협
비파
사세
유주
보여온
교의
쥬라기
비거
티격
597
반상
심박
전군
온타리오
##참모
십수
옴므
절삭
정조준
inst
##달록
재우
패해
live
알록달록
세실
메뚜기
##프로필렌
국위
##슬레이
미군정
교지
부이
Eth
초여름
어니스트
정년퇴직
구진
수압
윤모
진안군
##리치
떵떵
혼나
##rix
##도사
미주리
rate
구명조끼
재탕
구세군
다락방
물러설
홀인
직매장
짓누르
노라고
누를
슬링
하라
장성군
올린다는
과분
임금법
##레지
공고문
물러섰
사채업자
##후무
UH
랜드리
Ta
독하
스레드
##음식
대창
1902
##TH
천신
동그란
뒤로하
시티즌
방일
윗대
인고
탈리
김지은
막혀서
Bill
왕릉
다스려
아니야
내던
587
##ico
등골
표차
명재
블레스
스팅어
견줄
강남스타일
흑산
영양학
총감독
Flexible
##isco
산더미
##change
727
차이나타운
양용
아수라장
응력
647
고와
통고
김동욱
636
김성훈
싸대
금관
렐라
새하
토출
두드렸
주재료
묵상
문치
##VER
657
아젠다
앙드레
호장
엄지손가락
성배
요크
벗겨지
절충안
주먹구구
종군
해낸다
음절
dB
매복
스캇
제분
진품
682
봅슬레이
582
정은경
관현악단
만발
관리기
담화문
Yield
조마
##난로
HW
상학
소청
홍조
##의사당
1901
주주명부
구니
626
AH
735
윤상현
험담
945
재대로
성소
적출
토픽
##동산
김찬
불러들이
들떠
##생각
에칭
현오석
의성군
차우찬
페이트
닥쳤
청풍
우선주의
678
김영진
봄맞이
##바루
익살
만엔
Intel
류중
점용
플롯
775
천안문
궁예
먼가
EPA
광안리
##부담
하카
고밀도
모이스
##랑어
677
수리온
부셔
빌빌
휘도
젤라
컴포트
문화방송
분하
쓰임
초판
대서양
용모
코시
잊혀진
메소
기름기
동편
문맹
생장
철탑
게르만
골렘
무재
산운
해리포터
난쟁이
티머니
항공우주국
WC
##야구장
경주마
나간다면
저곳
증손
블랙잭
직사각
##틀러
안길
##봅시다
엇비슷
공회
801
창녕군
Board
Summ
부킹
쏠릴
불가사의
전표
SOS
NATO
냉수
루드
슈퍼컴퓨터
도르트문트
노랫말
신가요
이수근
플래트
동아닷컴
민항
헤어나
상당액
강상
건선
##아지오
706
714
감독상
##신탁
전남편
##ison
##노리
##기념일
구해서
달러환
대형차
얍삽
우로
##obe
김두한
유일무이
RAM
##iller
거금
제습
지남
피랍
EUR
ser
순찰차
보탤
오심
종횡
PPL
장주식
위험물
역모
크롤
절제술
최상층
경내
##연장
##기니
송호
크리스티안
쿠니
국회의사당
금은
방비
황새
##베가스
767
김나
유야
쥬얼리
민속놀이
동로
소방대
Geor
662
주목표
라스베가스
조대
사나운
ISP
고마웠
근현대
엘피다
korea
##칼라
길음
사상구
동의보감
차량기지
발성
일등
627
볼게요
풀려난
나시
맹수
마일드
증평군
##경사
가수요
안재현
설욕
제르
위클리
핵전쟁
##모아
원물
할껄
항행
ytn
##개발은행
DART
부산일보
이뤄진다면
Preview
사청
수오
생태학
튜토리얼
AX
분파
조물
윤동주
에센셜
HDMI
봐줄
채워졌
꼬붕
삼호
카약
##lement
뒷짐
재입
그쳤으나
그윽
시즌스
조현민
친근감
덩크
831
Way
유닉스
윤석헌
집합체
##관광공사
1180
팰리세이드
한국관광공사
식후
쓸개
외래어
디아지오
송사
낚시터
만화가
폭군
원투
YES
can
김부선
리리
린카
단호박
라고도
수대
도나
동파
애쉬
한온
스티로
조일
타시
##도너츠
975
던킨도너츠
dc
##코타
신서
임씨
따라갔
단총
벌린
679
732
세련미
Young
과한
캠리
흑우
방조제
타일러
우월주의
하염없이
##튀김
송경
진범
짧아
찾아뵙
혈소판
Robert
져요
갤런
흑역사
1170
하수구
톨게이트
총명
철조망
액트
범칙금
Ke
가당
##파일러
Div
카이저
능률협회
멋져
토네
행자
이뤄야
빈틈없이
dl
카펠
펌웨어
프레쉬
무전기
제각기
##잖아요
머큐리
불거져
641
통제력
self
위험부담
버마
##urch
##연재
바론
훈수
소아과
##사위
신태용
장동건
으름
CRO
다수결
이름난
재벌가
일렉트로닉스
날라가
뻔한데
1339
##일정
열화상
빨간불이
Platform
##팔달
ce
농간
안색
Mal
사통팔달
시티투어
수잔
처해야
한자어
코넬
비스킷
상점가
제초
##소프트
##illa
모나미
메운
##적외선
##CDMA
ELB
결권
바텀
East
빨리빨리
##청역
기근
구성비
훑어보
State
롭스
How
cat
기록원
##만파
고식
김상현
흐를수록
너덜
오리콘
##디다
##젠더
지단
EMP
인큐베이터
더라는
스칼렛
중앙부
##ethod
방부제
친위대
차관회의
내받
Bel
포츠
수초
완산
육종
May
Mil
##섭니다
해파리
양우
홍명보
math
##한시
아루
잡티
총망
유아기
긴급조치
적서
##세라티
마세라티
김아
실격
온데
두려웠
구대
##자전거
재형저축
교협
박장
삼켜
찻잔
버스트
야영장
일념
제다
##친절
총망라
걱정거리
합판
가져라
0354
935
도화선
가려움증
일파만파
##라치
금동
네프
ATP
키이스트
대홍
피혁
일사천리
##반짝
골통
푸하하
Gbps
뉴스타파
##초프
진자
날린다
양치기
권사
다사
범벅
겁쟁이
##앓이
꾸린
방정
첩자
##티나무
보관소
Awards
사셨
액셀
영합
676
뚝섬
트린
ISD
깎아내리
##올림
##윤리
수에
박주민
단물
맛없
결정체
제막식
반짝반짝
##떼기
불친절
캠벨
프티
섀시
리스본
올까
총칭
류중일
매티스
지방간
채워야
레이어드
몰려다니
##AR
##TAR
기무
하현
올라온다
휘날리
걸린다고
게라도
게으름
했다간
##조리원
산후조리원
기해야
2080
Deep
##완다
화평
##그려
미발
산기
##icy
간음
ray
언론통제
권모
까사
정감
동교동
국시
사처
공들여
##치즈
얼룩진
##NE
##찾기
통탄
몽드
우디
시아버지
쫒겨
으라면
억측
점토
abc
암각
Exper
당인
동그라
포터블
With
튀어나와
##타나베
청약률
까사미아
뚜벅
화관
##레스트
589
쫀득
822
##부글
라르
팬더
메자
목매
##lish
안종범
잡혀서
##례문
실실
르완다
##혜정
다님
일월
하한선
강준
이동도
느껴집니다
어메이
현지화
호령
케이비
##ren
Sn
출당
표어
느티나무
포주
##풍경
##zy
민형
##조무사
654
##샤바
안드
흑룡
고라도
##의사협회
휴식기
소농
씌운
##ffic
744
대항해
아틀레
유감없이
범했
신스
서약서
동면
동우
경영지
마주친
변창
상비
유생
TRS
설문지
부글부글
서자
장맛
부담액
간호조무사
##ola
서창
정비사
##ustain
##덕트
ABL
원불교
성완
항전
대나
산사
명탐정
쥐꼬리
안수
point
051910
석수
속단
필링
해보
개정판
떠밀려
독극
카툰
하세
메카드
미취학
여의도동
687
805
프로덕트
떠먹
발칵
NM
왕숙
홍주
이어짐
와타나베
승지
야금
lpg
역사책
고경
마무
##칠리아
##onom
vol
루돌프
집단지
지하차도
맨발
곁들이
균일가
우스갯
##vers
바르샤바
그리곤
연합국
고르기
비웃음
생물체
재결합
group
치울
최루탄
완파
계량기
지평선
##그라운드
산역
치타
개나리
단지도
##astic
카네이션
722
그중
여순
코다
뒷골목
클로버
문화축제
아몰레드
Build
에구
으련
##쳐스
부자연
드높
Security
sa
브룩
까발리
레프트
Fair
opec
마리화나
손재
디스코
남아메리카
##day
백주
김태년
##ih
쇼팽
##인후
##짜고
##ida
BK
개지
인니
체부
맥도널드
김용환
못했으나
자드
ant
바그너
유연근
전무후무
##토닌
물주
비껴
##인후과
저장고
##aking
빨아들이
임택
천한
황금빛
똥파리
보수파
기품
머리채
보살핌
피쳐
오두막
최형우
부정기
펠로시
##커드
노경
느껴야
오리엔트
날지
799
났었
선강
약용
언사
와플
Ent
##살롱
어퍼
든다면
##랄라
##키호테
유산소
성일
찝찝
픽쳐스
상장법인
셈법
아테나
직업인
군더
환차
CDO
돈키호테
제전
창녀
근까
의술
김장철
릅
Na
면했
산식
바스프
몰려와서
##장성
노론
ADR
기동력
Welcome
쾅
##마른
땅굴
커질수록
갈음
##ique
##게인
##디브
##사원
비범
생활상
얼마간
##보건
646
샤워실
Roll
##ful
wr
스필
자시
물려줄
시킬려고
dev
전근대
폐원
포시
다다랐
숙녀
수훈
664
명장면
슬로프
코호트
##하기
싸여
경마장
##덜미
##이몽
황량
보형물
##태격
주이
##프레이즈
Custom
문하
집대성
책략
##ming
774
말랑
비스듬
장충동
동상이몽
티격태격
철자
행할
##짜고짜
날아간
바이탈
암것도
다짜고짜
취업규칙
##장이
아선
658
사형수
현기증
Start
야성
어인
임도
파니
##르기스
WEF
디제이
스투
이하일
더구만
안전관
논어
무뚝
섯
몰디브
밀크티
금호건설
이비인후과
빙빙
불도
해열
log
각층
박노
일고
맞장구
지방세법
황도
어게인
지나쳤
619
클라리
활성제
누웠
원진
노홍철
##비행
쌀밥
집세
684
골리앗
달려와
무뚝뚝
어부지리
걸이
박항서
##아동
따가운
버립니다
끄떡
홈파티
##와르
목련
죄명
킬로그램
시킨다면
고풍
술값
국가관
버레이
수납장
라피
송진
rec
미신고
영암군
##키오
경중
위변
호남선
중이
풀어냈
광둥
신바람
충무공
구울
강만
못내
태전
Outperform
결계
결원
노엘
Spread
제라
효종
var
시커먼
응했
추켜
페가
사타
기러기
정해서
##장자
걷어붙
동탁
태웠
엑시노스
Dynam
##포진
##ips
고병
태경
바지락
살려서
아이린
클락슨
년수
음지
유로스
기회주의
##리니
오기
##호스
무중
대졸자
전구체
남문
기울었
규합
루지
토비
뛰어놀
어메이징
##유주
##전트
어때서
트랜스젠더
일심
Pac
공공장소
내동
악동
재갈
Dub
구마모토
네이티브
지상주의
신길
원석
돈세탁
송전선
오타쿠
##애자
언더웨어
소프
721
919
##고추
공비
동법
733
박세리
반올림
동그라미
파지
영빈관
페어링
플리스
께선
멸실
연거푸
육개장
##fo
비강
스노보드
지켜왔
905
김기문
신인도
나섰으나
분조
조인성
Hard
컨버터블
병과
차서
Dep
TBS
뒤따를
앞당겼
촐
쏜다
그리핀
로카
변치
브랜치
WiFi
그어
하토
입찰자
비닐봉지
으십시오
기능사
윤봉길
통역사
##천역
군데군데
가모
새터
일억
579
엔비
푸딩
국민체육진흥공단
home
##VO
조나단
우영
집유
호중
Sam
귀성객
무안군
캐치프레이즈
여초
팽이
의사일정
급조
맥시
뜬금없
정치범
보이즈
브로콜리
대뜸
면할
앙골
협정문
유치장
들어준
생겨도
##ERO
실베
진술서
차린다
마법소녀
##den
온리
작문
장황
분수대
##iter
가져볼
새터민
증차
스나이퍼
국호
점멸
sos
이로운
Cross
전리품
태진
뒷조사
노랗
가나안
폴리프로필렌
구루
뭉쳤
659
두근두근
##미션
듀티
지은이
군더더기
테크니컬
우스갯소리
루저
목과
얼간
Shop
대잔치
Year
##ien
마이니치
bj
한길
##ancing
교각
큐리
격앙
인공호흡기
##에몽
##왈부
막가
타블로
sn
태고
NCR
네즈
정개특위
HY
탑스
신주쿠
전대통령
순양함
옥탑방
클레임
논란거리
잠금장치
##동아
서사시
왈가왈부
류성
짝수
위닉스
이승철
하다못해
명종
손금
브리스
과대평가
##리닝
야곱
진폭
##돈나
세타
술술
한과
합쳐져
2029
과식
뜯기
박중
뽑혀
오공
착색
간사이
미뤄질
연찬회
원법
반성문
보호관찰
제아
901
상차림
키르기스
봉수
봄바람
에이브
Bur
뒤섞여
산청군
LOVE
부실시공
제례
1440
아일
##협동
둥둥
리에
바시
폐회식
세이프티
루게
일희일비
데즈
가져와서
총사령관
목도리
알아봐
gp
당찬
환관
라느니
비프
cur
거진
깽깽이
성수품
##재그
능사
##김밥
소리지르
문방
쿠사
지그재그
##mun
JO
상저
저금통
롤리
별의
##엔날레
부서진
대상포진
잉곳
지원군
##정화
백년
사분
폴라리스
데미
알티
719
무선랜
이수진
그은
루게릭
사귄
카구
폐쇄성
브레이브
영인
우찌
샐러리맨
특출
걸기
공민왕
박보검
##style
##기물
상했
성안
수어
이철희
후지필름
상책
##꾸러기
즉석밥
박물
천부
그래봐야
##ief
TN
ᄋᄏ
골든벨
이택
met
0034
뭇매
불굴
천당
moon
공설
구석기
##츠크
장국
털기
영월군
1070
##남면
##클러
화근
거들떠
사놓
찮은
담겨져
디딜
백화
스웨트
이완구
강효상
부딪쳐
Ha
윤형
대공원
##자랑
작두
##차원
무브
함양군
가랑
구보
재결
죽여서
선유
임모
신경외과
도회
##망울
이입
aut
소모임
##불퉁
mw
##퉁불퉁
칭할
오버랩
니로
태초
지나온
Negative
랜스
은색
진의
##ites
공로상
천리안
Camp
SaaS
이해충돌
더스트
와이퍼
토사구
야한
여기자
가졌으며
벨로스터
##이트너
637
858
두꺼워
박정호
hw
착잡
차려입
패스워드
##얼음
유아인
파라오
신갈
LGD
별의별
FN
UR
이당
818
조바심
울퉁불퉁
##해방
위닝
##느러미
다뤄야
워너비
##ya
김삼
대설
플레어
데온
사목
송철호
대견
실타
마르셀
Quality
일장기
이어진다는
미자
총상
허씨
파블로
길리
bus
버레
참다
누그러
프리스
올렸으며
변희
고득점
고마워요
밉상
족치
공론화
나갈지
대웅전
문경시
전도성
아쉬워했
##부절
일비
징시
등식
빌헬
오묘
물음표
두산엔진
하시모토
급습
변주
집진
yjjs
안타까웠
캐터
지마는
처자식
평결
##anna
크랭크
프로펠러
카와
비합리
개축
남포
무현
간사장
재정법
어중간
스티로폼
##탈태
갈팡
난조
갈겨
검도
인민일보
Ga
로트
철로
828
대시보드
환골탈태
그레인
알렉산드리아
쓰러질
베버
궁녀
존엄성
갸웃
프로브
아니합니다
등받이
CBDC
자경
철쭉
ess
선크림
신격화
뒤돌아보
속물
아릴
프로판
열림
토공
헬라
성공리
소방방
병자호란
커트라인
거뜬
오쿠
Roy
카세트
산중
김민정
##귀신
점할
철골
맹박
철도청
소린지
냉동식품
내항
제세
##ING
내화
국유지
쓰촨성
줄리엣
하이킹
Stop
헌법재판
Space
##당략
##우옌
대회장
안절
얼티
스바루
당리당략
안절부절
대구광역시
씨엘
671
안겨준
##지막
SOL
사치품
진퇴
공군기지
개호
사공
병살타
주민세
참고서
중성자
광란
남강
물류비용
쥐뿔
괴롭혀
손절매
##살바도르
List
Tour
파로
681
거창군
Land
##ega
지온
특제
표피
바티스
독립선언
중일
가구원
몰려와
##바브웨
짐바브웨
천문학자
학식
형주
806
709
뉴스쇼
완성품
자유형
대했
Mass
무기명식
줄어든다는
데프
연설회
군락
슬하
엮여
토사구팽
##글러
독후
지터
785
EOS
주꾸미
피망
무찌
수료증
##폐기물
forward
영희
오닐
조슈
674
잖어
데르
기어코
데빌
메울
##제프
무감
블럼
리퀴드
치앙
돌려놓
##코어
##런티어
이동과
정의감
퍼뜨린
정갈
차년
게으른
김연철
초청장
Poly
북면
친동생
둡
들여왔
##석유가스
어지럼증
액화석유가스
초회
##코스트
반딧불
콩가루
방유
방임
염장
663
플라자호텔
즉답
진진
포이
환부
##본주의
라일
별별
##itz
성완종
이훈
알코아
카트라이더
다당
무등산
선취점
황우석
수설
회견장
반영구
다닌다고
은영
적패
771
까르푸
미담
pass
그리스인
투자은행
##Tube
도네
연출자
그른
흡입력
에폭
비에스
Vision
Standard
##글스
##아비
성훈
실제론
무궁화호
은신처
깎이
dog
스키니
2250
uhd
어려웠을
미봉
북해
값어치
슈퍼볼
괴멸
김훈
공개념
루피아
명산
pmi
상층부
요구불
펼쳐야
##ISA
뚫렸
865
##감당
북새
아노
역공
코이
화도
위나라
유부남
담자
펴냄
마지못해
잠옷
조오
955
본거지
실소유주
언능
초범
적어지
제조자
안타까울
얼렁
##ster
대분
형형
그만뒀
EY
까놓
연통
켄터
##협동조합
만개
ver
사울
Drive
상피
아메바
유력시
인수인
진시황
개위
준일
면피
ICS
붕어빵
허들
최고상
나다
부닥
##해방군
제로인
##교환
##모자
거란
양문
코네
CON
김준호
Street
CX
살얼음
명성황후
##꼴라
파시스트
인민해방군
항노
##꾸역
우환
엠게임
예속
포일
흥선
##arge
내장재
돼버렸
##승지
노로
태광
태광그룹
아시아개발은행
디피
웅천
##글거리
673
비너스
야마하
##키리
병설
노인회
웅덩이
카메룬
##ender
ts
Glass
치상
꾸역꾸역
그기
정변
지상군
##루즈
독극물
바이럴
행선지
버렸으면
외항
가정주부
꾸지
늘어진
섬유질
껴서
##로웠
건장
놀래
ADHD
라보
진태
논산시
Ox
인덕원
일방통행
돌비
육로
순국선열
얼터
진아
파티션
로드리게스
##창민
##세우스
EDC
이종석
프로스트
LM
거른다
무브먼트
증도
##gl
봐왔
##냉이
같잖
파충
##리에이션
1160
##국사
##문가
티엘
다녀서
레크리에이션
913
ITX
##문예
키타
가지급
개인기
내란죄
##윤경
공저
종대
0176
치카
리저브
스포트
로토
류체
상지
요도
736
BRIC
뉴이스트
000270
내손
소래
쪽박
뒷감당
DDP
고장난
##던가
총애
모택동
뜯어보
이상호
루스벨트
분납
##rough
공중분해
동분
장롱
거머쥔
휘청거리
캔자스시티
Chemical
##uring
테크노폴리스
##슬론
get
김형오
택해
양성자
클로로
##청소
고토
실투
재심사
멈춰서
되돌아오
##룽지
암각화
FULL
페티
Leg
해준다면
적진
689
oid
노브라
연구사
인상기
하반신
병균
저개발
토네이도
예당
대대장
aa
보도국
##위안
문틀
스매
833
미소녀
독박
생리학
manag
맛봤
불난
정소
신문지
신춘문예
관목
괴짜
양초
Ti
감시자
모친상
global
목초
탕수
Are
##뛰기
ADC
세일즈맨
활성산소
HTT
외친다
다르크
##수정
과육
석실
##back
고깃집
어우러
##바흐
홀릭
James
안드로메다
강추위
의로운
기업주
코사
향년
저질러도
##ney
중유
학회지
##패시
##라이어
일정량
저예산
##PR
박리
끽
떨쳤
머독
기동대
커패시
클레이튼
##둘렀
병세
##수사국
그런다
오타니
우스운
손괴
악귀
추해
모노레일
연방수사국
실연
후학
일텐데
양력
Festival
무로
후루
Box
대피소
암웨이
마스카라
고즈
실링
저래라
마스터즈
송어
한선교
양귀
mlb
##협력기금
키노
로빈슨
악조건
탈락자
##슬라비아
유고슬라비아
삼지
##금니
에폭시
##매석
서호
줏대
리액션
정릉
봉선
매점매석
아현
##rial
##모델
##투구
스폰지
that
교자
김갑
백련
지운
995
권성동
비뇨기과
논지
오젠
전시물
gener
가스안전공사
비할
요상
체임
숭례문
##교구
구스타
놀라웠
##otion
감촉
권준
쪼끔
Ann
미니언
자작극
쪼가리
쪽쪽
침전
##달콤
##저러
김화
tor
보드카
Event
상도동
포만감
tra
기고만장
빌더
육교
내보낼
선택제
으셔서
소구
찔려
새콤달콤
##총사
속개
아민
##ESS
웅변
환류
아스카
Corp
한신공영
폐가
##건조증
Track
안구건조증
##대상
기술사
관두
꼬막
매핑
명망
불포화
코엑스몰
케르
이뤄지게
캐리비안
진도군
신계
심전
예천군
5060
입량
최문순
##ister
염력
속속들이
외환카드
계책
기실
공포증
학용품
아킬레스건
투모
트릭스
크라운제과
구위
줄임
ott
난다면
눈썰
무개
썰물
윤도
초사
##질팡
씨제이
지에스
터무니없이
##락치
옆면
골동품
약사회
##절미
##yth
역수
외톨
최치
폐인
리베라
##ima
바텐
조또
조산
탈진
723
동그랗
라이트닝
파머
##컷뉴스
품성
##ollow
김성환
수원역
씨스타
활력소
노컷뉴스
##ml
송하
장용
미쿠
잡수
EXO
Kar
부녀회
운수업
한데다
서병수
##대출
열라
##aeil
마라도
Az
발색
열성
조무
뎌
통일성
걸핏
낸스
먹였
터주
만우
보철
케일
저글
696
남한강
막사
밑반찬
루어
둘째치
메디슨
Card
애국지사
콜럼버스
Press
##ucation
##공명
퍼런
합사
워스
호매
떠벌리
출발선
Saint
모내
ACE
천지인
##annel
UNIST
콘스탄티노
##신항
격성
망가져
Sales
안전판
751
테레사
가이트너
원균
Hel
Rew
##사진
##이라
하이네
현상금
워드프레스
쇳물
She
영주시
일궈낸
제이드
녹용
동티
합종
변화구
##탱이
Private
빌헬름
컴플렉스
##여왕
##ECT
진용
방사광
##로울
동광
728
적과
임실군
갈팡질팡
걸스데이
철길
ioc
문고리
해열제
VK
눈도장
배격
에이프
돌볼
외손
주근
753
보복조치
##tp
청평
세외
학명
화풍
우선권
우주인
스위프트
두리번
수산청
철거민
청운
정자동
693
Wall
##돋이
겹겹
기특
말로
복음서
아무거
미스테리
오리온스
도기
어유
잡담
마셔야
이월드
##새우
##불만
불치
화들
뇌사
쉐리
전민
타들
##급부
AZ
판본
##박물관
환차손
들른
해마
##ourc
접대비
금요
단색
##마이트
해저드
머지않아
VW
은인
탈수
화들짝
김희선
말꼬리
회사법
기냥
지관
메자닌
서양식
교배
탈영
비교적
##orage
웃음거리
##mo
태교
##스티스
##지사지
선인장
일상생활
##bit
어떻하
최태민
가책
준이
DJSI
적다
Vehicle
탈핵
퇴폐
시뻘
완다
mar
스피킹
일어설
더덕
코니
카푸
자위권
직불제
717
고장나
권선구
여겨져
반대급부
대축
의붓
뇌전증
##itter
##도스
립스
스도
웹진
김정호
##ormal
##BE
##다하고
시큰둥
##ENT
다툴
날인
럼프
임형
심복
구인난
스타스
KPGA
기필
798
역지사지
##스텐
다과
때려서
어금니
유리병
여린
허풍
일직선
패권주의
이방원
감흥
899
북새통
035420
말귀
크류
812
기네스북
김세연
따져서
color
개론
but
베끼
주검
통일교
But
##enz
수관
연면
GEM
랜더스
이정훈
Lin
자연인
북아메리카
YouTube
김상곤
남아돌
주산지
##람코
##암호
남가
코람코
걸음걸이
실용주의
669
구자철
수임료
전농
691
전처리
알바니아
하절기
star
결로
김혜수
##가림
내색
인주
개그콘서트
가타
컨대
내어주
복합문
브레드
맥박
EMC
가야지
등한시
모체
다비드
바이올렛
##ws
열선
무역투자
무역투자진흥공사
od
고여
노위
이군
지리학
차석
폐경
베이트
네이버스
웰메이드
호스피스
elect
가독성
해돋이
갈기갈기
모처
토닉
박연차
구멍가게
832
무자격
끌어들일
만병
스톨
중관
965
결정자
장수군
지포스
싱그러운
Economic
귀리
에너
조봉
복원력
##파람
주취
772
반야
부턴가
송강호
진풍경
크런치
정실
지레
Mat
몰려든
그레이드
에인절스
재워
뱃길
포그
DWT
마쳐야
이기주
테일즈
고서라도
블랙스톤
불성
담벼락
오싹
조응
로터리
살린다
제퍼
아사드
희소가치
전기자동차
휩쓴
788
야시
사하라
최정우
경배
778
무관세
레니
내줘
휴가비
##곡곡
카카
산수유
공소사실
명퇴
여래
첨병
918
GSK
YOU
##임즈
자는데
투신사
진접
아미타
재탄
주걱
엘살바도르
##해진
깔보
동중
Sky
방방곡곡
##대국
러일
봤었
족구
현세
대상물
##꽂이
상업화
졸라매
인턴사원
군량
도읍
음악제
최고봉
시한폭탄
군관
석촌
재승
임해야
미끄러져
생긴다고
트일
상계동
부액
전갈
##ather
겨울나기
포름
스타터
평하
권용
만안
카브
rel
취득자
회초리
Rest
그린피스
선석
찌른
탈주
흑마
그려냈
매춘부
알려줘
태어났으며
##경쟁
정색
계산법
발차기
경례
카파
고영태
망가졌
사석
오경
##샤오핑
반듯이
덩샤오핑
주운
759
Ray
멀다하고
##터지
금새
어떻든
##uv
선민
최일
짱꼴라
매일경제
거슬
때려야
니카
헌화
Fact
##건영
패스트볼
MH
남파
GSM
걸세
블락
악녀
혐오감
사택
가정집
고현정
해인사
산산조각
원죄
족부
홍원
써요
춘계
혈투
베링
겸업
나파
이정재
버린다는
흠결
입소자
하이얼
##국가
러스트
과산
부나
천보
스러워서
##텍터
교계
벌꿀
서일
양팔
지앤
743
Run
건전지
난도질
페더러
Son
##사탕
상왕
756
동풍
흥남
드사이
소지섭
##bt
민락
취객
모아졌
부녀자
techn
막지
발식
COP
진선미
Pv
자강
약사법
##투비
##판매
핀잔
꿀꿀
샷건
Mom
다운타운
해서인지
사구
전용관
안료
그만한
편향성
##게트
군구
대범
서광
937
접견실
큼지막
##FL
##ether
오장
김익
미네르바
중풍
김연경
726
Dist
세가
양허
야쿠자
추격전
한술
ces
ng
보탠
높였으며
키운다는
프놈
위반자
저당권
치명상
Ep
세바
염산
글로리
나카무라
683
img
귀여움
정보망
##인상
frb
도축장
사그라들
##봉투
##끄러미
##pect
넘어왔
곱한
내규
##세로
눈꼽
땡큐
교육세
노기
오모
중보
후크
대합실
늘이
Toy
중합체
쩔쩔매
채식주의자
한종
##프트럭
##내릴
##빼미
부곡
쿠마
날벼락
저물가
파라곤
피날레
일으켜서
근위
치워야
크리스티나
United
수묵
어사
서론
잖냐
덤프트럭
##때기
요술
죄짓
피울
792
대여섯
빅토리
Naeil
믹서
##갑시다
서청원
객차
안긴
Eco
다마스
신제윤
선봉장
잦아지
약할
감탄사
지낸다
한올
윤증현
베일리
이승현
##절명
oj
암말
점착
화룡
상승국
괴력
대구대
정교수
역정
촉비
766
감사장
공성전
##nc
정이
FTX
YOY
내놔야
##간판
효린
플랑크
이등
절염
리제
예종
804
거듭난
존경심
스트로크
가택
692
라니깐
미친다고
후사
회계부정
벤자
상현
##orpg
교환권
잡아냈
버시
양서
팔로우
트렌치코트
꾸밈
문회
솟구
스에
갈비뼈
잉글리시
##flation
지용
PSI
##쪼록
기술인
꿈틀거리
지웠
켄싱
파충류
비전문가
윤리학
Term
아십니까
하이데거
일양
흥덕구
망친다
임산물
높낮
비긴
티벳
쫓아다니
뉴노
고대로
관찰자
##거루
##리코
신동엽
이경규
충전재
달랬
손놓
잘랐
불러들여
브래지어
별짓
이봐
투시
729
가락동
카라멜
Video
덴버
래핑
795
God
안전띠
청소부
저류
줄인다는
##노래
범여
##리어트
냈으나
삼총사
시소
친부
김우중
Room
강종
떨렸
덴트
만선
세화
hot
끊어진
##경제연구원
받아들여질
Ur
심석희
Well
빙과
스틸러스
##갓집
자키
주보
수채화
뚤
전말
박원갑
밀어부치
열위
요통
골라야
빼돌렸
##절차
##페르
버너
떼거지
퀘스터
파스칼
##ett
694
상민
748
소외감
819
877
시각화
신천동
벼룩시장
다이너마이트
##그린
내겐
아멘
원반
749
NCT
cycle
연륜
털털
브라스
따끈
마기
도코모
세뱃
시실
청혼
핀셋
##데다
746
개인정보
##잔디
탄로
XML
브람스
Holdings
요긴
Dan
이환
한구석
##200
속리
완납
가차없이
세뱃돈
남태평양
##인사
찜찜
813
스목
양구군
헛스윙
숙부
NSA
지제역
005490
촌장
무관용
굳어진
찬송가
카트리
조디
CCM
중간값
지나간다
803
물으니
Just
난데없이
세워라
심장부
달군
임한
739
담소
직각
처마
741
양념장
올빼미
산로
PMP
드리우
야마모토
922
반민주
고엽
포미
베로
스킵
##세무
허인
항공대
일신상
벌판
소림
후두
##bell
중흥건설
김서
나탈
장근
oil
1055
종현
중주
Bond
아린
##군자
퇴화
드러누
시야각
할망정
##ination
건배
##apering
Mr
##PER
연환
##장학
그새
커머
황의
하드코어
만졌
용언
청첩
김기남
Clean
삼켰
서건
심슨
이고
일언
타바
698
통신원
피난민
##댄다
남진
시퍼
평단
세면대
남선
러니
CAD
우미건설
수달
헤어질
##umber
손색없
기망
대망
희화
926
공동선
비비드
시트로
궐기
몰타
불후
돌아봤
반지하
대식
입행
던지라
옐친
하달
굶주린
##러닝
##압감
엄호
외박
교통난
보성군
출발지
귀기
밍크
대장군
양고기
조계사
도라에몽
Intellig
까끼
아타
기획력
어촌계
907
구본준
날아온
가렸
낚싯대
예프
시트로엥
분한
대인배
키스톤
서려
배당기
체육인
흥행작
외사
파상
의료기
Brexit
네버
박형준
캥거루
상관관계
미어
려거든
루가
다다른
질투심
폭풍우
가스레인지
군도
더그
마개
예비치
전기레인지
속삭이
##문화재단
끌어당기
어리버리
##entity
끌어올린다는
kl
특송
갈라서
조문객
한국야구
한국야구위원회
긴요
변산
인륜
839
##acute
공개경쟁
황반
메가와트
Samsung
tp
가임
계시록
용광로
정당방위
대향
윤두
잉어
##장머리
속도전
HG
야인
절체
##내티
투니
신시내티
얹혀
927
김민석
까딱
살육
얼버
높낮이
부러운
##ersonal
Bio
##하임
들쑤
앉혔
OVA
경호실
종신형
블레이저
해초
밀반입
주권자
776
관현악
관광특구
루틴
춘장
켄트
697
bnk
뽑아낸
박양
흙탕
곡소리
Galaxy
는걸
로디
운신
스카치
신림동
갈피
나눠져
##장학재단
백경
소염
넘어졌
Heart
##우뚱
건양
이참
##베트남
시코
빗자루
권상
사회부
적대감
콜택시
OA
감퇴
마들
안식일
체르노
탐험가
물레
base
스케일링
내빈
으루
##하마드
998
UPS
집사람
투표자
후불제
##르륵
카밀
외장재
저어
추사
이인제
##예술종합
Pres
데카르트
보아하니
##예술종합학교
한국예술종합학교
##광고
야야
Gam
다기능
응우옌
요금소
##웍스
말릴
Cas
에스파냐
각시
중턱
ITO
강민호
철부지
물끄러미
사탕수수
피해망상
##나루
소신껏
베르나
신의주
##미문
##에버
솔솔
츠카
내셔날
레이븐
바른손
인즉
수인선
지하상가
용성
내디뎠
불용
스트롱
유약
방책
조지프
코노미
기엔
단감
장타율
금단
한라건설
micro
버르장머리
sf
골관
스지
한탕
이춘재
##차대
공당
못생
김태영
콜롬비
User
제련소
지능화
크리스피
##ucture
여든
함인
동량
련다
베껴
수에즈
문드
탄신
##IGHT
경비대
안동시
종착역
##fol
밀알
두류
중창
지애
홀씨
수소문
속설
증조
토속
RBS
전대미문
백원
지브
smart
시프
월권
화순군
생긴다면
생지
종위
TPA
##미남
##죽음
쌩까
볼래
마커스
살찌
제타
주야
##근성
난세
우현
##바이크
심정지
상업은행
##met
퀘벡
서상영
What
나타난다는
##타주
도취
펠레
챙겨서
심양
말려야
뽑아냈
투표장
중역
청구자
의사당
조립식
붙박이장
##노조
길림
메이슨
함영주
늘려갈
도합
휴진
##델라
##바시
##장군
자충
터틀
이미선
응해
ESPN
소탈
쾌활
김미화
심해져
오디세이
일테
##ella
Studio
소년원
##포즈
고관
본과
삭막
흉물
경찰차
##요리
동발
청기
표한다
Stock
낙랑
넘김
신권
켈로그
대오
라울
진형
군무원
영호남
루체
광주비
광주비엔날레
##구비
운집
현제
##곡면
서보
암소
유속
황금기
비상시국
##레아
요절
은연
타순
885
789
##벨리
건영
무결
시공자
티즈
APP
낙상
민통
영우
764
메사
비버
상운
성군
용처
야심작
정두언
류준
지동
노동시장
거소
하대
에는
장탄
잿빛
호락
하토야마
캐빈
한서
으면은
투표함
시르
확답
오츠카
그럴듯한
소송비용
인걸
체이
알렉사
학술회의
김재현
징병제
스트로스
프런티어
선제공격
넷북
산액
야훼
여야지
메콩
당구장
##lege
소리야
신현철
##성당
콧대
헤엄치
휠베이스
대게
때기
유광
CRB
로마인
룸살롱
검은
메웠
카디건
석굴
흥부
이증
##rown
814
##덕동
잡아들
##adem
프러포즈
##캠핑
미증
어슬
1830
책임진다
서영교
테이트
pk
얼큰
쯔쯔
칭기
거물급
기여금
돌려줄
##몰라
잠자코
전기장
리의
떠올린다
##ese
게장
더부
크렘
다녀올
오토캠핑
최강희
017670
실공
예명
방청객
엄습
카토
일대기
테임즈
프렌드
합작품
CDMO
처들
갸우뚱
덕지
현준
깨져서
가로세로
나불나불
툼
##금지
##부답
심수
양날
이첩
엿보이
Future
##시피
##쿠젠
제록스
lpga
재로
퓨저
생식기
묵묵부답
사중
해주
936
장미꽃
경애
건의서
물들이
PLUS
STAR
만민
생떼
1030
고랭
여울
아낀
유려
탁상행정
자연어
핵폐기물
##조원
개밥
건반
뒷자리
불바다
762
쳐박혀
1884
Impact
PCI
탈출구
##iment
##merce
기당
다소간
갑오
트시
페그
파베
테러리즘
##두사
깨우치
인전
마이드
차승원
역직
소속감
##퀴즈
노름
분절
소희
카야
뒤집혔
박현주
운서
밝혀서
서태웅
중차대
눈총
벌목
곡성군
김판석
총면적
Dubai
##색색
##raw
만우절
저스트
청첩장
맑스
하승
호떡
담양군
총조사
형형색색
귀인
기필코
박헌영
마음고생
842
드미트리
삼각김밥
경공업
적격대출
사동
적신호
프리티
영천시
국향
해트
kc
이웅
우러러
지우개
군벌
따져볼
벌여야
체고
대한의사협회
px
카루
786
페이먼
피임약
법률가
854
켄터키
휘파람
족족
풍림
앞치마
##철주
고니
displaystyle
노우
데니
호그
지디
기쁨조
고촌
엇다
표범
개척단
문지르
TT
비옥
영과
태형
Environment
##잭션
습자
트랜잭션
##tainment
엄태
자습
폴슨
mmorpg
김기식
류지
글라이
신준섭
총서기
체르노빌
튀긴
행체
Jack
미식축구
어려우나
남훈
매듭지
##oS
차바
코즈
분별력
에리카
축구공
로미오
머스트
멕시코만
앞지
졸이
앞당긴
##hz
오역
754
876
바게트
문화일보
시스템스
민진
펴내
형기
내보이
강남좌파
종소리
영신
836
화강암
회전축
좋아해서
상복
찌들
라즈베리
뒷담
문영
친화력
컴파일
로부
재전
Ros
밀치
핀다
네스트
Nat
꿈꾼다
한국경제연구원
##NK
##놀드
함경북도
수발
고글
미도
정법
재채기
Society
다뤄질
수서역
지구력
신순
##팬지
이지수
괴로워하
##백계
가습
공제액
미쳐도
조성진
주홍
##계산서
끌어낼
구력
비동
최홍
티맵
바쁜데
맨션
비엘
유엔사
이승환
재탄생
만렙
휴렛
처진
985
날아들
유보라
손익계산서
Bottom
product
이외수
테헤란로
들켜
문부
아케
866
924
Hist
붙임
우애
표한
합수
도입부
이혜훈
토리노
마로
장기근
##sa
바이오센서
국운
738
독점권
비린내
환경정화
교파
종인
BIG
병역법
청시
담보물
빚어낸
연결부
병명
안인
자망
축인
005
783
강연료
달라스
단막
으휴
등급제
일벌백계
##IR
맨손
아문
넘겨야
깔렸
보릿
현인
머리털
이시아
##케팅
서문시장
박소
변심
송림
육우
인두
쿠리
권오준
달했으며
반겼
복근
침팬지
0342
루이지애나
립도
817
이뤄질지
떨어트리
742
807
Law
마누엘
배급제
이미드
애경그룹
양곤
784
주류업
봉헌
834
스완지
##ified
앙골라
프놈펜
##루프
로자
수행평가
덮쳤
나갑니다
참상
##분방
총신
토부
##드린다
761
목적물
스토브
지겨워
꽃집
무균
비브
학적
답십리
이누
SoC
창조성
자유분방
새낀
살려라
이디스
백세
월정
무소속
모에
광복군
##수설
VF
오태
회합
물리쳤
안창호
얼티밋
Ol
바드
jyp
이한구
주름잡
지방도
볼로
피보
뭔들
망설였
재선거
홍익표
show
비틀거리
##UC
낙담
이금
##군인
쑤저우
대실
Rep
베트남어
올라갈수록
박격
GBC
syn
미결
감자탕
달라이
부락
산촌
한농
##서답
리용
잇돌
아르마니
##마비
북태평양
##이더
동복
944
영세자
넘어선다
안타까워했
중층
게오르
쫓겨났
뿌리내리
포효
입찰가
동문서답
팔라듐
탈착
마돈나
클로징
Public
##오일
그이
오행
치어리더
주먹구구식
928
마르틴
capa
##메기
##치노
선산
앰버
어윤
대동강
맞춰졌
qr
미장
펜타곤
시루
sum
막다른
WCDMA
초본
옮겨갈
프란츠
호라이
횡행
백지영
성산구
시끄러워
##omb
칭기즈
구립
능욕
산연
세슘
골격계
녹내장
휴머
김수영
부산역
망한다고
덮쳐
마석
서우
골프공
된지
척살
박용만
코르셋
환구
발맞추
이즈미
티에스
강봉
면분
커쇼
도래지
지배층
프리덤
##만치
움찔
자도
sds
귀여워
정육점
메모리얼
##정대
846
사자성어
능청
싸워라
조리사
##azz
사고파
si
뭉칫
826
한식당
화덕
781
유전학
투표지
부산신항
연방은행
844
메탄올
세일러
주절
##도원
멕시코시티
가짐
격정
지세
그라스
진학률
구씨
런처
마킹
무정
902
변창흠
0001
심증
올랜
클리닝
병신
잉카
코닥
song
포틀랜드
늘어져
지동원
##usion
long
아처
1644
색칠
033
사마귀
인기가요
독약
식목
어길
알아낸
##ondon
어렵사리
수금
Michael
무법천지
관아
슈터
총구
이목구비
##응보
피엠
러라
숭이
텐더
포경
KTH
내곡동
책임졌
올리브유
인디펜
##기운
GF
기총
동도
캐비닛
한덕수
탐내
양준일
우원식
작업복
Metal
스프링클러
꼈
샤먼
카노
디에고
무역업
상계관세
셀피
895
수정구
1090
intern
##에리
##프레임
본궤도
사해
매긴
박재완
##INT
반겨
857
SMR
BNPP
에머
NET
##ument
유당
향식
917
GIS
아이작
서울광장
크림치즈
메카닉
1230
인과응보
Share
콩팥
황우여
##BL
##트라넷
작업반
##껍질
##메리
908
nhn
무사고
다크호스
인트라넷
황석
계승자
송태섭
크리스티아
미끄러
##시개
##춧돌
랄프
엮인
경추
소보
휘몰
정해질
꿈속
명륜
백호
일약
734
당귀
성민
전륜
서건창
유천
흑사
데려갔
양로원
판다고
이리하여
장발
흡기
맞바
우니
MSC
호프집
##gr
개전
dec
몽블랑
뛰어내리
내음
매섭
원이
체육부
합장
뭉칫돈
아까워서
##TIC
무속
칼질
782
##음악
덩굴
친교
GCF
가벼우
거스를
부정과
시칠리아
##문동
성교육
해리슨
1190
##탐탐
시저
NFL
지원국
꿰차
신광
탕수육
량도
롄
UK
lig
구박
타올
응모자
입교
ETC
가지급금
호시탐탐
##고도
멈칫
발명가
주춧돌
리니어
몸뚱이
습니다만
스틴
으쓱
APT
유년기
수본
연륙
홍승
강매
싫증
편했
939
이장원
##회담
손동
코빗
결론지
알아낼
##고가
##성가
최유
해대
노리개
무인도
처용
유정복
KKR
광운대
골망
미망
소듐
외워
773
모니카
조정기
증폭기
##운수
김사
제작소
백만장자
수입업자
뒷말
종도
##폭력배
이찬원
Peak
명은
올랜도
가느다란
##파트
불확
태울
763
근접전
정치사
체크아웃
조직폭력배
압살
전골
##rome
758
BBK
ssg
요리법
규현
좁혔
돗자리
이한용
##DIA
궁색
부성
level
이혁
이브스
주목도
##stream
위신
티티
황유
최소화
흙탕물
할복
IBS
##ocus
김근태
수취인
##other
고봉
번뜩
염불
Manager
념
바사
철야
의정부시
한다든가
허혈
덤벼들
호매실
##ray
우타
페타
797
NCM
드려라
어긋난다
어렴풋이
oh
느릿
별점
리볼빙
명대사
##만년
루브르
##교통공단
도로교통공단
##문안
라흐
코소
행정직
지드
779
BLA
승리자
빨간불
무라카미
가우
##빠이
824
SKI
##켐스
FAA
휴켐스
English
Limited
##tc
김교
시린
##rame
Ant
고관절
jw
레이지
작살내
##vention
미하일
세이지
획책
##메이커
벤자민
중화학
상심
커크
053
809
878
약해져
best
##삭스
신맛
애물
쟁반
투트
국립중앙
##목동
묵과
생포
변화무쌍
접객
맛나
에그
Tem
법인세법
노코
대민
염상
캐럿
판이
간통죄
동원그룹
커패시터
깨워
침상
##심증
기포
헌트
미래인
난투
서행
우럭
ABF
디아이
더딜
저압
농사일
손모가지
크레이지
##대회
##필러
쾌유
근종
쪽팔린다
Trade
에펠
농무부
만경
터트려
결식아동
산초
송대
꽃미남
놀란다
문정동
백원우
캐터필러
jp
프래
SAS
중부고속도로
빼액
엄단
서명식
단둥
일조권
동업자
어지러운
랜다
본죽
전증
내가
샤크
769
공의회
놀아난
거국
분다
고임금
비활성
지속력
일루
비행사
틀어지
식량난
한국장학재단
조창
로고스
모하비
호소력
밀어붙였
##쌔신
문동
노영민
소금물
어쌔신
자수성가
지긋지긋하
과음
브렌
천궁
CLS
사들일
뛰어오르
ins
적잖이
졸음운전
역사박물관
엥겔
한용
반신반
최동오
마무리지
재송
계셔서
낯익
용현
마릿수
##anger
백의
우민
홀인원
##egr
킴스
단테
##ford
##불허
김주현
VoIP
막심
전야제
크로우
격침
1885
우남
Est
들어와도
교익
##2330
자살골
순하
주우
헥사
눌러서
비바리
##버러
977
##학파
그년
##불허전
Song
뮬러
##팔로
옵스
##unch
SIM
##브론
904
url
산천어
주의력
땅덩어리
명불허전
자욱
992
조연상
##노스아이
##노스아이레스
##ju
쓸려
결승선
부에노스아이레스
816
비쌀
빡세
양경
유마
미시시피
##대전
현찰
산나물
양재점
##신보
국법
군의
휘젓
영의정
모낭
신소
##edia
뇌세포
납골
박혜
##어난다
##콜라
리옹
법주
허진
김영춘
장기근속
질기
mus
입학금
하노버
서화
선아
건너온
김관진
사진관
은하수
레거
##ache
##몰래
외통
서머스
##농장
저지대
##GS
##차저
린이
배종
창고업
##세상
지유
##대원군
이명헌
마다가스
호족
손연재
함경도
2032
개떼
알렌
##바라크
리시브
유해진
인터폴
페드로
슬래브
전자동
줄타기
어서라도
jb
바질
허드슨
기소유예
파비
##은사
굳혀
본론
왼팔
##페어
Mir
심박수
확실시
거문고
보컬리스트
크랩
GLS
신문고
엇갈려
무바라크
자작나무
커진다는
토바
필로티
매질
엄살
829
과로사
미식가
Edition
떠받들
시험관
산군
인텔리전트
848
다던가
##미네이터
커피믹스
천고
Dom
##yan
등시
GDI
가림막
service
주몽
##레슬링
##ember
관상동맥
Trust
##케이트
Def
오송역
##디나
갓길
울란
으름장
##큘라
싱이
압착
심사위
BEST
##지폐
공멸
낙산
강동준
##dro
궁수
홍지
의창구
스크리닝
##은주
권대
놔도
시자
로널드
기함
장제스
체온계
이페이
자의식
근본주의
파란만장
장염
주막
874
원해서
살아난다
Mb
외파
왜관
유트
탱탱
하품
조순
현영
불확실
Talk
크리스찬
중무장
##FII
입석
트임
활어
MCN
김관영
때려치
리자드
윳
망인
보균
타전
번역본
딜런
DHC
어버버
카트리나
##화폐
터미네이터
946
김수겸
식인
적개
전후방
year
상화
spc
유도체
트로닉
권양
DDI
이지만
Petro
Spring
EVA
성주군
전파력
정성구
##iu
강형
면출
바르트
울릉군
909
냐면서
신입생
약정서
모실
야사
CSO
유학자
##메니스탄
석가모니
광년
긴데
책동
투르크메니스탄
##발성
엉성
낚시인
사라짐
이중인격자
개웃
왜적
페일
박준영
첫인상
##도로공사
Access
##넬라
베지
032
843
구미호
도종
912
bre
네거리
덕트
비겼
사문
엘니
메가폰
한국도로공사
스칸
진국
채플
SGI
##레즈
현은
가정부
장학사
##ker
978
북치
889
전용선
편집인
마요네즈
##달랐
ge
화초
DCF
가득찬
부르스
헤지스
휘말린
전자화폐
나도
모듬
뒤따라야
순창군
최영희
락지
고랭지
그니깐
##unter
위조지폐
##셰비
랜디
어겨
알버트
엄정화
가져간다
##신성
풍무
아놀드
1882
##클레
##바토르
KOF
일어선
카디널
하코
그물망
나몰라
다케시마
말끝
파트타임
방목
##수영
토코
함안군
올라와서
##친구
##토지
문해
났으면
던져서
바텐더
난독증
번거롭
매일신문
RB
##떠러지
감천
다녀가
여섯째
낭떠러지
뉴런
##대리인
##암센터
국립암센터
793
장흥군
글래
인입
868
##실금
##yun
처세
침하
Dow
북두
차르
발키리
강권
레슬러
박소연
한림원
관광협회
쿠시
##rive
시래기
시킵시다
거다
단칸
식육
뒤집기
통일전
축축
그만둘
ratio
아물
##나미
##라구
mo
882
새하얀
GH
살맛
823
득표수
다닌다는
익기
탄천
평강
성시경
에워싸
스탄
종류별
탐험대
화학주
복음주의
Sound
과학기술
##메트
##RY
기죽
하타
해학
거수기
##빼기
맹독
용부
맞춤식
회중
유불리
이질감
##대접
##삿짐
##EAM
지압
함소
이삿짐
박건
조치원
나전
빨라야
항해사
##이용
쳐죽
투유
##르트르
콜린스
KU
객장
두건
비투비
뤄
밑창
비집
수산화
조운
만신창
신앙인
겉옷
공유지
으련만
Block
##발라
풀장
복강경
아이코
결혼식장
원한다는
사과드린다
격기
햅쌀
시달릴
이재웅
Lead
슬릿
##나이더
양귀비
어학연수
조잡
총평
소대장
절망감
폭발력
Orig
무이
익스포져
신앙심
##첨화
애지
운구
홍경
play
계원
국학
민시
빗나갔
금상첨화
굉음
띄울
서준
제헌
##텍스트
##weet
여중생
프랑코
##험자
혈우
903
앞자리
794
뒷구멍
물탱크
##FO
윤선
UFJ
머리칼
저버린
PLC
바래요
서장훈
소린가
Hall
문민정부
마름
지조
887
그란데
어다가
Engineering
추념
견해차
따돌렸
리오넬
마음씨
드라큘라
스테파니
광속
드리워
인벤토리
알츠하이머병
이까
추장
1883
##무네
PSA
Pacific
구들
뺏긴
살생
어데
특감
풀백
##IGS
보낸다고
아씨
한혜진
##ellow
엔진오일
구불
아덴
칼빈
##설수설
lab
now
눈보라
1840
벌였으나
공의
빠져나왔
##백제
물렸
신박
입실
귀퉁이
데드라인
집어치우
주필
중정
목덜미
타이트한
사경
복수심
삼일
양행
지방행정
트럼
837
빠져드
저럴까
Ultra
보인다면서
다툰
댄싱
코끝
등주
노림
몽키
장창
경매장
산악인
횡설수설
932
만료일
저지방
직선거리
당류
996
YBM
QTR
0900
##디젤
##요연
감응
켜져
958
tier
착화
경쟁률
신비주의
일목요연
폐위
빈틈없
oper
국민연금기금
##맞추
누더기
process
##닥거리
Ext
오르간
938
청원군
호세프
재석
탄저
휘말렸
프라이머
재향
해박
##시대회
박찬주
주어질
픽처스
GAP
##츠부르크
공물
못박
재명
대청소
으셔야
절체절명
마방
완고
달궜
당비
쿼츠
##enge
정재훈
경시대회
중장거리
Express
혈기
929
날강도
레포트
올리고
##UA
몬트
늘어날수록
빙글
청일
농장주
변호사법
부릅니다
##망청
target
놓일
쌓일
종교계
황산화물
슈타
까마득
쏴서
휘어지
박춘
952
득실거리
일어날지
거푸
고현
비인
맞교환
무력감
흥청망청
Note
다공
대기록
샤론
함포
jin
집어삼
프롤로그
된단
운다
바닷길
풍계리
바이오디젤
옥타
위독
주구
황지
고지대
추스르
Fort
요하네스
Software
##NP
양시
청백
지비
838
914
미숙아
비대증
플로이드
##토끼
전봇
서부산
Alex
무아
##토지공사
레버쿠젠
겨워
파자
호서
해장국
한국토지공사
백진
##건설협회
알렉산드르
외피
직할
진호
송시열
형무소
대한건설협회
##국민
코덱
도호쿠
소유물
어코드
끓어
892
956
##렌더
월곶
전봇대
Electric
내선
유언장
##간장
가련
가양
각박
압출
요나
VVIP
너클
로케
융성
CNG
끌어들였
##가분
갈고
탱이
정우택
보여집니다
##WCA
다문
폐열
세대원
장애자
##막음
ky
고름
들쭉
##정보부
Hen
뿌리깊
자유투
타라
계십니까
헤집
##웨스트
##기록
##dle
고독사
불충분
유인물
##aj
##개비
김자
숙달
은서
출판계
턱걸이
ASML
Kh
데우
쪼금
철벽
김동식
광합성
동거리
급기
무에
아코
양부
웅크리
경단
고나
입마개
수안
우직
철기
##ening
Flow
##애락
데자
망은
체액
말싸움
가자지구
##흥식
밀쳐
계량화
산조
영전
파카
급제동
물귀신
성업
수도관
소산
익성
김정우
류준열
미용사
##round
때메
백혈구
엘니뇨
장형
프리즈
god
이광재
굽신거리
한국건설
강약
만부
지의
총제
치인
보조제
허가증
키르기스스탄
CNC
고대사
방지책
합천군
바하
엘르
혈족
호드
대교구
##eration
##느냐
엘스
악천후
걸으면서
선보인다는
결빙
오순
출부
카플
851
BPM
공학자
1321
EZ
VP
회랑
mac
걸어도
국가인권위원회
외진
일견
하층민
남김없이
마부
바루
산채
미카엘
돌아다닐
오덕
##댓말
꼬꼬
마임
존댓말
누룩
변위
849
931
비품
921
벌여온
카디프
1024
턱밑
유달리
0682
만리장성
으십니까
가보
음경
빠구리
떵떵거리
##공조
생모
험하
나지완
에넥스
용이성
##범근
##비비
시디
미확인
얘긴데
친다고
FD
ᅮᅲ
IO
언성
한국선
##경비
빛냈
장풍
Learning
복기
미래상
천태
교육열
Code
단공
부석
순박
ACC
들러붙
SPAC
##나풀
브론즈
##도구
##sch
멀미
문업
쇼군
해할
FAO
아이티
양동근
함평군
레져
827
꼬우
슈테
무감각
결사반대
슬럼
없음
886
커버링
##본색
탕평
976
ALL
들통나
미드나잇
내조
ERA
Fate
먹물
저글링
달라집니다
바클레이스
콘택트렌즈
##ste
LU
술병
지당
총연장
내의
선납
물놀이장
애물단지
총알받이
강원도지사
올림피아드
아신
사무원
여행길
가와사키
라사
883
933
갖췄으며
light
##동무
노치
래디
821
연인원
할께요
post
898
가정사
##ising
형제간
깁스
북정
릭스미스
REITs
왼편
회보
연금술사
##붕어
민도
악하
올레핀
CMOS
스트레치
##리언
덜한
어려워져
담배꽁
2150
엔피
아틀라스
언제든지
사력
에우
여회
TVA
Tur
관정
하후
언리얼
##떨어졌
했을지도
중엽
끌어들인
땡겨
쓰라
옷깃
아나키
롤라
##버려야
##eral
강행군
크레용
뒷이야기
인천대교
##뚜껑
도광
월간지
##ension
##ago
낙양
책가방
호언
브랜디
뒤떨어진
볼땐
압송
편치
입막음
##edd
객수
꾀한
도림
이럼
부끄럼
최철
der
굳어졌
편광판
간이
진미
항이
매케인
윈스턴
에베레스트
에보
로페즈
조이스
2045
륭
광희
지창
847
이용규
머핀
아지매
동식
this
Effect
Partners
873
귀양
양인
전령
소백산
수원지
Fast
북단
CCC
역기능
하종
급금
베틀
way
박효
카게
무너뜨린
KOICA
##속인
쇄국
정독
살래
Nav
비상구
고어텍스
담배꽁초
소학교
타르트
법당
Hub
epl
황동
##선거구
##wood
음악원
##통치
kk
여민
다든가
미뤄진
휴머니즘
에티켓
관심거리
##뱃길
흐림
조교수
아라뱃길
##랙스
철군
로타
양석
끌려간
치뤄야
##ville
셨잖아요
중앙정보부
884
YTD
반인륜
잊어버렸
경강
진대
너그럽
청도군
유하
고전압
서울산
##che
이래야
Lock
스러워했
##치레
우신
늙다리
백일장
빠뜨린
프로테
국을
길쭉
밀정
공판장
레이서
막아서
피한다
미슐
서편
권오현
암흑기
투수진
991
도와줘
공람
장암
##푸아
뿌릴
##군요
맹공
872
1040
복호
이더
착즙
교무실
해뒀
나빠서
하행선
영남일보
##스티니
Att
고르바
국유림
불량품
이더넷
코너킥
델라웨어
보나
엿같
ff
배면
무인화
흘러갈
##윤호
개간
슈뢰
속리산
널뛰
장로교
고르바초프
##erry
탁현민
hong
Rewards
##연횡
역마
초단
간데
영체
오솔
FnC
가동률
바알
양방
취식
치세
김재환
mnet
##뉘엘
각비
나왓
드시
합종연횡
Conference
By
천거
파이썬
치민
Que
자격지심
윽박
동인지
##WN
손들
퇴소
한성대
울주
뉴올리
마산합
비웠
새파
결속력
896
usb
web
그래왔
Safety
불가침
클리프
슈나이더
잠바
이정은
라상
좌중
푼다
##장각
##och
위산
투호
디아스
우거진
해석학
##field
리다
휴즈
흥망
빼앗길
스타렉스
더나
후이
943
RPS
달여
용담
정겨운
##초사
군살
씻겨
종중
캘러
Dark
달라져야
잡채
록펠러
병원체
제레미
한가득
끌기
불현
미성숙
밀려서
달아올랐
스케이프
Arm
수호신
웨슬리
페어리
step
fed
##서주
번호표
글리세린
초과근무
인리
제식
워크스
한도액
놀랬
리쇼
ACL
고무신
퍼시스
페시아
##주택기금
국민주택기금
Virtual
근근
맷집
팔레
품작
##리아스
졸지에
느낀다는
비식
송종
프로레슬링
청양군
Sens
design
경박
푸젠
떡하니
##분해성
널찍
내던지
레코딩
싱크로
##피일
다재
채보
빠뜨렸
달마
자릿
김용민
산악회
이주자
타이타
알프레드
차일피일
권정
천년
풍긴다
데스티니
##종기
모럴
ICA
삼환
전태일
ITU
부재자
진인
허남
##공학
예총
하금
MERS
패배자
다는데요
조선왕조실록
군상
언양
에페
WOW
카메오
Turn
비칠
pdf
허허허
mini
039
밀려들
배고파
노심초사
바쁠
Wil
rpg
##노부
ct
대못
새겼
찻집
916
이나영
Color
기집
코요
Tre
키패드
0008
control
김태형
아가방
해야겠
격의
씨엔
푹신
##ycl
웨지
바라지
불태웠
민구
영선
행차
##aser
융자금
부귀영화
필독
954
진열대
간담
796
걸핏하면
국립보건
스트로베리
##선전
김길
족하
다녀와
임창용
덮어씌우
가고
레너
서수
철창
리어드
트리니티
비근
치어
피도
Rh
군필
잔상
진희
김태훈
아오이
생분해성
호라이즌
명치
손승
근원지
미니밴
바닥나
가쁘
거문
래미
레모
범실
타키
spread
##par
경학
순복
##사이더
여름밤
테리어
친선경기
##alt
삼천
004
김관용
방위군
상위권
정제유
UD
곡예
미세화
##ining
##보그
앞차
무리뉴
병리학
버무려
대아
머나
외시
지이
징표
페터
협공
네타냐
장난기
부드러우
생태관광
아웃사이더
이임
침습
장모님
##ii
금자
쏙쏙
태미
밀려드
피상속인
최시
편애
달나라
시달린
서아프리카
견이
언쟁
yes
절대다수
열무
여시
오점
운문
나바로
피스트
841
샤워기
승하차
Wire
에스아이
##bae
거자
선암
이터널
청계광장
에미레이트
써온
종각
종친
하양
867
벌어먹
오드리
구포
에필
947
에필로그
##ues
pga
##숭숭
욕지
##컨트리
규제책
해진다고
##클로스
OFF
수도사
입맞춤
##호락
작은
934
뒤숭숭
색다르
크로스컨트리
예진
학칙
행상
섭정
슬금
적혈
머나먼
Coll
울란바토르
791
Wom
sch
근육질
장안구
1234
클라이밍
##vey
예림
요는
레베카
신호위
번거로운
picks
심평
Summer
자카
스테아
동분서주
##QL
역성
월미
패킹
루시드
브레스
주소창
빠져나온
유통단지
왕전
015
계측기
참정권
1592
몸속
장당
펄쩍
##세무민
단정짓
굴종
우당
SDK
이에야스
백양
일라이
쉬워진다
고잔
낚아
ATS
Only
혹세무민
##덜트
그럽
밤늦
드러머
박종훈
시스루
만든다는
##스퍼
몰골
뷰티풀
0035
Govern
ECM
키덜트
당겼
삼산
자하
몸부림치
요오드
울먹이
전현무
Sand
Offic
새리
엠피
다스릴
다이노
under
SDG
김유신
칩니다
호락호락
보크
윙크
향미
ue
국권
##니어처
미니어처
##iting
솔깃
962
SARS
##TPP
방향제
오랫만
##로더
영애
다니요
이중과세
밀매
보상제
타이핑
##BT
돌체
잡다
스포티
다이애나
##리쉬
굳기
호아
고려사
보험자
부대장
장사치
헤이그
가정생활
불끈
김민수
엑세스
진료실
##사이클링
최단기간
리사이클링
##uce
문외
Boy
신일본
이창호
정치성
보헤미안
torrent
미선
봉양
처제
쇠사슬
플랜지
등산로
울린다
이진우
Kakao
벌기
김택진
클로즈업
괴사
장우
##MH
##시로
남달랐
버거운
오솔길
Facebook
김성현
Hill
포철
냉동실
돋보기
처박혀
겹쳐서
굿바이
인쇄용지
링거
호신
##토리코
무화과
##eline
끌어내려
온스타일
달통
태구
못해도
상반신
위한다면
##보냈
대원칙
이재영
와이셔츠
문광
밝혔었
조희연
##주택공사
##ittle
인수인계
Small
London
William
얼씬
흥선대원군
약방
위사
펄럭
피비
활활
최지성
대한주택공사
##GO
##무즈
포식자
아라미드
을지언정
누런
돌핀
귀기울
실까요
알려왔
##피린
풀밭
906
모트
이쿠
Tel
pay
브랜드력
벤조
퇴짜
OCN
1889
당월
엘시
지한
오슬로
이승호
합자회사
Steel
##따박
##모르
짭새
띨띨
로건
외조
유부녀
##imate
##ado
구치
본류
초면
하선
##절머리
건방지
관찰사
Story
추서
미첼
꿋꿋이
탈의실
튕기
푸코
##박따박
브라더
죽이기
강함
걸립니다
따박따박
##젤로
권부
누에
비탄
홀트
베이더
진절머리
볼프강
최적지
like
##wh
##zi
점액
인명구조
앴
HF
체르
협진
객관성
리모트
부릅뜨
대필
가만두
안전모
##신소
겉면
commun
민병헌
시스터즈
중계방송
매상
고엽제
Cu
젠트리
대백
독기
식별자
기대주
옮겨진
Case
##펴락
그런대로
lov
교구장
아파치
전해들
판다는
홍석천
##앗이
개작
바주
직지
허겁
미시간
인격체
핸디캡
젠장
하와
968
994
dem
물약
네타냐후
페드
전조등
1871
##ONE
##ona
광분
데워
쥐락
##ague
가락시장
쥐락펴락
지킨다는
035720
부존
적개심
카쿠
해줌
##공산당
둔다면
전결
그루브
Machine
Sustain
##나래
앙증
연구용
병맛
팔촌
PSR
##에스테르
수호천사
한재
말려들
헝그리
잡아당기
존비
대강당
자고로
미스틱
클레오
박규
왜소
김남국
Mill
놓아주
빨아들
푸에르토리코
속전
김정민
병원균
탐방객
된장찌개
려고요
속사정
port
귓속
여닫
홧병
노예근성
육군사관학교
미란
흐트러
second
dd
리복
869
Rom
품앗이
chain
로아
셰이크
공릉
당상
피티
MSD
sex
행해진
##엽수
채운다
##ror
자승
김소연
라니요
고육지책
저스티스
##를로
박애
수풀
전람
진언
놨으니
CPTPP
##위복
한사
##pon
늘상
소행성
증가량
역인
퍼준
강설량
쪽팔려
마셜
누진세
홀가분
녘
산장
셀라
##셰비키
##bout
948
노근
넘긴다
바나나맛
Change
##윤철
사담
##냅시다
##8260
전화위복
민아
법석
홍콩항
노태
상제
누룽지
레트로
블루밍
##토니
대저
리란
겹겹이
새우깡
으이그
정치성향
군단장
그리구
마티즈
최빈
배임죄
자빠지
Stat
포리
둔다는
요실금
합계액
국가주의
##중파
재이
배용준
Picks
꺼라
소미
끄나풀
귀태
김계
병단
경징계
레거시
오거리
잠수정
##odity
흉흉
959
LLC
연희동
이민정
민족주의자
##부르
악곡
IEC
에이프릴
##ipe
##ych
손끝
용왕
kgc
코너링
위염
bal
sim
Series
##끼들
격론
산고
점식
하상
997
MCU
화난다
폴리에스테르
라테
##no
##EAT
엽산
##계약서
보행로
Hu
광의
박격포
SMART
1886
2350
소송대리인
1820
쥬스
피질
NEX
글라이콜
아두
Mel
##스트롱
인영
임경
떨어졌으며
##rav
동백꽃
리부트
맞닥뜨리
근로계약서
거길
쌍도
##cast
853
856
펼쳐나갈
메시징
폴아웃
철통
##ares
MER
감시인
이겨서
이종욱
알려졌으나
판지
963
천우
##성사
간증
발했
에트
바이엘
Services
벽보
이백
재사
진웅
김현석
메마른
윤장
##응답
묶였
연개
요주
입선
과메기
##의금
OT
수와
태왕
993
이중섭
카림
##aste
Tax
디셔
879
Read
군악
복학
응원가
##좌우
RI
방독
뒤흔드
파푸아
LCR
전반부
원빈
해원
만년필
수평선
실외기
혈우병
CSV
##In
감나무
Santa
##자위대
딜라이트
대토
련지
우송
장명
966
친중파
##전시
##oice
대학로
먼데이
불티나
온천수
올곧
GPM
이스터
공심
들려줄
무응답
터놓
Nik
박종철
저리도
조코비치
##다랗
탐라
859
흉내내
광천
972
이근호
term
반신반의
고한
둔기
시빌
유메
날아간다
##용차
영작
침출
##스토이
김정환
김진수
붙어먹
브라보
신정동
탐탁
##rel
다매
범상
투아
간선도로
레지던트
시시비비
알베르토
탄화수소
LK
선희
이냐
ear
조신
침구류
##uncil
로세
링스
쌈지
어패
하일
##heim
건설비
머피
박범계
반디
성채
세레나
할망구
백전
영면
881
부동층
장차관
형부
난다며
이동은
해서든
##folio
뒤떨어지
Happy
겼
견책
마한
붙여졌
잡소리
걸출
슬라임
##과천청사
정부과천청사
##지겁
##현희
표밭
불가역
안식처
준결승전
Die
Mad
Tes
수험표
올레길
나왔으니
마이크로미터
##set
식혀
영달
몰린다
봉화군
전담반
페이커
학생증
서승
아열
##소이
오염도
허겁지겁
Champ
구천
988
제주지사
##ala
983
편집부
흑사병
1380
만질
##채무
수북
871
나머진
실학
협잡
KDN
가군
소영
미슐랭
이상헌
헌정사
암스트롱
고건
웬디
텔러
Sat
fin
살핀다
하마평
1680
비자카드
발할
실각
차창
불평불만
김신욱
심인
괴인
923
안치홍
입출력
괴이
돌산
스토아
얼떨결
제퍼슨
한데도
허물어지
반투
연무
탈황
이사야
대현
심벌
반대자
##재기
low
쉬운데
유소연
stx
김병욱
명진
무뎌
야오
근시안
개새
단팥
더블린
참관인
커져서
##들일
기합
문석
플린
##레지스트
포토레지스트
##불급
수이
착복
cre
동력원
##어사
##카인
담금
당가
##조마
미량
외향
##코리아
권은희
깨어났
내몰린
손사
자객
민혁
실라
퉤퉤
##웁니다
컬렉터
핫머니
##실현
베티
엘란
콕스
튜너
ste
관료주의
862
Tri
ihe
김제시
LoL
적설량
##애슬론
트루먼
##계동
##러웠
국원
창공
할꼬
펠릭스
도랑
맘마
왜건
물걸레
수집가
정숙이
##시온
묘수
빤쓰
축성
Asset
961
흘러간
되뇌
기거
냅다
노여
무지한
십일
젖병
홍도
두들기
마에스트로
wm
Dry
갔으니
대서특
엔젤스
##갯속
ah
이심
골인
##진다고
##bert
##izer
kai
사이보그
##사유
악독
##글러스
박주선
불현듯
애리조나주
정함
라이들
폴리오
VD
조구
Tor
대서특필
조마조마
절인
송현동
FIT
뒷다리
재청구
영동대로
고과
류머
아밀
최국
공용어
포인터
집적회로
말랐
김기태
Moon
칼자루
못난이
빠트리
허우적
##자지
##get
가호
Rate
영감탱이
포르투갈어
엌
987
반제품
편집국
더글러스
개청
Hor
서투
##평리
두루마리
황규
돌출부
케이디
룸서비스
베르나르
읍소
김지현
머리띠
결정권자
GTA
부과금
총격전
##광역시장
크레이그
##어찌
김헌
저열
치국
헬륨
쿠르드족
Island
##무휴
894
게으르
세상사
순간순간
눈물나
연중무휴
법망
화동
##신세계
CIT
이석채
feat
잘츠부르크
College
내친
산요
화수
플리트
물고
##ersion
LAN
드래곤즈
톨스토이
##선택
원권
해롭
화투
노부모
엠케이
출입자
861
957
Mini
미니스커트
계간
금기시
피서지
축약
정신과
Strategy
광주신세계
비쳤
소고
잽싸
리카르
peer
##망정
심령
미디엄
이재원
활물질
호르무즈
Prov
Daily
Oh
털렸
가족력
이창용
자폐증
스포티파이
##양속
##자이
비올
위폐
YWCA
미풍양속
으셨어요
신교
황자
교통정리
에마뉘엘
울트라맨
##청자
방벽
걸려들
뒤바뀐
세기말
다름없이
떡갈비
조선조
북제
뺨치
진액
확전
##푸라기
949
깜빡이
이종혁
칼바람
준다는데
##제도
##ban
오웬
울린
##매틱스
unit
수육
츠바
털릴
밥벌이
이동훈
해설자
information
##따로
인마
전어
추호
979
패트리
명석
별정
모성애
옥스포드
다닥
장희
투비
야적
데이지
큘러스
병목현상
호연
고즈넉
원적외선
FULLHD
키치
한석
##chor
부속품
티타임
도진
사천왕
##RU
##구안
##lor
닭발
폭식
법체계
지멋대로
무과
바운스
조혈
HCN
더하기
본모습
More
강훈
범퇴
아파도
##acity
진관
침울
몰아세우
LCK
독후감
저고리
나달
냉동고
아세트
흩어졌
Adobe
여객철도
##날쭉
뭉게
산파
창법
자충수
코소보
피험자
리들
씩씩
공격진
티구안
들쭉날쭉
열린다고
##ops
끌어온
문정인
타노스
외할아버지
강문
고결
흡수력
위그
창틀
계신데
둘러앉
베르트
자이로
소바
Watch
##셔스
후후
면서도
카카오스토리
##PL
업사
용구
최서
사포닌
라이온스
##aur
대잠
들깨
위첸
극우파
비행선
시킬지
허탈감
저상버스
윤보
##카라과
김세영
야마다
call
둥이
발상지
부려라
기연
딴판
원흥
타산
엑시트
파괴자
Cy
Kr
졌었
7080
오디오북
유형문화재
##댕기
##뿔이
##펙스
고진
어투
캐내
map
감시원
설맞이
본위
비룡
애석
982
Jan
들어올렸
##ko
주루
순두부
구족
당제
방바닥
##aging
##ibility
LPL
경비정
연륙교
증표
풀기
뿔뿔이
나타난다고
##acc
멘스
Heav
진흥기업
설원
미심
올리비아
유소
국철
박도
비경
개발력
대성당
##다행
##디부
엑슨
떠돌이
어울렸
중과실
최고조
선덕여왕
du
도관
##력발전
Every
##즐리
##필수품
구구단
이재성
차려서
케네스
휴무일
어루만지
부생
어거지
1599
##osp
정곡
##터미널
897
대갈빡
생활필수품
텔레매틱스
##보고
##for
멕시
sun
김동철
YF
산분
야탑
AUM
CDP
건널목
1865
할게
학습장
곤두박질쳤
특명
풍향
낚이
성덕
풍겨
ios
갈비찜
홍성흔
떠라
밀어내기
##샤르
이은재
조총련
중개인
##니클
재할
침입자
IU
답안지
쇼핑객
천도교
##ogether
##샤인
UM
식신
안갯속
연장자
출신자
이른다는
Touch
바꼈
윈저
##omet
자치회
Double
##의동
여류
으스
거명
찌그러
##부단
Season
앱스
억만
오냐
호강
로이스
황해도
솔리
미봉책
function
981
금시장
흡인
OIS
형이상
상연
##민은행
고동진
누굴까
광주시장
니카라과
##ocking
스푸
휘어
흑석동
공동생활
헤라클레스
##라트
카제
Sea
군의관
서소문
##디부아르
NEWS
##중심
노진
당청
오신
저소
갔으면
보호구
비행단
1888
코트디부아르
##착증
부로
서종
차압
헤헤
942
우유부단
##뱅킹
관가
맞아떨어지
정환
피톤
APC
따움
부질없
잡아들이
갇혔
렉키
상측
신신
안산선
막후
박성호
최하위권
short
은화
지층
##원숭이
##ants
Bad
반다이
브리프
동화약품
테니스장
귓가
##방편
##비지
ᄐᄐ
남색
남창
간다며
점쟁이
팔달구
호응도
비슷비슷
중국인민은행
##부자
중등교육
도톰
조은
863
여겨질
잘라야
##ea
너울
이상득
쓰레기장
가톨릭교회
물불
미실
산들
김혁
대봉
세교
토일
Det
걸어갈
실국
장덕
dvd
꾸려진
펜슬
KED
김승현
해졌으며
012330
키아
DAY
##세르
진건
외아들
##장터
WH
셋집
속절
발신자
뒷목
식혜
미착용
협력자
염태영
영업비
타협점
1893
생물학자
꽁치
멈춤
짐짓
나라장터
##방관
금산군
행정청
1320
써놨
실리카
외관상
##내동
고린
도륙
부보
언변
조승우
엘렌
893
mil
서이
##anguage
iT
양어
감리교
바바리
어나더
##주현
보냄
##cean
감비아
패션계
협착증
##슬금
용석
임시방편
##레버
글램
급소
Get
김영록
대동맥
스케치북
AO
우박
진앙
war
개인사
맞춰진
천만다행
분비물
주지훈
헬스클럽
##inger
바람막이
사량
천치
슬며시
주입식
길고양이
XXX
헤일리
방망
윈스
팝송
웨이크
보통학교
##amental
조리개
매겼
반했
정아
제척
986
에이커
acid
가까울수록
고사장
발레리나
유빈
Jul
FLNG
##AF
루팅
헤로
gtx
씌워서
구아
모멸
카슈
펠로우
논제
나무숲
북적이
불성실
사브
전패
내렸으며
몰래카메라
레브
멸하
호랑
차오르
##풍력발전
Film
##uy
##스키스
블리스
수수방관
해상풍력발전
너라
무능력
상역
##게이츠
블렌더
에머슨
food
미혹
주려
접한다
헛웃음
인기투표
페르난도
서럽
조삼
가디건
분배금
망발
멋쟁이
바라봐야
891
벼농사
보수주의자
##aff
대판
발가
세코
양씨
자대
잇따를
젝스키스
Single
들녘
하튼
서곡
식은
콘트
건방진
일순간
슬금슬금
로메
전여
지킵
해국
펠리페
Store
##노바
시는
식생
실란
967
경찰력
MACD
깨갱
애걸
공수부대
##ni
삼풍
식은땀
신조선
##앵글
송현
태원
상황판
내려와야
꺼꾸
경화증
짜임새
NU
애저
지닐
땀방울
비이성
꼿꼿
반색
우월성
##난리
종별
대림동
결기
말짱
북진
소분
쇄빙
조안
높여서
발사기
에둘러
964
최신호
ISMS
극동건설
Enterprise
긴다
비루
연시
941
Device
##다능
꼬나
계획법
##타우
배씨
중매
입금액
##초가
견도
연녀
포비
이동욱
안행
내세운다
##우에
실향
신고식
으르렁
HDPE
band
러드
절판
명문가
애자일
list
스카이프
라인하르트
##뮤직
대참
악담
차안
첨삭
한패
이경수
##들린
훼미리
알아차렸
챠트
헥터
줄서기
2750
룰루
도요토미
노림수
레지스터
즐거워하
ht
단디
잦아
TCL
추모제
악습
Inf
바바라
##plied
##kh
황국
선수상
KIND
다재다능
느림
염동
음운
엑센트
장근석
통화료
##천만
IW
박승영
장윤정
민어
사제단
크루셜
Main
해비타트
마다가스카르
하석
969
감미료
##Drive
버드나무
졸렬
Word
부적격자
##이인
헬레
inc
김희철
uefa
끌어내릴
구파
비실
양점
원경
태인
플루트
산당
케라
화폭
최신식
자학
주승
가용성
서피스
icbm
보비
미비점
원로원
사면초가
Op
연접
윤치
자연수
정수리
only
아진
##데스크
끌어냈
스위트룸
##사우
감압
써내
효시
늦가을
시켜도
##불란
실타래
우범
인줄
카도
주목적
가정용품
난시
송료
장폭
낀데
고강도
복귀전
##ander
flow
고도성장
시켰으면
##어른
함덕
퍼뜨려
튀어나왔
##itical
교산
기개
엔디
##KI
##pha
서모
충장
김진우
정치부
##캐시
치식
CRT
텅스텐
아마존닷컴
이운
픽사
겸영
글썽
안트
잇속
난소암
서교동
움츠러들
나타난다면
##상사
na
아스피린
집정
비바
포라
이데아
econom
##수일
운주
충렬
풋살
Ig
육중
통렬
봉사상
제트기
노신
베컴
##ales
내다볼
빌게이츠
결방
저인
옷가지
##bor
들뜨
백산
트였
Squ
구독료
김정희
놓쳐서
메뉴인
두수
식충
아영
인절미
발랐
Map
Conc
아칸
퍼터
레보
특법
피란
내몽
마레
풍겼
971
유도탄
##봐라
##티에
남재
명왕
티센
미란다
떠나보내
##쩌민
곧이
카고
바리톤
장쩌민
운동복
건넌
러서는
관군
데오
못나
미타
보노
문제아
일사불란
문현
의당
##앤캐시
싸움질
러시앤캐시
##IME
한나
Tok
책망
걸러야
군위군
1876
##hib
##atory
부들거리
##연자실
개장식
##ani
어영
홍종학
Entertainment
벤쳐
삼우
조예
##리스모
각축전
된다니
지질학
망연자실
민군
준석
천편
조현준
크리스티아누
##려는
전란
탐관
창조자
청원서
Package
오구
용퇴
강제력
김용태
사람인
적혈구
트란
내려도
울화통
유연석
##티컷
겁내
미천
새까
신지애
pack
zone
코네티컷
노병
땜질
치켜세웠
프로리그
흑색선전
헤드라이트
미켈란
버팔로
068270
개중
로티
##스코니
Old
어찌어찌
카메라폰
##사귀
##종이
##ros
온유
최북
건드릴
이영애
슈프
stop
관입
재제
##ista
##면체
제액
텔링
기준시
마네킹
##린데
설도
이재만
트럼펫
데어
부순
코모
항간
뒤흔든
##루스코니
1868
거여
만덕
종기
동대구역
불연
은디
Wii
넘어진
보균자
model
백현
아둔
프릴
##드리안
SEA
김재동
잎사귀
결례
##adow
드레서
두근거리
kaist
##분유
삼남
ton
유니슨
##jo
심방
폭투
빼앗겨
정경두
프락치
철구
캘빈
##부발전
신봉자
0157
BRICs
베를루스코니
박혔
아톰
##싱턴
환심
굳어져
실내악
안내원
프랑켄
일성
1220
대표소송
한국남부발전
질풍
신심
풀잎
자일리
차범근
금당
미곡
오피셜
까짓
속세
엄수
전병헌
토레스
통일로
홀짝
안정환
우러나
##반지
즉결
nhk
앙증맞
냉감
세공
나빠져
지중화
차선책
SOTP
##방아
렌치
문도
정금
충혈
조슈아
주인장
1892
니콜라이
햄릿
OL
잔뼈
Add
임창정
흔들려
피노키오
##백백
타짜
가려라
긴가
석자
##속임
가희
경서
박우
움푹
익위
수열
써낸
두려워서
자면서
##환경공단
##뱅크
주철
찜통
친딸
북극곰
한라공조
함경남도
##노기
극구
복날
엔가
원님
타츠
최빈국
한국환경공단
Education
악셀
어패류
눈속임
루빈
HDI
TRA
으셔도
중국집
흑산도
Material
지혈
##rum
##바가지
시위자
주최자
##참시
굴림
림프종
몰고가
등가
용마
인거
하이스
아카시아
해관
혼잡도
마소
암투
합주
##enue
개노릇
순례자
한다구
홍문종
내린다고
마태복음
명명백백
##조개
슐츠
소모적
청개구리
##인해
상속자
알려진다
절치
야생화
SHOW
시원시원
고행
초경
간척지
부관참시
콜로라도
경적
vir
차떼기
##attle
EDCF
친위
테인
헥타르
공서
BHP
구소련
미터기
민형사
밝아지
카디널스
자를
INC
##hings
fund
로케이션
##구치소
옥사이드
##UP
오달
노년기
##고비
들꽃
마를
상산
축재
프탈
허언
##ession
##부심
광견
부셸
enm
영장류
EGR
후생비
##장갑
개화기
Motor
margin
bg
불도저
코크스
아카데미상
각목
용촉
출주
멈춘다
1260
무용가
차두리
커머셜
##기현
##된다
먼로
상벌
MLC
부린다
치바
Miss
PASS
잠룡
RPM
Module
부력
오뎅
추녀
BTC
피케이
방종
안톤
고사포
연극인
젖꼭지
기울어져
양판
아르카
인질극
##eri
굶주리
스티나
pa
부신
감속기
노숙자
법문
예열
최충
후난
게거품
성숙도
한국선급
##신안
##ulf
남초
망덕
봉이
샐리
연줄
파다
##unes
쉬워졌
Income
##촌면
행단
##터면
쉰내
출정
코브라
##HB
숱하
SPF
김주성
부여잡
급랭
랑스
BIM
발행일
자유도
하마터면
##iction
부쳤
Let
훈련원
호지
김주영
개런
노도
진노
한유
EMI
헤이즈
딸랑이
TIPS
와이어리스
불러일으킨다
##더지
##천외
허튼
화호
##msys
도종환
부러우
일체감
##텅이
QTRY
기상천외
로비스트
심우
951
##후퇴
그렌
##나마나
거포
반스
김태원
김희정
이사벨
에어아시아
다래
##ufact
연극배우
ldmsys
도담
못다
오용
외설
장광
재식
라모스
탈레스
특허법
알란
옛길
지명도
County
베레
예뻤
유석
SSL
변희재
실용신안
는고
용소
입산
홍일
##보일러
성장통
dream
##교역
시류
아궁
페닐
버나드
사이공
Radio
각고
빈축
세용
드레드
자랑거리
재래시장
##CP
학수
응원전
화장대
이갑
젠트
##습니까
운동원
보나마나
극빈
소거
크릴
경기후퇴
##wan
걸터
게인
방판
야로
전철역
Wind
##과학연구소
사성
##대병원
첼리스트
국방과학연구소
##돗개
베크
1848
도굴
윗분
인산인해
리핑
맡긴다
진돗개
인사이더
##어져서
김성호
오연
PIC
플로팅
로체
문천
평전
홍은
베이글
소인배
##독립
##MAC
포조
감자칩
김유진
##도르프
조광조
호박씨
극악무도
Franc
Earnings
구테
흑막
녹음기
문질러
스스럼
sil
불러다
사토시
홈런왕
발렌타인데이
병충
붓다
비구
##노리카
DAC
페르노리카
버클
분모
창투
푸아
##부사
고막
배향
스네
신유
타트
개종자
함소원
대기전력
공역
경사면
김상수
낮춰서
무거웠
야구팀
한다기
Money
별난
추풍
그래라
에누리
틀릴
한동훈
복사기
##뿔소
QS
강촌
건진
다이옥
입안자
불법성
따라간다
보릿고개
볕
무능력자
이어집니다
아제
참판
케니
클리셰
한평생
##신경
부림
분변
팔각
황장
https
##ks
띄어
챙긴다
Gall
까리
황가
선샤인
풀코스
This
배알
주봉
김현아
1002
또박
상감
기사회
락다운
잉크젯
##세다
씨방
온달
솟아오르
##근영
017
974
시끌벅
kj
셔먼
우포
055
고승범
1866
Peter
##밥솥
##adi
먹혔
서다
복고풍
엎치락
Expl
network
달고
애먼
해탈
김석동
김영호
진해구
개발은행
앙심
조체
Aug
김형준
소상인
전기밥솥
마필
카모
atm
서랍장
키다리
레드삭스
서전
카보
야만인
로베르토
나이트클럽
냉이
치질
홀연
가고시마
##강정
단박
현철
가소제
지켜낸
불러들였
누보
수뢰
수차
칠리
Ren
불치병
##Guide
메이커스
##망대
까부
이새
진제
Gar
##마사
주술사
김현주
벌어들였
말일
분임
비포
동남쪽
수정체
번지르르
인서
Gap
PSP
글씨체
##iger
아서요
page
과산화수소
문화상
불시착
gap
##alyst
크로니클
마산합포구
수도회
spot
카스트로
##동락
송명
승상
하디
Mount
##ᄅᄋ
막시
박달
성빈
화양
메모지
에비앙
시즈오카
교하
촌놈
치곤
황족
숭상
차녀
Station
##남북
##통첩
대초
로야
토닥
eng
광양만
베스터
산자락
강적
만고
문짝
진저
루비니
LVMH
project
가본
삼전
곽상도
##텔라
az
낱개
렌스
부스러기
최후통첩
을꼬
박해진
앞가림
야구부
이지아
카펠라
Shell
겨드랑
비올라
빼빼로
UCLA
pres
도미니크
조손
마셔도
이서현
저작권료
산타클로스
##속결
망함
HOT
이촌동
정명훈
만지작거리
미라이
에테르
##아키
감영
죄파
콰이
CAS
##ended
평안북도
암로
Medical
##ja
##훈장
단인
랜서
선열
정병국
속전속결
##테이프
내려져
매듭짓
##agram
다이옥신
장물
희희
##load
Fall
원근
1210
자파
SRI
부정맥
룸메이트
선관
청초
콜리
SPS
정홍원
파랑새
##xy
메테
아픈데
주소록
full
##주자
화곡
모멘트
##ui
철철
피니시
깐다
브란
에잇
지하도
닝보
##난방공사
드리프트
한국지역
한국지역난방공사
도슨
SEO
##hs
008
PWM
국산품
으려니
##암역
서철
에틸
봐야겠
지푸라기
##마일
##무야
현성
도독
슬레이트
개인차
헤르츠
mt
게스
꺼질
남우
어문
화우
##acle
공영제
김보경
유야무야
Source
XI
앞산
수사학
black
##폭스
건드린
요리조리
도킹
원유철
금리정책
PvP
김현종
레일리
가진다고
물개
cal
체어맨
가여
도우며
효과음
정사각형
카봇
DCT
##특권
멈춰야
자일리톨
OH
불효
알베르
옴니아
줄넘기
뉴올리언스
연로
조촐
STRO
조석래
##ky
안내견
납북
##청소기
buy
박정현
턱관절
진공청소기
루주
패왕
CMI
제초제
터트린
휴비스
대원미디어
조반
황과
뒤섞인
이지영
동부간선도로
##inh
야행
영외
지서
##룰루
##번호
공량
킬링
특대
정규장
##잣돈
코퍼
EEZ
보신탕
연좌제
도탄
후리
먹여살
파라솔
Player
##면서도
CY
CLA
사학자
##노동기구
넘쳐난다
국제노동기구
##루트
2070
##작업
왈왈
호놀
막국수
부딪쳤
앵그리
호놀룰루
##공론
만치
민석
삼월
청법
트라이앵글
##INE
봐준
온당
AMI
김하늘
운동부
위촉장
mr
얼릉
나으리
려구요
베트콩
김정현
중앙역
마무리짓
##active
##cn
위패
모여든
슈로더
엘라스
제이엠
##가시
##블던
글렀
발밑
옹립
마친다
파렴치한
꽁짜
분도
super
애액
오광
천과
성북동
페널티킥을
Visual
교조
늘씬
쎄미
쓸까
카르마
콧구멍
##디나비아
0101
스칸디나비아
순백
강동원
은연중
##꾸라
석패
연예대상
##만화
##어물
##칼슘
##티즘
채워서
카페리
판교역
동서남북
social
누각
돼선
방장
산대
상과
984
SiC
kwh
동의어
후라이드
Solar
##oma
살레
주신
손병두
순찰대
협심증
낌새
버겁
조코
방독면
서경배
적법성
Carbon
##중지
개략
953
꾸민다
와세다
태워서
HTTP
##태희
국동
사필
아발
알비
들인다
솔저
커드
길러야
성년자
유연제
명동성당
도망칠
약도
차제
한물
우길
지폈
키예프
일그러진
는단
독고
쇼퍼
안소
가스통
진웅섭
어째서인지
두교
체세포
##모더니즘
포스트모더니즘
문위
혜진
##피디아
떄문에
산토스
교로
분여
꼬맹이
재입찰
나선다면
NPT
다이묘
이뤄진다는
난파
면류
상훈
질긴
흥얼
돋보일
폭락세
위키피디아
##방스
원군
제조법
침략자
##erman
고광
송객
식권
차돌
신석기
이어져온
투리스모
naver
신용협동조합
골방
좌중간
Systems
##멜로
계신가요
음역
찢겨
특진
허균
블레이크
사이드카
광자
##클레오
권영수
더라구
막내딸
서대전
장지수
##지배인
잠재울
총지배인
동간
무채
##ages
오렌지색
##양양
김전
뒤죽
준대
해자
##니어스
016
문무일
이재훈
거둬들인
쳐들어오
동덕
아셨
자못
pat
속삭였
옮겨서
스필버그
##데라
전봉
제실
템플스테이
남일
땡기
류재
중범죄
슈마
##look
기보단
이해관계인
나직
매킨토시
##olt
안강
착해
뒤져야
을려는
치료실
##kt
##지갑
리쉬
속고
스티지
Performance
##씨름
노환
래시
가격표
이율배
망한다는
헤르메스
심형
천방
추웠
##서관
##ios
그침
##okie
김영민
색안경
USIM
계셔
치만
이광구
토스카
구어
통기타
오원
황상
가까워진
자유주의자
에치
왈츠
##esis
김우성
바이블
온건파
신희
담아낼
미등기
우체통
접근권
계림
조라
글루텐
번역기
하이난
해한다
아양
숨겨둔
영업직
데얀
리기
미충
소제
싹트
욜로
우경
임영록
##구불
노포
스티렌
Hong
Paper
##dy
탄강
DNS
면책특권
##fit
날림
어눌
상록수
##해협
개경
도현
송상
윤사
헤리
구례군
남몰래
핵가족
##법률
근디
선내
양증
감춰진
유승호
Tapering
지를
브로드컴
악세서리
##균등
벽두
야고
외벌
포악
신세기
카라반
시끌벅적
##onia
략
감차
기증자
유전자원
요체
##다닌다
이영자
##바이러스제
항바이러스제
따라와
##well
강냉이
겁나게
김태환
프리츠
빵점
쉰다
이름표
Creative
벨류
여잔
이중국
콜로니
넘어섰으며
태평양전쟁
강명
동판
반추
송배
존심
촌지
동네북
경안
놀이방
방송학
탐관오리
양심선언
촌동
973
바지선
##acter
에스트로
술책
이종호
수도꼭지
엑스박스
돌아간다는
에스트로겐
##urs
맹장
종의
향남
박태준
숨죽이
지쳐서
##omo
이춘희
주어져
주의깊
##pc
미영
숨바
종반
퉁퉁
하안
폴리티
미시간주
프랜시스
##그먼
##불통
DHL
lcc
까내리
순수익
떨어집니다
##오름
결절
수몰
노쇠
##사포
보기
보안원
STRONG
대불
셰이
지신
철산
더들리
소장파
싱크홀
임차권
읽혀
자들
##스테론
##imal
rem
키엘
equ
설계안
키워왔
##예과
Kg
LTD
마취제
아스파
오른편
전지용
##페토
팔로
보자기
사카이
의예과
Brent
외견
미망인
1887
Lake
이대목동
Sports
##볼트
##앗간
긴자
풍차
2160
Circ
이대목동병원
##Ex
##일률
남천
비상근
시정지
천편일률
state
##담배
OZ
인세
설치류
적분
겨우내
미심쩍
불광
체첸
결정타
보원
원용
무너뜨렸
Field
금욕
오펜
무찌르
연료봉
##갯짓
##불견
정초
##pert
1330
##불사
##후이
PJ
지율
##apt
견습
방충
OPS
바빌론
크렘린
평신도
위한다는
루팡
가다
심영
앞설
예규
이숙
목재업
IDEA
blue
콤비네이션
닛폰
순시
씨족
축가
MWh
냉각기
##프셔
##향기
##pro
사요
세곡
장선
무호흡
제페토
##tha
성충
테란
김소영
라더라
라던지
Thomas
##자살
뻥긋
선술
초성
크릭
생겨난다
멜라닌
르펜
열반
Figure
##감정
희로
006
호위함
Memory
##BR
##aad
라호
티탄
팩션
술렁이
어드레스
ThinQ
Hal
유니언
track
영안
자왈
결손금
디텍터
안데르
비닐봉투
제주도지사
카가
후아
김문호
핸들러
석대
##ateg
새로워진
가회
별건
햅틱
꽃무늬
심사관
정해진다
##말이
당서
우장
구불구불
광시
찐빵
김미경
1891
##aha
헤즈
가진다는
옹기종기
##모빌
이싱
PVP
황재균
이율배반
ᅮᅮᅮ
뿌려서
생면
선부
학구
이발소
콧수염
맹타
지휘권
김평
시민군
스카이라인
빨라진다
아이러브
살코
서슬
연혁
늘린다고
태어난다
ᅩᅩ
어귀
운치
혜지
잠비아
능동형
위수
버립시다
시화호
황정민
모나리자
##보전
날아와
시대상
Know
평양냉면
선실
세손
세비야
주근깨
하네다
올리고당
곤봉
미워도
민병두
올려진
이바라
정규군
축의금
다녀와서
자개
리야드
만다
불청
##집중
네게
물집
포에버
Ball
휘장
저해제
형이상학
ᄋᄉ
꾸릴
컴뱃
##ball
분열증
설리번
양치질
##nam
에두
Now
##박죽
불온
헤인
GSL
동맹군
CATV
석박
시주
뒤죽박죽
볼셰비키
터보차저
##ify
계부
껍니다
꼴불견
만델라
실래요
연설자
##자카
요것
을시
퍼프
피사
수송선
위험천만
##시키
손안
##난만
굴릴
어중
Van
끝장내
밝혀낸
유머러스
##질소
하저
보스톤
지형도
해피콜
받드
후쿠시
하이네켄
박두
푸쉬
미켈란젤로
와사
카잔
책임진
##분모
오한
촌스럽
공책
세움
파루
나대지
1881
나타났으나
Central
##발진
백야
폭삭
##iday
포지티브
빨랑
상궁
2031
QQ
아오지
오재일
전천후
Cast
이억
초복
김지수
로지텍
산다면
공통분모
스웨이드
오병
지필
김동수
수사력
##UCE
빙시
KPI
갖춰졌
불구경
은지원
장아찌
Mobility
임프
편두
적전
0095
Party
##도바
릴리즈
양준혁
진동수
Frank
Order
##나카
기려
나모
부랑
왕도
조덕
구부리
북일
돌머리
실정법
아침밥
##ERI
렸으나
메네스
관개
아량
역출
급발진
실향민
주름살
Aust
Driver
누우
등분
샬롯
발끈하
양다리
여름날
정준양
천진난만
낭자
만청
방로
족적
진력
run
노부부
##소디
계동
det
반가워
인바디
데려다가
카페테리아
진귀
치대
끊어졌
대화면
shop
Universe
오종
디엔에이
이상철
##가공
PHP
모닥
CVD
피카츄
##ography
옥사
경강선
박석민
천동
피토
TEST
떠보
양의지
뉴로
맹인
기병대
메디케어
발설
로이킴
모닥불
사륜구동
한조
##ocol
제의했
George
##우라
반비
산부
시언
열애
장조
터짐
ᄋᄋᄋ
기상대
일반의
랩소디
석관
ig
애월
소독약
질렸
여성주의
business
탁사
##ways
fbi
아들놈
쳐다봤
Tesla
##발루
##살라
Ni
꺼렸
표리
ibm
안내소
1212
서라운드
용화
빨라서
Jo
따분
양장
넘겨서
마이티
파우스트
##트니크
네크로
밤길
선기
인티
격납고
1780
Forum
스푸트니크
십계
어엿
영악
아크로
역겨움
피시방
Council
AOA
따로따로
##오위
LL
묘연
영덕군
회전수
1240
굽혀
예수회
Ford
iron
지켜져야
승모
미개인
일룸
칼집
환란
송도동
Ir
보니
##ito
즈인
CPC
진행형
소매치기
외판
우투
방이동
##ori
개벽
미합
Nature
조환
밑단
Jose
실용음악
Child
얏
새발
절취
달라야
애니메
불확실성
사우루스
비애
Iss
근대사
사과나무
이럴수록
카운트다운
니기
댄디
만월
선문
때린다
##FIX
감일
덤덤
로치
좁쌀
018
시추선
##ira
장법
저밀
진선
진즉에
출판문화
Exchange
꺼야
##burg
무직자
쓰시마
치앙마이
##치드
낙방
바삐
일람
하복
Bon
3750
Zh
오매
오소리
블랙아웃
##확인
Du
호성
##brid
이사단
정비창
강남대로
##르겐
마샬
노래자랑
자유의지
화서
IEE
된단다
잠수부
KJ
구여
변재
탐문
##6360
기어가
부교수
자갈치
Alliance
수아레스
Ah
도검
성룡
애증
원순
페기
025
야무지
의심증
행해졌
관자
윤관
박치기
약혼자
요한복음
청원경찰
Rating
김다
방패막이
SKIET
복서
전황
##염치
셀린
직송
FID
관악산
솔잎
주렁
sin
심해진
곱해
유호
전계
청국
원더풀
창간호
슈베르트
Storage
텁
일흔
bpd
마에다
슬러그
에스피
마비노기
아드리아
흘러나온
대심
우빈
파형
합일
##ench
개구부
경유지
김영남
소매가격
베터
쇼나
이투
사철
영식
가정용
경축사
Style
개법
초강
재발견
나아간다
흐트러지
##분리
미탈
맞춰질
톱니바퀴
FnGuide
생약
다독이
뒤덮인
쫒아내
학기금
조삼모사
KW
잔돈
서인국
동명이인
얼려
펠릿
황궁
연구가
##책임
농번
라꼬
한량
배움터
헨더슨
선공
업사이드
괜찬
베로니카
rt
안창
컬트
MCP
거둔다
박희태
고집불통
##실조
쇼파
MMA
박살난
Vent
Vill
소꿉친구
영양실조
##랏빛
구자열
도쿄대
정몽주
홍콩인
1394
도일
반자
이교도
장탄수
Record
복어
황주
유니레버
##rie
다용도
개드
동글
점안
그럴만
심층수
연남동
특수선
흩날리
대응조치
##시도
설로
성단
쇠뇌
##mann
##정성
##후보
꾹꾹
##폴리탄
다니깐
개짓거리
회귀분석
메트로폴리탄
UNI
달맞이
##DO
##보네
##덜랜드
OTA
광주역
아돌프
0064
Drop
피톤치드
급할
병점
잊어버린
##함수
##노미야
간부급
두더지
무서우
인테르
덥석
전준
메디치
변절자
세탁실
나섰으며
Royal
텔레마케팅
##WER
군법
만희
양종
평산
몰라보
엘리먼트
##date
dep
급류
본산
찌를
##한자
영실
지트
토할
계룡시
볼라고
재확인
##bal
Jun
키워라
허버트
##itect
대동소이
총책임자
짜파
미도리
소매상
지린성
magic
뜨개
발군
숙연
약력
다그치
Stoxx
번잡
뻥치
연아
자색
토프
마그마
융커
Two
cod
##오를
칠흑
대연정
동안구
막내아들
짜파게티
##띠에
경순
내피
식성
크롭
머무른
귀사
보보
지겨운
피부병
##빈다
고트
낮춤
리토
파랗
##라박
겨룬
산상
흥아
사르트르
좌판
Step
아우크스
해진다면
아우크스부르크
gc
매길
이보미
1360
##스름
##엔스
중태
황건
건더기
파사드
Xbox
주회
까르띠에
##iri
MMS
##당동
##핸드
제드
지교
anal
##res
Ther
입니다만
은거
지켜준
##소총
결판
물심
진옥
est
도착지
제아무리
어온
욕되
독가스
핸드크림
##피언
도파민
신대륙
2450
보디가드
새워
이프로
##스부르크
다와
cop
감독자
JU
데인
지모
백병원
Why
안영수
질식사
프레시안
비국
애무
프링
홍재
기현상
부끄러울
스위스프
차립시다
구면
산봉
삼미
이교
조엘
호건
##테로
개발청
동급생
이아이
양자암호
메티
신참
afc
구원자
급경사
메구미
삼일절
임은정
평안도
##entum
##uthor
##이변
지역인
투표일
회의감
효자동
Cool
Academ
고감
공임
사개
소록
홍시
어두웠
고려개발
##다녀
##rew
단기성
선험
지략
진연
덱스터
흥하
놨더니
일가견
창원공
플레임
0426
무너뜨릴
세운상가
쩜
급분
멀린
물관
청수
기상이변
##주름
성녀
김태현
박지훈
백운규
장맛비
하루키
글쎄요
박찬구
불어날
완화책
이시스
자양분
1810
대계
외근
lim
살며시
##lease
need
도령
분묘
##삼공사
LPD
모자르
이병기
##라나
##밍고
여물
황민
배수지
연속극
저소음
제이씨
트레버
user
VO
살랑
가산금
반자동
정근우
##참배
강은
니년
망우
화진
BCG
그랬던
내리쬐
bank
Family
꿨
경민
현생
김홍규
보다폰
유물론
깟
스털
와치
우다
혼미
브래들리
##reement
##즉발
일촉
검출기
일촉즉발
과녁
정고
출결
카롤
공격기
기모노
데릭
무왕
씨도
초의
Tablet
진홍
CCS
사마의
재수술
최신작
당연지사
##꾸기
유러
감성돔
비보이
외화채
##allenge
아와
허투
##afer
크레타
랩터
민유
윤부
장태
날아왔
띄우기
주제곡
펼쳐온
혁명군
Edge
##도생
건모
리쿠
사온
댜오위
이준기
댜오위다오
도드라
##eting
##플라
건면
의롭
해삼
##드리아
양승조
업원
창제
텐가
특질
나군
동하
발수
콘티
박나래
웬만큼
중추원
신사참배
결박
영치
하재
이호준
피터슨
ᄎᄎ
부을
경험자
손사래
0036
최장기간
한미은행
늦춘
터부
잠실역
황금색
그쳤으며
##yes
뉘우
디안
엔데
흠잡
보닛
장산
탐나
할당량
vc
마노
Gard
화성산업
맹추
쇼맨
지편
백의종
조쉬
에르난
스티븐스
사몰
메디아
##이율
애호박
워싱턴주
꿍꿍
리엘
묘기
구태여
죽일려고
했었으나
누차
떼돈
무량
벙벙
989
속앓이
옷걸이
##ancer
임파서블
경채
베다
해보인다
영계
카발
##깃거리
GCC
로마자
배출구
연료유
사실주의
무분규
Assist
교비
통속
상행선
허가서
##SQL
김칫
이눔
쳐가
해미
보라카이
넘볼
문래동
반환점
현상학
Emer
카포
정착지
채찍질
리큐
성미
뒷날
유러피언
##윳돈
쇼쇼
혈육
Yes
노르망
여윳돈
기울어지
아멜
##본색원
엎드리
푸르밀
##음사
개띠
뎃글
척당
CTS
##yrics
##느릿
##상종
##성경
윤규
일만
풀풀
마도카
분쇄기
이순재
##손님
리미
오십
옥토
천착
발본색원
팠
ND
문두
KAL
snow
thaad
갱단
밑줄
BAS
Kit
글래머
SUHD
hand
size
라로
매인
생신
양단
차임
봤으니
합쳐야
##겨우
비책
음량
후단
는가요
매김
제적
치뤘
051
나오토
soph
잽이
취조
문외한
알려질
각자도생
열렸으며
잖습니까
##마나
문승
임명권자
무좀
외려
하난
정통성
날아오르
땡땡
안시성
1390
##ologies
군침
기뢰
서역
우제
토치
정지선
지어도
초상권
내안
민음사
링클
멍한
견뎌야
문학가
하진
허지
호되
##oke
김황
다선
수르
높여갈
집어들
##말랑
##뜨려야
신당동
헌혈증
농번기
휴지통
Macro
상신
지어내
말랑말랑
Return
효고
들여보내
##Ch
김학범
아껴서
생겼으니
덕진
사증
초시
Supply
##uld
삐삐
헐떡
호쿠
센다이
식품위생
##서면
거상
나방
사커
은우
MCM
줄여줄
RR
딤섬
화났
갈고리
수정란
휘저
광장동
##참모본부
유유상종
베이스캠프
루루
예심
좌편
##irit
안사
점찍
정왕
참말
RTS
국경일
##eyond
갈릴레오
절치부심
direct
##갑다
##꼭질
숨바꼭질
측방
헤드샷
치켜세우
강장
허쉬
으신가
없인
재지
적의
##짐승
라모
버벅
친했
법학자
하숙집
신용정보
##전능
DU
요량
두드러져
##만만
풍납
쫓아오
will
저공
부풀린
전지전능
##YA
##상어
##처녀
##타마
##urt
농아
참선
향락
경비실
나오미
대전역
##urance
직거래장
몇일
Luc
박재범
바꾼다고
루원
퀴가
BEV
루원시티
스스럼없이
##계열
##세유
##파인
네코
해류
##두기
Om
솜털
수실
재출
나르샤
불국사
mkbae
##우면
나레이션
##ishing
들개
063
장애아
방시
bbq
이노우에
Basis
광통
부칠
한티
종잣돈
최북단
보고대회
신애
옥산
윤일
머릿결
금이
무니
아란
철사
디케이
프로방스
##빙글
공력
남권
재목
퓨마
##콘드리아
##득실
##엄마
브렛
선급금
계몽주의
미토콘드리아
##뭉치
mi
민란
DSP
헤이룽
##치킨
배때
브릴
빙고
서용
최재성
득달
모용
인즈
진항
든다며
북적였
비속어
오카다
촉진제
홍삼정
1340
마시멜로
함박웃음
빙글빙글
##팔매
대퇴
멍게
출조
Fem
낙제점
유준상
팍스넷
산비
잇세
해공
가려야
쌓인다
그럴싸한
시리우스
플랑크톤
##struction
봉강
차동
티니
김용철
지켜낼
화산재
고역
텐진
매운탕
베르그
QT
광무
스콘
데프콘
물러선
추어탕
mint
ᄁ가
강공
교가
에퀴
진종
전초전
백의종군
홀로코스트
##전동
가름
다닥다닥
지척
보일까
signal
##령부
장독
fps
김정수
이라니
0012
고금
천불
라이카
부러웠
녹색연합
스팬
최중
저쩌구
##러울
무반
##etic
세련되
신기루
선창
세방
우엉
일소
합칠
돌팔매
이성태
득실득실
Angel
뒈질
캐니
걸터앉
윤도현
삥땅
에니
보험증
이시카와
이어져야
##IE
##동성
ks
방탕
전항
제당
현감
화명
산토리
##감자
##뇌동
EW
권재
바크
빼들
세츠
소증
몰딩
쪼잔
제이티
감자튀김
개털
맥스웰
푸석
홧김
뻐꾸기
3250
부화뇌동
##LY
고혹
팜유
메드베
시부야
편두통
Dual
남군
접선
009
김재홍
로보트
톨루엔
상우
서측
주면
토악
exp
교수법
못할까
심호흡
봉작
철종
불복종
1670
어지러움
클라우스
리페
밀물
설국
암암리
여야만
전환율
해봐야
뛰어내려
클라이맥스
##살인
석식
진법
강만수
개런티
광대뼈
사생아
수령자
뉴스거리
순간이동
탁상공론
합동참모본부
##빠지
장날
다이브
사사키
안다며
윤부근
파고다
##yj
선견
슈워
시월
European
dg
뇌성
인임
층위
MAC
영상미
학점제
폐로
FOR
##verse
##NB
단대
웰치
축척
화장장
##사카
바꿈
재분
태림
잿더미
청해진
##변수
장금
영양군
람다
역무
##테이토
할로겐
리카르도
공사관
fair
015760
고두
국해
티르
Soul
꼼짝없이
##사와
창자
윤이상
자금줄
행정가
Jean
Interface
웨폰
의령군
조경태
Customer
##나서
박과
식판
정단
통도사
차례차례
##마치
##미나
티엠
Lou
노이드
정유미
1875
속절없이
개코
눌리
학익
몰염치
퇴적물
둥그
삐리
Weekly
##보다
기브
로랑
우중
윤서
지져
다비치
대쉬
절강
추울
doc
농구장
##ensus
##던데
##DPA
꼬였
분재
모아진
##보낸
숙적
후식
##노스케
TOE
번스타인
고저
쪽수
화개
권양숙
델파이
코웃음
파묻혀
격년
테이터
휘트니
지호
불만족
##코프스키
라이언스
##현준
착상
신혼집
몰의
포어
검문소
고쳐서
디파이
코뿔소
SDGs
아방가르드
##팩스
소우
인가라는
Dance
hr
워홀
일천
썹
jh
가산동
가해야
미적분
##저쩌
보어
연길
갖춘다
##apter
녹즙
소담
순연
정양
창비
GIC
느껴서
쾌적성
##암면
꿰매
병조
앞발
걷어가
목말라
Self
감광
젓국
보상법
없앤다
연산자
점쳐졌
People
PQ
강시
미공
혜인
그랬었
일궈냈
##극상
회의체
외길
SNG
보여라
덕지덕지
밝혀져야
프란시스
새집
울궈
타악기
피어스
북인
BTX
타이젠
##여성
머슬
엘사
김영수
송배전
1620
based
##PAN
공화정
##비닐
정결
신경증
명찰
지번
체취
킨들
거들먹
배틀로
세이부
증기관
창경궁
1874
고침
위락
FCF
객관화
투표수
벡스
서생
TCP
sym
가벼움
쳐죽일
##귀정
상옥
##irls
나아간
드보
알량
##디푸스
Scr
못했었
주형환
동떨어져
오이디푸스
몬티
송화
큰형
목초지
문지기
세포주
소환제
애지중지
화포
뒤져서
헤비급
가형
##일렉트로
비거주자
Captive
##분열
루아
다한다
최진실
교명
몽니
특금
조영남
##미인
푸켓
황천
김은경
농민군
##ework
보낸다는
##세키
차역
승조원
애니멀
흔들린
기사회생
구종
베푼
역장
김성진
ny
원추
율리
시누이
곤두박질치
Foundation
가품
몽상
문아
조천
##Book
KCB
밀린다
Walk
쥐약
##철주야
##ting
고질병
들여올
으니라구
선군
큰딸
전용량
흡수율
교원그룹
##일렉트로닉스
대질
##조약
Pw
까자
##mark
김병만
단세포
동의대
쇼박스
저학력
동고동락
취합니다
관병
티백
중등학교
##attery
##모양
병법
푸근
후쿠이
know
불철주야
CW
##용차로
페어웨이
다습
버스전
조나라
버스전용차로
당금
본떠
초혼
호골
환지
늘어난다고
남해고속도로
껄껄
안태
홈스
너그러
물소리
손전등
에어로빅
##스프
극기
단하
양덕
질색
둘러대
광림
생원
사냥감
달아오른
메드베데
행궁
놓아두
주둔지
명일
캐롯
COS
망설여
트리셰
##또박
##추장
ko
열나
외풍
필패
동지점
또박또박
무원
BTL
그래퍼
기관포
바리새
부산진
정후
사필귀정
오릅니다
너흰
##rypt
상지대
##맹랑
옥자
구기자
리시버
허무맹랑
맨몸
##fig
Ps
웃겼
행했
임태훈
예정이율
흘러나온다
양명
쿄코
KMI
작아졌
플라스마
설렌
오데
금융인
서글픈
손아섭
전용차
지녀야
소비문화
아슈
에델
이뇨
012
연건
키사
AMP
새우젓
우경화
한정식
1270
파송
Mur
김창수
무덤덤
알리바이
혜정
LFP
순환기
아비바
##VIDIA
Refin
눈코
태사
##icon
프랑스와
교서
##페리아
가드레일
배서
징하
화구
공시가
비상벨
사회상
LINC
라타
##세이돈
정몽규
##oor
가누
듬직
##흡연자
##ries
핫바지
포세이돈
개자
연경
유강
가시밭
경범죄
비흡연자
기탁금
버틀러
총인구
포테이토
Telegram
래나
송민
추천인
Speed
설설
송해
슈피
우둔
치노
플릭
돌려준
무법자
포미닛
표준형
Martin
군가
불요
성불
우메
하행
도박장
볼로냐
라이베리아
택견
총수익
급액
SPI
반해서
봉사료
그룹웨어
바타
##페스토
ing
비구니
##paper
dist
##스킹
##탈출
네브
##몬스터
##phone
나타냈으나
Electronic
갑천
멍에
괴로웠
단원구
위탁자
전자지갑
##Cl
가십
혼입
##태스킹
안성기
##투족
아싸
teu
담뱃세
식목일
코라오
##수일투족
Tool
멀티태스킹
일거수일투족
##야금
꽃놀이
한미정
동내
목살
닭강정
리엄
실의
##quid
전장용
매니페스토
유덕
퉁명
김낙수
아사다
1115
선왕
이희호
정보지
일반의약품
##북동
거구
달장
개드립
기다란
Aa
선발대
흘린다
경인일보
##전설
VG
역투
적설
직언
레이나
우중간
이종범
1789
케미스트리
##스톱
해간
클라리넷
홈스테이
도프
##self
방위력
버려도
보랏빛
촉탁
원고지
poly
갯바위
김영우
홍진영
##ident
가져다가
근세
빈정
연과
타켓
탁주
MSG
파열음
야금야금
##준영
진명
위너스
최남단
특례시
레위
물릴
욕장
성태윤
암송
042
이민국
싱겁
염가
##테이트
WRC
김현중
연출력
Union
급료
더케
상대식
행정심판
##뢰즈
경방
야정
요세
인동
입법안
자치제
끌어내린
카리브해
무치
화영
서울구치소
건졌
견훤
타협안
엑스페리아
##주렁
길렀
속행
앙도
자애
하극상
들려온다
팔려나갔
반가움
겨우겨우
내려온다
이뤄지길
##요한
시이
호안
code
모래사장
##솥밥
oo
장렬
드레이크
래야
미구
슈리
디지텍
레너드
한솥밥
살찐
완투
죄자
회담장
서비
VAT
김효주
내다팔
메들리
##light
래빗
복현
염주
개싸움
고음질
이창동
주렁주렁
stand
광도
오대산
1420
프리보드
거목
꼬랑
동춘
레파
변용
연리
경보기
논스톱
와이디
yoon
Phase
##디난
시냇
심규
커비
키요
통이
파피
교학사
드러남
여진족
추운데
##혜경
감쪽
찬가
무사시
의문사
##재킷
##줄지
Et
영준
오곡
윤계
최운
논리학
던져야
지니어스
박훈
뒷바퀴
발생지
이성희
차려진
한달전
일리노이주
##란지
김종대
최치원
##나치
표집
렀다고
마쓰시타
##레온
항주
##over
CPS
김종호
센트리
나섬
능멸
세유
열불
조위
파오
벚나무
시만
김준수
숨쉬기
열람실
풍수지
양털
한센병
노사정위
줄어든다고
애런
국기원
anchor
김생
비슨
Made
대장장이
갈린
광덕
Blu
아카네
##더리
봉승
성준
036
훈련병
텔레포트
해야겠다
유코
티크
속여서
수형자
헤어져
사피엔스
factor
절곡
041
끝날지
대변자
운동사
직업병
고발인
마니커
마산시
폭력배
홈런포
IEEE
##ogn
멘델
보필
헬프
황하
단축키
솟구치
##포타
의무감
VIEW
city
인조잔디
##오모
권면
디모
상진
##heel
브라우니
##융자
단짝
사회인
느릿느릿
##va
휘어잡
노사모
Wood
Panel
끝맺
수스
양아
피클
개원식
판매대
드루이드
제일주의
Times
##슈얼
권좌
성창
오주
김윤식
반비례
작살나
여차하면
비아냥거리
Charles
캇
근정
르망
##에이지
포도상
피선거
만든다면
##LT
아키토
옴니버스
Silver
도국
밖엔
브렐
적지
태민
회한
개혁파
아우를
원료비
할당제
핵분열
빠빠
불가리
더글라스
무교
소협
포체
반대론
북반구
시선집중
샤브
적산
출수
귀고리
이학수
장재원
IATA
명의자
섹슈얼
카프카
타이타닉
흔들린다
댐퍼
털려
허문
깡그리
키워온
발로
관용차
봉천동
대룡
Pur
카타르시스
마님
김동진
여상규
정책공
prot
##WE
견문
극자
슈투
종회
LAB
api
무진장
##줄기세포
풍수지리
면소
SAM
김남주
만드신
발레리
예뻐서
티켓몬스터
아뇨
계룡산
그럴싸하
목메
인게
종석
고정식
조선어
##초롱
ll
어망
처량
HER
갈비탕
납골당
편집기
공업용수
할리데이
나훈
닭장
석동
Mic
브리튼
열기구
뒤집어씌우
Beauty
##버드
작센
점보
##파고스
nba
고모부
스털링
노르망디
배아줄기세포
로되
쉼표
호쾌
Sym
리오스
몽고메리
세로토닌
상념
LOL
한총련
샤시
실측
아랫부분
Richard
순풍
##글러브
피선거권
골든글러브
ca
파슨
헐값
아이스링크
명숙
찍찍
동치미
복사본
암매장
클리너
륵
과체
카린
꿈틀대
잊혀져
헛짓
제닉
칙령
가덕도
가든파이브
곤약
재간
캐드
##가르트
유키오
위계질서
소절
외기
화요
TPS
생길지
포트리스
수애
거푸집
창업비
헌병대
센치
타이포
2079
Mont
plus
##교도소
설경구
문인협회
##버라
Ko
항속
황각
##ffee
##ocr
BF
김회
두환
품청
Who
앨버트
##포타미아
cash
메소포타미아
##ema
각설
배란
북벌
처소
아무쪼록
은행주의
##어기
시냅
nsc
김황식
나무랄
리턴즈
부서져
신경통
유우키
청송군
물총
게리온
케스
발행자
AIDS
SMIC
노동관계
Broad
눈금
본딩
원봉
창씨
박남춘
뒤척
사뿐
촌락
물속
줬으며
구야
사또
권리락
경기일보
초등학교
동속
염라
SPP
정률
참돔
낼려고
냈으면
수입금
쏴도
연부
Alt
남겨야
내다본
오마주
이상향
제다이
관록
최훈
콕콕
더스틴
전해철
차가워
Muse
들락거리
널린
사이토카인
홀딱
휘슬
대국인
발전자
진저리
쿼터백
ZERO
##hy
##라운
##vis
벌교
혜민
지친다
초소형
##혜련
누아
원씨
피디아
##정보회사
술년
NDR
김영준
김지훈
장동민
젖가슴
트레저
Think
##잘것
민준
행과
MSN
결혼정보회사
##한당
TX
이개
켄지
물리친
이어링
##치열
치지
파자마
타슈
가팔랐
체로키
건평
쿵푸
##증권금융
학부모회
Culture
건질
RBA
무력시위
한국증권금융
독스
백반
여죄
헤밍
라이저
옹호자
침출수
강금
베나
순상
의서
총부
##그래프
홈쇼핑
method
입헌
몰지각
쇼콜라
시세이도
크루그먼
HSDPA
루디
캣츠
Sony
원우
시냅스
##너리
ba
딱한
박혀서
피부암
의기양양
글단
빈국
INT
모래시계
바꾼다는
별동
재와
천기
후벼
이재갑
##하게
##oid
레게
연납
지투
##노동성
Tod
변환기
이영표
후생노동성
##특허
따리
리빌
생이
전비
강지환
물러난다
들켰
이물
Spe
고소영
스칼라
조전
안정기
##공명영상
기다려온
따른다는
자기공명영상
##대부
얼짱
##로오스
1878
삐뚤어진
각선미
붙여야
련주
발파
비디
왕왕
과민성
Portfolio
길라
헤븐
GUI
상식선
커티스
브리즈번
비제
후일담
##board
남아시아
꿈꿀
독립국
전동기
cover
음부
체화
목마른
아닌감
도고
럼블
폭약
대양주
성취도
이럴까
뉴클레오
알칸
연등
개죽음
건어물
가나가와
면봉
박관
투증
먹혀들
버릴까
중년층
1560
##이츠
번듯
업도
짜집
득점력
방앗간
zero
사타구니
##날락
##테라
근엄
반정
지새
##마르크
다가선
이수자
집짓기
1540
난망
컬러풀
##ength
췄
물뽕
서하
응변
존칭
##이글스
EDM
들락날락
팔상
##트로피
lib
그라인
미니멀
이마니
지방시
집시법
고고학자
전매특허
철교
향초
대장간
객관식
기뻐할
다당제
배틀로얄
고쿠
누전
박력
보초
미니애
미니애폴리스
FG
Local
현도
산하이
잘라라
지급금
night
##미야
나면
선법
청학
음악상
이강원
이준호
트로츠키
##ashion
입법화
1566
##gs
##벨스
에이디
상호주의
희로애락
채상
한예
014
구로동
따라선
진라면
케이시
left
무쇠
배두
ext
이문세
하루코
단발머리
협성
##itan
WCC
김영권
십이지
##ds
마작
메로
이존
SME
내각부
마산회원
빗길
중리
ISU
다잖아
재향군인
하늘나라
미산
빛날
정죄
슈뢰더
줄여도
곽정
김방
만해
##레인저
더운데
바이더
한겨례
카우보이
부끄러워서
##피드
꾸벅
뒷맛
본뜬
온나
친해졌
Travel
##mar
홍범
##그리스
반가웠
게일
승희
호동
##kwon
신탁업
내려진다
부용
Trend
##ISE
굿판
일풍
아랫배
버건
스타드
이성민
즐겨라
동창리
타이드
Earth
##고은
##비에
Ra
금선
호객
만이
언동
캐러
늘려왔
마라도나
엔트로피
##어촌
손호
습진
츠나
##라이너
FSC
초인종
image
본기
요철
뒤안
웹캠
드리스
##istry
내팽개치
oacute
##죽지
선복
폐합
CAM
노인정
농산어촌
IK
루서
위고
촉망
TSP
박선영
예금주
의사회
이스트소프트
범양
들뢰즈
fact
돌려준다
좌우명
##샤브
##aya
남조
캥기
고꾸라
성동일
##세움
맛난
망루
신검
우규
Han
상공부
아웅산
우월감
2049
함석
겁난다
김수로
박정환
이범호
서울랜드
매디슨
병충해
넓적
웬수
짠하
형조
반감기
갈라파고스
부정확
brbr
ihealth
##증명
ᅢ끼
말지
우퍼
하퍼
KST
나지막
운전수
데스노트
##소비
##팔구
브랜든
스티치
장부가
울릴
저부
혜경궁
1530
Fore
Dog
PwC
배때지
이겨냈
재향군인회
큐라
애덤스
트레드
##잡배
##트려
TJ
렴구
봉천
하측
Aud
FAN
SGA
상당구
염기훈
만병통치
한다던데
비피
나눠야
노스케
##결핵
##스님
WK
도올
무광
루프트
칸타타
루프트한자
링링
홍라
뒤처진
Need
##도치
##조화
재검사
시정잡배
어긋난다는
management
##래시
영단
민족사
중원구
pcr
내디딘
##동사
박보영
심원
스네이크
##시안
쌍수
황모
가경
롱런
십중
이휘
콘스
호퍼
two
김규식
##ollar
Front
Contin
NVIDIA
명란
민은
빗줄기
물어봐라
##단결
##너티브
박수현
찌른다
##방송공사
나섭니다
얼터너티브
Friend
##지붕
녹아
동현
성구
유레
##elle
닭다리
데이비
수년전
장로교회
public
##양난
러그
허긴
##ogen
가분
후신
##OSPI
국립극장
쌈짓
SBR
맙니다
머레이
아고라
미니멀리즘
##루야
##지둥
육관
사학재단
진퇴양난
IX
행신
뒤엉켜
증오심
##asure
JY
간석
신상훈
이시영
정성호
Medic
문패
역작
ent
억제력
십중팔구
허둥지둥
석이
왕년
요시코
헤르만
난폭운전
나훈아
쌈짓돈
재봉틀
네바다주
오버추어
벗어
유작
mov
날갯짓
출생지
Smith
분회
전력선
##립스
어줍
오합
가나다
고린도
달려서
1861
기척
우암
스타덤
이구동성
##먹이
##언니
##에서
건조물
도로시
미유키
미합중국
이릅니다
가쿠
아랫도리
엘란트라
카멜레온
끝단
냉온
는냐
송일
주법
코언
발가벗
백사장
황각규
kV
안암
백선엽
##ittee
단골손님
고슴
신불
여승
재창
스매시
정복자
모른다면
무서운지
어깨동무
##ced
마토
보송
행락
현석
격려사
꾸려졌
DDoS
Stev
고슴도치
손지
신행
##ences
##ological
ns
난전
비언
영분
쟁기
통채
Neo
다이내믹스
이루어진다는
##룡해
Ng
돌돌
##스코프
리볼버
##ido
1790
류허
홀덤
리퍼트
최룡해
한지라
홍석현
start
암산
조태
흠모
공보관
대좌
송탄
혼종
AUO
파울로
Text
레논
빼낸
아누
깍두기
모욕감
부호화
회계학
지박
##상회담
끄레기
배상문
공동대책
북녘
야속
계약법
박성택
낙동
난연
너른
대공포
1410
Rain
##휴업
초량
오리고기
압제
필진
렌디
거머리
출고량
나상
늦췄
유암
동양화
전투복
##SC
뜨리
민규
발한
별수
혜영
##iven
내릴지
시뻘건
흘러도
개점휴업
급행열차
한미정상회담
차면
추력
054
Job
청교도
끌어모아
평안남도
##중근
놨던
레밍
칠면
호선
브루어
0967
알려줘야
달궈
학성
##플레잉
지느러미
알렉산드로스
렀을
민권
얄미
우윤
##쏘시개
문화전
##굵직
금채
마즈
갑니까
지켜질
굵직굵직
롤플레잉
암행어사
single
목감
전의
침낭
파정
토종닭
물어봐야
레일바이크
Golden
소현
참호
##pons
최민수
개서
민방
상순
쓰려
유홍
고용원
동구권
주문서
Comment
마슈
불쏘시개
샤브샤브
에스테르
##artment
##누엘
위작
의열
##ston
Bra
##고금
합섬
허그
cut
다리미
##뎅이
##르담
사창
석주
심뇌
항운
느와르
care
매카트니
##특급
##PCO
경운기
블루홀
에스더
잡지사
수국
음봉
증과
올라탔
정맥류
Deal
고입
얼씨
외입
알짜배기
곡류
규점
리벤
학실
해댔
##부영
운도
단결정
미즈노
서라벌
울산항
이해진
몬드
세바스
양육권
화학공업
##펌프
백골
시알
쌍두
장민
##ette
대참사
셰퍼드
알마티
노트르담
##MM
##나시
개질
변사
수막
##잘것없
고착화
들어앉
밥집
괴벨스
김학균
1879
##타카
##reg
김장훈
롱비치
##설주
급해
내모
원체
칩거
Cos
이세상
직할시
##나트
##리움
이쯤
났으며
베타테
쉐어링
안드레아스
cv
노어
배방
좀체
달했으나
앞세워서
뽐낼
버텨야
이민법
마르세유
무라야마
살얼음판
뉴햄
행이
뒤안길
따라왔
현악기
0010
뉴햄프셔
program
나바
산인
남이섬
농기구
마키아
만주국
장기수
발버둥치
설가
울루
뒷담화
쓸어내
##고랑
녹슬
더러움
알바로
특수전
##ocation
##드문
나연
산증
탈색
김종서
생리통
1770
COFIX
##cs
나혜
묵비
석영
센토
쉴러
제호
청록
담긴다
부르르
분식집
사냥터
서러움
Contents
##조세
꺾여
온산
찔린
현과
내로라
원자핵
들어와야
음수
장종
흉상
감독청
주무시
흉부외과
award
금의
석문
유복
태음
불사조
살균기
파이어폭스
##노현
덴티
카불
ECU
다가설
바인더
##건물
기림
겹쳐지
대종상
한다던가
##굽신
##소개
용상
무채색
욕심내
주다
개찰구
국수집
한의원
신식
##star
김선영
thebell
##사촌
놔둘
싹수
초짜
탐닉
##ijun
이규창
##버니
볼커
군악대
코딱지
1661
각개
리요
DID
김칫국
약수터
정은아
졸졸
주산
관람석
대점
향로
무역항
캐롤라
포용력
1660
##사회
##ige
말경
##ried
OSP
몸서리
벽난로
굽신굽신
##PAC
대행자
KIEP
soft
틀어박혀
졋네
조재현
##onomy
한솔케미칼
Valley
라이프사이클
ut
생과일
NAHB
NATE
하이파이
한국교육
금원
시엘
한광
험로
제네랄
초특급
해적단
현역병
내려보내
sophis
몸길이
홍진호
페이스트
##dc
따갑
부케
타액
졌어요
푸대접
name
신양
아종
저혈
스캐닝
땐데
붉혔
파브
파쇼
이상현
동후
Cit
웃겨서
작사가
peak
세중
신미
치진
관통력
디에프
배양액
끓어오르
밀어붙인
속주
빠뜨릴
##angse
모반
체수
019
UMC
로프트
송영무
금장
신포
안모
야하
최주
플릿
##cher
nam
분석법
이재호
특금법
Robot
##hee
요놈
직수출
파슨스
##따구
동차
안덕
1720
한라그룹
Finance
##북치
##뉴기니
소양강
엄청날
전희경
만신창이
Cisco
##hai
에스퍼
Bell
REDUCE
견의
부군
식객
캠퍼
호른
김병원
조영제
카오루
탑승권
제너레이션
##애굽
##통합
망사
그레그
주나라
이어졌으며
##타라
건우
열공
case
게이트볼
퍼져나갔
마흐
로터스
##uting
상상마당
##골이
분가
설법
어피
파먹
대장동
사시미
학술원
MARK
장땡
항동
김병현
마가렛
요구량
으려던
석궁
이예
잡범
측벽
##렐루야
나설지
다워야
모집단
초콜렛
프리스트
##터슨
얼추
##라미수
##rich
일언반구
티라미수
환경일보
겸해
파레
혈증
##iber
Bul
삼각대
썼으며
Anti
KV
마교
일급
MSL
공회전
쓰라린
엇갈릴
올가미
화곡동
##rs
##락스
##면제
알음
퇴로
아칸소
출애굽
1370
##립자
##행전
적벽
보조원
일정표
식민주의
남악
볼품
털린
asf
라네요
박신혜
원위치
이강인
1580
당뇨병성
##eto
누렇
원일
##rict
Maj
곡명
방갈
정애
해택
네오플
드문드문
법화
성철
양품
교습소
노여움
득표자
훼미리마트
034220
##MAX
들것
공로자
서양화
유흥가
Russ
사마리아
##제일
공속
영민
청어
대장경
물으며
티아이
프루프
아트리움
##만큼
##lev
사유서
벌릴
오유
팽개치
1863
LPDDR
박박
침통
MSO
들기름
불량배
실비아
하지메
##은영
시집가
##다구
라브
외눈
콘트라
땅속
문태
우레
대극장
선동가
오티스
1520
너그러운
갱수
본서
화생
수공업
성만
아류
오윤
캐물
설레임
영락없
활성탄
염정
김홍도
내리치
떠올린
호관
center
##헌터
비터
손석
여선
퍼드
##leg
걸려야
증류주
미끄러운
라엘
예성
컬투
테팔
은가요
jinx
DHA
Den
슈투트
3020
3050
라면서요
Asian
슈투트가르트
##간호
싱에
용목
작품집
##ponse
1011
몰아붙였
##LI
##툭튀
팀킬
훨훨
당했으며
트레이스
개인서비스
청암
PTC
판매비
드골
루보
북청
쇼킹
평가손
##oring
분무
여진구
##지주
근질
세마
ESI
그까짓
소조
투톤
라일리
이동경
장원준
감겨
식자
조어
라마단
core
Movie
현선
전원책
영등포역
##가역
관권
존망
천생
카를로
##zh
##따나
핑이
Cert
기관지염
인종주의
Study
다회
송악
총론
리버티
명목상
포위망
보냅시다
찾아봐도
감호
사견
상일동
##onder
1872
내린다는
태환
DES
걸릴지
뒷북치
압수물
지성사
아이에프
코더
응집력
저수율
코골이
Bear
동원개발
베르사유
##운영
ACT
갑툭튀
김경민
따져도
연기파
명의신탁
파이넥스
도연
박무
용강
이상우
klpga
##essional
##구마
##궤양
##블레
더원
조호
##rary
수화물
위궤양
이동수
음악중심
##nguide
Check
Force
아이비리그
##스턴스
fre
봉은사
가니
디노
비사
##사이징
##ffer
hdc
그치만
이정수
구조주의
party
문용
은주
PBS
고령군
로마서
속상해
줄라고
시켰으나
다운사이징
투타
ESL
접지력
광수
병비
샤또
호야
동서고금
##지시
메르시
인접국
휴식처
데려와서
##men
폭거
개통식
##무르
##사지
금곡
분리대
에일리언
Magic
##달콩
포사
DSC
Hit
전원생활
Bridge
알콩
지효
RAW
애니콜
코카인
1118
알콩달콩
##Net
모락
스핑
구충제
방백
번스
종놈
ECO
무릉
타단
패류
kdi
여성미
1867
사도행전
왼손잡이
갱생
서래
시학
WIN
지표면
BX
도니
마조
북침
저돌
채희
밀어붙일
스페셜포스
##부츠
##지아
##서구
시납
도매업
추워서
Brit
호남고속철도
씸
재도
어윤대
멜라니아
군마
레노
위판
정다
활달
반투명
어야지요
##asa
네로
맹금
서둘렀
text
Lyrics
배째
gen
job
세포막
프란체
0328
030200
차사
ice
김여사
방역망
근태
녹번
포개
방관자
0904
소만
겠다며
##케스
##med
관수
따귀
정반
nct
jinxijun
대려
보현
싱하
Phot
##산맥
노먼
자야
집정관
용천
재방
##리크스
김용구
생매장
아모텍
이성규
##의료
고연
ᅳᅳᄏ
패터슨
포카리
나원
능감
대함
마추
리어스
싱글벙
컸으며
1430
겨드랑이
뒤따른다
욕지거리
흐트러진
Break
SY
연원
창수
##미니엄
박홍근
콘도미니엄
##IDX
격감
ktb
미화원
엘리시
공명선거
트뤼
구현모
대궐
린트
CHA
유카리
제주은행
##티엄
심교
예복
차음
##ploy
깨우쳐
빨라져
쓰러진다
크로노스
##혜숙
주청
Pos
대용식
1112
1873
가학
신궁
스테파
요동쳤
중간광고
신판
COE
와사비
입버릇
카르멘
엑슨모빌
Pi
빠이
살로
새롬
오펠
보아오
제라드
과학기술정책
각론
동락
라요
CIB
병역면제
믄서
백령
야광
왕산
돌려라
자만심
make
Toyota
##우산
무디
현가
파푸아뉴기니
상춘
탁아
Bull
초강대국
##티움
Ut
리셀
중죄
곰돌이
온도계
유병재
두려울
드라고
물어본다
지나다니
남노
상행
샤이닝
드릴께요
대척
되갚
집전
금나라
팔려서
펜티엄
Image
green
##극단
셔리
칼칼
학보
마음놓
전여옥
1005
돌아갑니다
둔산
증장
특경
관광부
커다랗
특별세
자아실현
009540
몸짱
서던
skt
대들보
오합지
녹산
삼부
이본
진회
천계
한금
DRM
인후통
출장비
헤이룽장
현실주의
##징가
lt
생로
금붕어
김환기
문성근
분풀이
원양어
삼척동자
눈멀
드높이
질까봐
띄어쓰기
논외
미방
뒤집혀
두려워할
위키리크스
김필
봄비
사산
우규민
이스턴
##고불
메지
박서준
오달수
가메
숙대
서정진
부토
062
gps
공제금
담금질
아이이
조롱거리
호킹
김경호
막노동
재임용
허정무
가시거리
길들여진
경북대병원
농기
홍인
##ract
##EI
누마
원영
축대
고정부
구월동
김옥균
대장금
KEDO
소선거구
늦춰졌
셀레늄
아고다
황의조
일산서구
##하복
관변
넘실
슈만
제육
쫄딱
호피
경원선
비잔틴
연결망
월급제
정은보
1570
클라이너
금시
비계
천향
굽이
계급장
내지르
만안구
국어사전
대디
와전
짓궂
커야
표장
##atus
Doc
도스토
##quest
Chang
거덩
현질
##파트라
수재민
관훈
용유
넘쳐났
클레오파트라
굶겨
외다
환사
Hon
she
박병석
사마천
양성소
성수대교
싱글벙글
##체온
블래
사그
가담자
상명하복
##규정
QV
기현
우고
##글랜드
관해선
동부산
최인호
강제노동
무통
포신
해와
저체온
한민수
2560
가시밭길
이라던가
니오
단문
류자
재할인
플럭스
아닌데요
정학
타종
푸치
뒷거래
들어차
일본은행
006400
##데일
##평면
광파
뉴잉
바카
사헌
성성
환청
##비우스
Rig
cfo
북극해
시식회
서석
엄기
쭈쭈
페도
마따나
파밀리
##깎이
앙숙
주수
첩첩
토인
니타스
완산구
제이준
카스티
조유
INS
반역죄
##콜콜
나두
셰리
에어쇼
청년단
떨려
##트랙션
승부사
이수만
척추관
시시콜콜
어트랙션
아이라이너
pi
가채
영기
주호
JDC
VOA
김용진
롬바르
조응천
훈련생
##aling
1630
2580
미끄러졌
봉변
순면
최애
호무
김은정
대기업
모여드
미상환
삼각주
0326
##요환
##칼튼
##aud
채드
가자미
보급품
되살아났
자그마치
OX
달치
레츠
HPV
남반구
시에라
엑시즈
플래닝
Phone
##zz
등수
차륜
1864
True
##수익
##의연
SDN
마스트
재력가
오합지졸
##불복
섯다
키미
스쿨링
이만수
질린다
##빙수
비숍
조면
화마
##iano
IPP
노르딕
들쑤시
자라난
한한다
0007
roll
흘러내렸
비즈니스맨
등정
수빅
엠버
윤소
김보름
팥빙수
동화기업
움직여서
##가로
##소서
##젠타
팔당
향정
kje
김경환
인디고
홋스퍼
가져서
역세권
로테르담
Electronics
##val
야학
내달리
병문안
리츠칼튼
난수
남제
뻗치
얼렁뚱
한사코
##perty
소프트볼
조동아리
허베이성
달랠
득점자
이인호
지창욱
편입학
재민
허송
눈치챈
대형가
모조품
전의원
최성해
맥라
유와
약혼녀
떨어뜨린다
##와인
래드
그레고
복불복
Ze
검역소
1877
TOPI
돌아댕기
##바토
에른
AES
don
불러와
생성기
지지리
참모장
분리주의
말벌
MDS
교대제
방어전
비싼데
실효성
두려워했
앞니
온순
각본가
얼만큼
Dynamic
Ce
LR
움직인다는
096770
lovely
털썩
##지부동
0550
##상간
##인데
천제
운송인
수출업자
##팽창
부푼
증한
##side
가르키
드러눕
체코슬로
체코슬로바키아
gh
황망
래스터
전력화
밀어붙여
요지부동
간교
개괄
본때
세토
캡콤
배달부
살코기
Natural
##하는
반어
암자
퇴물
att
돼냐
임부
아쉬워서
떨어졌으나
##SH
##vo
##mas
들킬
해본
교육위
이병규
추적자
당번
켈트
로타리
유통량
정기선
3150
CCSI
내세워서
##BN
계피
방접
패미
난리나
넌지시
근친상간
every
##뭐니
##속구
##타루
응접
퓨즈
김경진
동년배
특수교육
##선동
조단
넘어질
유명희
이정민
필리프
혐의점
미니게임
##숫가
##타령
냈었
따라온
한국명
국수주의
베트남인
뉴잉글랜드
Church
##BY
기의
득템
비망
쪄서
부평역
신발장
호숫가
명신
짜인
태성
흉년
겹친다
박찬욱
발전상
사헌부
서기장
EMEA
구렁텅이
Industrial
슘
번인
오치
##바위보
납북자
스크루
우려낸
Securities
가마니
수나라
극자외선
가위바위보
리슈
정견
차악
화북
뛰어올라
미년
백도
농지법
도미닉
최시중
##고분
내왔
화로
배두나
꾸중
스쳤
hug
경비병
모리슨
구태의연
금제
업연
Ham
마이트
파사트
jmkim
##너덜
다더
##니뭐니
##ping
body
just
iTunes
적셔
0041
안타까워하
##una
li
남근
디앙
용종
믿음직
산탄총
윤상직
베어스턴스
##팔라
남면
졸부
투습
광견병
국경선
억지력
##반장
들불
미경
지티
황영기
##istic
일러스트레이션
라만
일향
오사마
hjkwon
##방동
감언
Dat
Rub
재무장
지켜서
파크뷰
Operation
과방
담낭
방약
버틴다
셀룰러
##팬츠
기예
보카
에뮬
광복회
뒤진다
웃음꽃
Baby
고수익
기와집
외동딸
선운
강속구
카시오
##echan
로브스키
mobile
생닭
윌버
혈서
바쳐야
다운재킷
사카모토
꿉
OD
명패
삼매
뒤틀린
채워줄
##공세
승연
엄니
은정
##iful
isa
김현우
부들대
속한다고
상일
유제
Fly
IHQ
김성식
차인표
참말로
0112
컴캐스트
농해
이루어짐
##jin
성규
aoa
설교자
페리어
Second
스텍
양영
운산
김인규
테넌트
우선순위
##pliance
##침대
삿대
조질
박정원
내외통신
무령
석차
홍상수
Marc
Paris
##COM
낼까
신채
타니
피버
Baa
인기상
터뜨릴
홍라희
MPEG
아로니아
공훈
앞질러
총공세
1862
뭐니뭐니
태평성대
Beach
이루어집니다
유양
짜임
풍파
Far
박수근
블락비
껄끄러운
맴도
옥고
황현
짊어진
크리스토프
##포항
싸매
휘둥
김인식
##세코
독산
제부
파해
허블
Kbs
재해석
Pharm
##타민
새들
점입
칠순
##고구마
Oct
충정로
MJ
감화
마대
분구
성한
이클
죽염
켈러
험자
##갈머리
##공서열
##코니코
경사지
꽁무니
물리력
치켜들
연공서열
이클립스
백해
파빌
공대위
소년단
윤계상
1332
##토마토
NBP
소가죽
multi
##락부
매코
벌컥
세고
외감
추성
See
네모난
변해서
오로치
초겨울
LDPE
볼빅
신복
초승
이용호
다원주의
쓰러트리
비례제
빗나간
엘비스
Knock
premium
메꿔
알현
축이
조언자
너덜너덜
방울토마토
어죽
초이
태리
바보짓
요한다
퍼뜨렸
다이스케
##임당
니코니코
##li
리유
탕탕
행도
고물상
슈가맨
멩
##가야
김재호
다사다
사야카
이헌재
kisa
신사임당
##로디
##her
배뇨
판과
재전송
포도밭
Manufact
강통
삼치
자공
pet
독버섯
써내려
지그시
편해졌
여한
감정선
위성호
##장담
eg
마틸
CMP
구상도
손재주
마애
경사진
루시아
토트백
##pn
##유포
동리
새이
연병
윤하
기어들어가
갑과
콜레
슬래그
파파라치
##어두
mf
특효
십계명
타박상
비듬
최호
누려야
서재필
##inder
##옥희
##하드
제개
화위
가래침
드라이어
뛰쳐나가
Corporate
##채원
남명
코브
NDC
알아먹
탑재량
1125
TECH
프란체스코
무미
뭣하
##izon
##osa
샤토
양학
주노
052
강력부
공중전
베이너
역이용
의정비
깜놀
빠름
선각
왓츠
필스
013
절도범
##대감
갈길
만시
##fect
가리비
LTPS
호언장담
램지
할퀴
##드려요
##4020
REA
참가율
##ython
Computer
##관제
겐조
살판
집터
균형감
파티마
이룬다는
##ged
ga
홀린
MAN
경고장
분화구
하이츠
device
박광온
최수현
콘스탄티
비스마르크
알스
아즈텍
집어던지
상증
구호품
두터워
말린다
비확산
##사철
개풀
줄자
김성준
모자른
송이버섯
##roller
##ITC
영관
옥동
증량
허사
Girl
동북공정
일어난다는
Fundamental
##세지
괴질
덧대
연옥
고라니
바둑판
숄더백
에프엑스
대죄
송은
등용문
라이어
incl
구선
정련
톤수
##브라운
슈피겔
강해진다
비천
국민감정
##강우
간추
산선
이엠
023
사실혼
하이웨이
sound
PN
당최
선린
##아트홀
요동칠
젠틀맨
펜던트
가판
##리어스
##loud
김철수
김형태
바실리
발소리
배수진
표준시
##사실유포
price
##촌리
서고
ABN
김경문
절대자
##돌라
저래서
Chief
##포리
마징가
흡입구
어땠을까
허위사실유포
언년
형민
MUS
아키타
헛되이
파빌리온
령자
섬머
짤린
롤렉스
마주칠
##사우루스
조제분유
조지아주
흘러간다
벌채
일합
하연
##mall
방송위
울고불
조현우
과대망상
하모니카
Outlook
철망
앞다리
이상자
1690
기아대책
프리드먼
버밍
베브
빈사
진에
견적서
내몰렸
아발론
1290
CBOE
천역
코베
경희궁
돌려줬
림프절
주승용
##생물
말러
BMI
맥없이
양상추
계심
풀칠
데미안
인생관
##저널
##ken
통달
파식
홉스
래프팅
화학자
표리부동
기협
도재
쿵쿵
나영석
윤호중
헤인즈
진남
김영희
생선회
휘청이
금탑
##동면
iso
와룡
변동비
최희섭
후쿠다
프란시스코
##뜨기
##르츠
계투
넘친
##도서관
결핍증
8350
로사리오
예수쟁이
##담비
##RLD
##wei
객기
빗속
젖혀
나성범
더듬이
화물창
불볕
인순
찬조
한주
Cow
수문장
진공관
찌푸렸
팔아넘
NAR
아티스
확장자
##ership
싸돌아다니
니께
명예직
원료탄
이지훈
1310
우자
WON
스피디
조환익
쪼개지
##iling
아틀리에
쾌청
레드불
JJ
개마
뻔했
소론
유순
함게
PIN
임태희
##fault
head
다사다난
웃음바다
관구
깁슨
아호
외경
쯧쯧쯧
콩고물
트레비
고갯
루벤
뺏길
윤장현
모직
엔론
의주
용적률
은수미
금융업자
Technologies
뀐
##Pro
멍석
영훈
인모
효창
IMT
김상헌
는단다
BIFF
##루아
담도
도액
전창
총포
주제넘
##idance
##육아
관조
마창
만보
타성
##vert
공덕동
돼버린
문젠데
프레이저
스포츠동아
technology
강윤
서풍
체니
희수
정동진
digital
고별
다희
명할
발터
아더
화실
북가
영롱
팡팡
필시
한뜻
행로
USC
모셔야
##자일
검법
꽃샘
치미
향동
머스탱
흐느끼
얼렁뚱땅
다가올수록
술대
HUD
한성숙
보코
알폰
여척
유단
토템
too
때려도
설렌다
구스타프
오하이오주
kp
칼레
다공성
이서진
Make
SLBM
외수
##민스터
Ter
ICAO
Sign
가시광선
local
##결혼
복속
특훈
Layer
떡값
천금
몰려서
버린다면
강강
짠맛
코린
##파인더
대가야
부유물
사시사철
pf
스웰
장의
##레이브
PMC
Side
인사이동
하바
설명력
실습실
제안자
타고나
푸르메
공동육아
번다
항진
앞바퀴
웨일즈
made
벌초
윤원
##oria
데리다
솟아나
자유인
공개시장
버렸으니
연례행사
공개시장위원회
##YO
##봉동
감바
권일
금서
앙헬
##onic
SDC
아름다움의
받아들여진다
##키티
##하탄
반수
시낭
저들
아세아
우회로
이장우
정무직
1740
헤밍웨이
마르티네스
credit
##나우
##마라
판막
효정
군수품
불청객
1760
서관
소일
가늠자
문방구
바뀐다고
##Pa
명승
목요
편평
##ospi
박상진
bottom
신탄
헬퍼
CDM
##성시
개재
실언
오휘
헐렁
나탈리
이직률
인기척
통신선
햄스터
##ifi
계집애
리베로
판매전
평화주의
RH
본대
장품
탄소세
그린란드
한국전력기술
결자
맥라렌
합해서
귀어
류경
성읍
임승
##공항역
NIE
다스렸
로만손
알톤
제위
허파
1869
##상트
로커
성육
쉬프
체성
파버
아바스
구김
응분
젠시
차대
킹콩
서글프
공공질서
Games
볍
box
보온병
소화제
국립묘지
마산회원구
빅맥
애너
염도
팥죽
MOS
iii
람사르
해지율
뛰어오른
신일본제철
프레지던트
##자국
양철
오의
점했
채혈
올라탄
접대부
정체기
Last
보잘것없
오페라단
도티
삼엄
심비
용건
Ref
겠지만
빈민가
감쪽같이
수레바퀴
##NAL
도란
에크
펌핑
상업지
오나라
정중앙
휘말릴
휴대품
##org
봐주
옥살
온대
소시에
신디케이트
Experience
기악
물회
보채
엘런
시험실
파이버
비잔티움
아레스
music
국립중앙도서관
덤프
복위
운트
터줏
폭압
INI
Pot
셀룰로오스
카운터포인트
##무드
##변기
치룬
##alse
백세주
불러라
game
법도
수회
##데이터
사임당
서경덕
권합니다
노른자위
유노윤호
지하자원
positive
ma
궁굼
예순
루리웹
메이어
엑소더스
##니발
나참
린데
모야
시더
은호
루테인
솜사탕
스토퍼
파울루
엉엉
중병
기형아
꿍꿍이
뒤돌아
축소판
허태정
불타오르
ol
모술
산법
의탁
걸려온
광고료
인공강우
layer
금충
맵시
촌철
휘경
김동환
김병기
사이퍼
자극제
커미션
해치우
##두루
##서버
장회
김소현
##인명
떠든
시수
신료
입신
CFA
박용택
연대장
Hyper
NASDAQ
엉켜
출향
SNK
게르마
고목
금양
##athy
가두리
돌연사
뽐낸다
사이타마
시사저널
지엽
칼스
이러쿵
Intelligence
바도
순애
##멕시코
024
익혀야
전두엽
칼리파
티모시
해줘야
##집게
건화
야상
통인
유인원
첫머리
된답니다
##수전
문발
배사
완쾌
월령
으깨
환인
##rost
FED
이바라키
DN
둥펑
##lete
Alb
##inary
주택협회
데상트
미우라
권리관계
about
콘스탄티노플
낙조
웅성
케톤
043
사진기
자책골
퀴즈쇼
Range
##이네
관부
동침
민재
번다고
사적지
뉴멕시코
##iab
뜨끔
직조
Men
아자르
의병장
파워레인저
##게일
df
안평
잎새
##프스키
김경희
문소리
안후이
중압감
터줏대감
변천사
장타력
최창규
##비트
에나
외발
그리로
도루묵
생일날
함재기
부른다고
에르난데스
완존
전각
아이씨
청년기
더해준다
살펴봐도
##ovo
징발
Cup
WWF
대한문
더이다
비구름
2650
보주
죽순
##답시고
얼치기
##세월
규획
비봉
김선우
난린데
얽매여
연두색
옮겨간
유세윤
정공법
FREE
화각
계류장
아르투
##대신
격벽
꿈쩍
친권
AOL
ROM
지킵시다
Personal
##URE
게토
멋쩍
반구
초승달
퍼진다
Wave
알렉시스
리졸
덕진구
르브론
밀려왔
연산동
정준하
출원인
폐자원
보구
iss
필사본
에드워즈
전력투구
엘리야
퍼져서
깜냥
무민
속료
옥계
웨버
애드리
이수영
ftse
##아쳤
Ow
빗댄
오설
라라고
봄기운
유치권
지성호
죠죠
이정우
주걱턱
웨스트민스터
몽롱
층층
코젠
폭음
활전
044
이순우
메타데이터
VKOSPI
##아름
부루
조홍
펜데
다져진
청담러닝
Fnguide
계백
브린
윗집
##omer
묻어두
페이서
안드레이
빙긋
정갑
종언
탄막
튼실
tem
수세미
밝아졌
##가사리
bis
그라프
다이크
Mess
네스카페
style
##고쿠
제관
초자
이건호
관공
만조
명승부
점령지
Commodity
반다
해친
다뤄졌
산사람
태진아
rest
##멘토
##방귀
남충
Lic
TEL
그린피
돌아본
Pool
만난다는
나타냅니다
##FET
삼합
ars
최종현
귀천
큰지
##인명사전
스피노
아까우
트레블
야외무대
Linux
하이파이브
##호크
낙뢰
남항
아몬
##아산역
FHD
천안아산역
Little
친일인명사전
북문
서먹
윤홍
소독기
야적장
타이슨
##ramework
##가전
##민관
갱도
FMC
깨부수
무중력
봄나물
쇼쇼쇼
코리보
버린다고
아나스타
올렸으나
플라이트
루다
주은
최나
##stal
ESC
염치없
키메라
톰보이
##응찬
대규
시유
들려준
문학회
##알코
##wls
과욕
담관
라미란
새로워
남북협력기금
꺼림
단칼
봉명
중계동
덧붙인다
##재훈
은희
라응찬
시금석
##Script
수병
우노
김국진
손놀림
진화론
노임
예거
로워질
빗발쳤
아데노
sign
바이어스
Quick
디온
##알코올
##크루즈
헤드업
plan
레이먼드
##iation
보이드
##키나발루
##모트
##범석
js
비취
석호
쪽파
##으면서
김형석
내수면
조아라
중랑천
합정동
만병통치약
코타키나발루
중의
못생겼
윤종원
고미
뺏겼
선스
한채
산수화
오프라
아르테미스
인디펜던트
##디포
동한
유훈
쿠지
결막염
조희팔
행정법
홈디포
Like
군립
심란
펴지
하모
맡겨진
수신제
mode
전자기파
리갈
맹위
북고
윤후
드리운
배구단
라캉
맞혀
올거
준말
호산
1818
인만
뒤꿈치
육영수
전람회
##기도
##흡연
곤잘
기진
##어져야
손담비
유후
젝시
토빈
현경
났으니
반응기
오토메이션
경전선
들어서야
헤쳐나갈
##anning
대업
떨칠
오실
동성로
윤성환
Marketing
##필락
SIG
갈라졌
김영일
비욘세
새마을
사이클론
아나필락
초산
조직체
##하르
기촉
바움
불결
비빌
씌울
임화
쿠루
위장관
청장년
피지배
필기구
연개소문
윽박지르
##TB
들킨
측정값
1480
##가경
견련
채연
##옵니까
망가질
타카하시
바레
종수
피똥
한철
규장각
well
Voice
어려우므로
능수
렸다
옹졸
조너
출납
고차원
몰아쳤
뇽
##대비
칼끝
혈흔
##뒤치락
##스티안
##cent
CNT
비틀스
창조물
콜로세움
XD
병용
오발
효행
간접흡연
인지상정
새장
액추
차시
WAR
뿌린다
줬으니
2550
분단국가
액추에이터
비카
얌체
짬짜
035
Put
1372
틈바구니
페르디난
쓰레기봉투
##다귀
김좌
캔터
김종현
사이사이
타지키스탄
##dom
간구
벌렁
알랭
짤렸
스모키
한의학
저명인사
kakao
구관
녹슨
무네
그늘막
기능직
드림웍스
##yu
미조
직도
일지도
임요환
##ories
River
Organization
##hr
##클링
fi
남평
서야
셀리
입면
생두
실온
양비
have
튀르
풍구
김병수
아우른
친다는
사사로운
다린
센추리
건국훈장
Place
##발림
##프턴
문익
##으리라
칭기즈칸
포스트잇
##istics
장연
구의역
잊혀질
케이싱
1640
는다거나
부끄러웠
##공노
##점포
##trl
##zer
곱슬
상평
킬라
칠면조
풍경화
백색가전
프라모델
구래
시러
분자량
파고든
팩커드
동충
청강
맨하탄
산기슭
테스토
Mind
애드센스
##드릭
##해지
미침
쉐어
타요
GLP
bro
##stein
웨이스트
테스토스테론
##entiment
BYC
둡니다
봄여름
안경테
저궤도
천인공노
##illion
##로비
부청
씻기
똘똘한
쏘아보
이상재
청계산
한복판
로즈마리
완벽주의
가까워질수록
박강
안검
외빈
##토리엄
inn
골잡이
아나톨
USDA
아밀로이드
Object
부쉬
송풍
선릉역
상하좌우
Ocean
깽이
냉대
갇혀서
##넘이
법익
서미
케플러
삼성병원
아스파라
간송
범타
야요
익추
전연
천경
BHC
키자니아
##치슨
간이식
라우팅
고분고분
##BOX
단판
메가톤
1590
날일
윤창현
##ledge
두루두루
부탁드려요
##mi
갑절
내상
돈지
앙고
엄친
호프만
Flat
Graph
##uration
##팔찌
Mn
부구
##word
돌다리
##itive
바람둥이
Clark
follow
##마담
시메
향우
##down
부르고
사당동
국의
담갔
보즈
부회
샘솟
일경
남포동
버몬트
빚쟁이
엎치락뒤치락
머쓱
암종
AIR
고아라
요제프
##iffer
과묵
긁어
조황
봉해졌
쓰여졌
##민수
##범벅
간악
논문집
웰링턴
QFII
물리치료
비번
한함
핵우산
Policy
##여래
GNP
아틀란
원시인
카메론
폴리아
할렐루야
심결
조갑
##reme
돋보인
속삭임
신부전
단풍나무
인과관계
ELF
1117
캐나다인
##323
살점
약시
오제
견뎌낼
못해요
인용문
새마을호
international
##공부
##목사
gg
문규
분점
온세
동원령
실업팀
핵확산
점입가경
##탕스
마거
자년
Ill
폴리카
레지스탕스
고보
데키
섬겨
임인
전심
정토
투찰
DOC
Ess
낚아채
북소리
수필가
대이
사감
##bird
극좌파
예방책
피가로
부추긴다
메드베데프
고쳐라
사물함
수색대
유일신
이용대
정관용
사회민주당
##동맹
##떨이
UB
라섹
아함
동형
뻥뻥
해두
디오니
소하천
영화판
케이카
Shang
부릉
양세형
에드가
스노클링
투모로우
Focus
디그
학산
전신주
1610
상통
##오빠
의보
진박
팔목
물려준
야릇
요샌
주얼
치자
문구점
추진기
한기평
##매자
골탕
살구
상할
무성의
COMEX
수동변속기
양군
몰아쉬
이상직
집행관
두드러짐
블레이즈
##이설
CTA
##autiful
딱이
산야
처서
##신문고
눈치챘
백도어
스며드
ju
에든
월수
JSA
안젤라
재정비
위칭
인편
061
김진호
예상액
##프로그램
국민신문고
##가키
배진
샬럿
성세
자통
Lux
김민희
서해선
조절기
dbtp
물리학상
##ati
지대공
나몰라라
남송
양속
내각제
온에어
외식비
##파르
인혁
화시
덕유산
발사장
조정장
block
dbtpwls
##서기
##emb
최자
꼬랑지
아나필락시스
웠
양만
장춘
펜더
하가
하장
기혼자
빛난다
섭니다
였음이
추격자
한니발
1031
##IDE
거던
서유기
혹한기
spec
무신론자
에든버러
##특정
계율
솔비
일망
장일
조가
뜨거울
장민호
전주국
헬싱키
EGFR
##린저
꿰찼
어보
삼보컴퓨터
내곡
능구
절레
홍미
FSB
법무관
부인과
이상주
팀플레이
볼지
승호
교수회
File
부둥
통전
Pen
매그넘
소주병
이오리
최장기
허스키
##보네이트
##발인
소병
물리칠
민소매
Loss
반공주의
##강식
Ax
본이
송용
술상
칠까
배수구
오마르
임수경
Original
금박
동나
주객
PPA
않되
양관
이로
토와
기념탑
춤사위
필룩스
감정싸움
스피드뱅크
##마늘
dw
동궁
이그
드러커
조광래
콘스탄틴
한국지부
뛰놀
로퍼
반길
감언이설
프레드릭
##oration
폴리카보네이트
계성
성애
덩그러
게오르기
뜯어고치
끌어올려야
라매
맹견
TNT
남성미
반지름
부정사
유별나
이시종
Mk
구난
수륙
하북
신수종
저지선
##otive
##hi
##iki
il
먹자
장손
절편
남수단
버려졌
수도자
초심자
##키키
깎인
밀항
제망
권상우
사이좋
논한
토산
페디
푹푹
달려라
뜯겨
센세
에타
창극
신지식
센세이션
컴파일러
피고발인
랐
서에
비상금
매개변수
부왕
쉬이
재희
boy
박영준
심판대
나와야지
##PT
적치
abs
필리스
14001
##매틱
##장교
개패
료칸
밀짚
복심
적신
침소
##모세포
칩시다
거쳤으며
모른다며
감쌌
근신
대절
재동
[...]
